<unk>	0
<s>	0
<|endoftext|>	0
's	0
't	0
're	0
've	0
'm	0
'll	0
'd	0
<0x00>	0
<0x01>	0
<0x02>	0
<0x03>	0
<0x04>	0
<0x05>	0
<0x06>	0
<0x07>	0
<0x08>	0
<0x09>	0
<0x0A>	0
<0x0B>	0
<0x0C>	0
<0x0D>	0
<0x0E>	0
<0x0F>	0
<0x10>	0
<0x11>	0
<0x12>	0
<0x13>	0
<0x14>	0
<0x15>	0
<0x16>	0
<0x17>	0
<0x18>	0
<0x19>	0
<0x1A>	0
<0x1B>	0
<0x1C>	0
<0x1D>	0
<0x1E>	0
<0x1F>	0
<0x20>	0
<0x21>	0
<0x22>	0
<0x23>	0
<0x24>	0
<0x25>	0
<0x26>	0
<0x27>	0
<0x28>	0
<0x29>	0
<0x2A>	0
<0x2B>	0
<0x2C>	0
<0x2D>	0
<0x2E>	0
<0x2F>	0
<0x30>	0
<0x31>	0
<0x32>	0
<0x33>	0
<0x34>	0
<0x35>	0
<0x36>	0
<0x37>	0
<0x38>	0
<0x39>	0
<0x3A>	0
<0x3B>	0
<0x3C>	0
<0x3D>	0
<0x3E>	0
<0x3F>	0
<0x40>	0
<0x41>	0
<0x42>	0
<0x43>	0
<0x44>	0
<0x45>	0
<0x46>	0
<0x47>	0
<0x48>	0
<0x49>	0
<0x4A>	0
<0x4B>	0
<0x4C>	0
<0x4D>	0
<0x4E>	0
<0x4F>	0
<0x50>	0
<0x51>	0
<0x52>	0
<0x53>	0
<0x54>	0
<0x55>	0
<0x56>	0
<0x57>	0
<0x58>	0
<0x59>	0
<0x5A>	0
<0x5B>	0
<0x5C>	0
<0x5D>	0
<0x5E>	0
<0x5F>	0
<0x60>	0
<0x61>	0
<0x62>	0
<0x63>	0
<0x64>	0
<0x65>	0
<0x66>	0
<0x67>	0
<0x68>	0
<0x69>	0
<0x6A>	0
<0x6B>	0
<0x6C>	0
<0x6D>	0
<0x6E>	0
<0x6F>	0
<0x70>	0
<0x71>	0
<0x72>	0
<0x73>	0
<0x74>	0
<0x75>	0
<0x76>	0
<0x77>	0
<0x78>	0
<0x79>	0
<0x7A>	0
<0x7B>	0
<0x7C>	0
<0x7D>	0
<0x7E>	0
<0x7F>	0
<0x80>	0
<0x81>	0
<0x82>	0
<0x83>	0
<0x84>	0
<0x85>	0
<0x86>	0
<0x87>	0
<0x88>	0
<0x89>	0
<0x8A>	0
<0x8B>	0
<0x8C>	0
<0x8D>	0
<0x8E>	0
<0x8F>	0
<0x90>	0
<0x91>	0
<0x92>	0
<0x93>	0
<0x94>	0
<0x95>	0
<0x96>	0
<0x97>	0
<0x98>	0
<0x99>	0
<0x9A>	0
<0x9B>	0
<0x9C>	0
<0x9D>	0
<0x9E>	0
<0x9F>	0
<0xA0>	0
<0xA1>	0
<0xA2>	0
<0xA3>	0
<0xA4>	0
<0xA5>	0
<0xA6>	0
<0xA7>	0
<0xA8>	0
<0xA9>	0
<0xAA>	0
<0xAB>	0
<0xAC>	0
<0xAD>	0
<0xAE>	0
<0xAF>	0
<0xB0>	0
<0xB1>	0
<0xB2>	0
<0xB3>	0
<0xB4>	0
<0xB5>	0
<0xB6>	0
<0xB7>	0
<0xB8>	0
<0xB9>	0
<0xBA>	0
<0xBB>	0
<0xBC>	0
<0xBD>	0
<0xBE>	0
<0xBF>	0
<0xC0>	0
<0xC1>	0
<0xC2>	0
<0xC3>	0
<0xC4>	0
<0xC5>	0
<0xC6>	0
<0xC7>	0
<0xC8>	0
<0xC9>	0
<0xCA>	0
<0xCB>	0
<0xCC>	0
<0xCD>	0
<0xCE>	0
<0xCF>	0
<0xD0>	0
<0xD1>	0
<0xD2>	0
<0xD3>	0
<0xD4>	0
<0xD5>	0
<0xD6>	0
<0xD7>	0
<0xD8>	0
<0xD9>	0
<0xDA>	0
<0xDB>	0
<0xDC>	0
<0xDD>	0
<0xDE>	0
<0xDF>	0
<0xE0>	0
<0xE1>	0
<0xE2>	0
<0xE3>	0
<0xE4>	0
<0xE5>	0
<0xE6>	0
<0xE7>	0
<0xE8>	0
<0xE9>	0
<0xEA>	0
<0xEB>	0
<0xEC>	0
<0xED>	0
<0xEE>	0
<0xEF>	0
<0xF0>	0
<0xF1>	0
<0xF2>	0
<0xF3>	0
<0xF4>	0
<0xF5>	0
<0xF6>	0
<0xF7>	0
<0xF8>	0
<0xF9>	0
<0xFA>	0
<0xFB>	0
<0xFC>	0
<0xFD>	0
<0xFE>	0
<0xFF>	0
▁t	-0
▁a	-1
he	-2
in	-3
re	-4
▁the	-5
on	-6
er	-7
▁o	-8
at	-9
▁s	-10
en	-11
▁c	-12
▁w	-13
es	-14
is	-15
nd	-16
it	-17
or	-18
▁p	-19
al	-20
▁b	-21
ed	-22
▁of	-23
an	-24
▁f	-25
ing	-26
▁in	-27
ou	-28
ar	-29
▁m	-30
▁and	-31
▁to	-32
ic	-33
▁d	-34
ion	-35
le	-36
ro	-37
as	-38
▁h	-39
ent	-40
▁th	-41
ct	-42
▁e	-43
il	-44
▁re	-45
▁T	-46
om	-47
ve	-48
▁l	-49
st	-50
▁n	-51
ly	-52
▁be	-53
▁is	-54
se	-55
ol	-56
▁A	-57
▁g	-58
ation	-59
im	-60
id	-61
et	-62
ut	-63
ce	-64
▁S	-65
ot	-66
ur	-67
ra	-68
ch	-69
▁I	-70
ow	-71
▁for	-72
ig	-73
▁u	-74
▁C	-75
▁that	-76
▁on	-77
▁st	-78
ver	-79
▁The	-80
▁y	-81
ir	-82
ul	-83
ay	-84
am	-85
▁as	-86
ith	-87
el	-88
ad	-89
▁pro	-90
her	-91
▁are	-92
▁con	-93
▁an	-94
▁with	-95
▁M	-96
if	-97
▁you	-98
▁wh	-99
▁it	-100
▁or	-101
▁al	-102
▁P	-103
ter	-104
od	-105
▁(	-106
▁1	-107
▁B	-108
ment	-109
ge	-110
th	-111
▁W	-112
op	-113
ate	-114
ist	-115
▁de	-116
ers	-117
ess	-118
▁H	-119
ill	-120
▁he	-121
ies	-122
ab	-123
▁ex	-124
▁su	-125
▁we	-126
ect	-127
ore	-128
▁com	-129
us	-130
ity	-131
est	-132
▁ha	-133
res	-134
ive	-135
ac	-136
▁D	-137
um	-138
rom	-139
▁v	-140
ld	-141
os	-142
ke	-143
▁by	-144
▁E	-145
ant	-146
▁F	-147
em	-148
qu	-149
iv	-150
ain	-151
▁R	-152
nt	-153
▁at	-154
pp	-155
igh	-156
▁can	-157
▁was	-158
ud	-159
▁-	-160
▁from	-161
▁ch	-162
oc	-163
▁r	-164
ort	-165
and	-166
▁2	-167
▁ne	-168
▁N	-169
ial	-170
▁se	-171
▁G	-172
▁L	-173
ure	-174
un	-175
▁not	-176
▁le	-177
ical	-178
art	-179
▁have	-180
ri	-181
og	-182
▁sh	-183
▁en	-184
▁sp	-185
▁this	-186
▁O	-187
pt	-188
▁In	-189
ight	-190
▁wor	-191
▁ab	-192
ich	-193
rou	-194
red	-195
all	-196
ould	-197
ions	-198
00	-199
ther	-200
ost	-201
gh	-202
our	-203
du	-204
ome	-205
▁im	-206
ated	-207
ine	-208
per	-209
▁us	-210
▁pl	-211
ag	-212
out	-213
ard	-214
act	-215
ff	-216
▁their	-217
ell	-218
ide	-219
▁int	-220
pl	-221
▁J	-222
▁Th	-223
▁U	-224
ans	-225
ear	-226
ast	-227
age	-228
ak	-229
ust	-230
▁which	-231
▁your	-232
▁k	-233
▁whe	-234
▁they	-235
ec	-236
ous	-237
iz	-238
ood	-239
▁ad	-240
ult	-241
▁all	-242
▁cont	-243
▁will	-244
ib	-245
▁inc	-246
cc	-247
end	-248
▁dis	-249
ru	-250
▁comp	-251
ap	-252
▁more	-253
▁“	-254
▁res	-255
ong	-256
ip	-257
vel	-258
ia	-259
ations	-260
▁has	-261
ew	-262
ere	-263
▁do	-264
orm	-265
so	-266
ary	-267
ater	-268
able	-269
ence	-270
are	-271
ild	-272
▁man	-273
▁cl	-274
ual	-275
▁other	-276
ks	-277
▁but	-278
▁were	-279
ry	-280
ind	-281
▁per	-282
ep	-283
▁imp	-284
ents	-285
▁te	-286
ance	-287
▁me	-288
▁also	-289
ach	-290
▁one	-291
ose	-292
ign	-293
reat	-294
ake	-295
ress	-296
ass	-297
ase	-298
av	-299
▁19	-300
▁St	-301
au	-302
▁j	-303
▁so	-304
ction	-305
ition	-306
▁It	-307
▁out	-308
ice	-309
▁un	-310
ber	-311
▁app	-312
ime	-313
one	-314
▁ar	-315
very	-316
▁part	-317
▁This	-318
▁"	-319
▁stud	-320
▁about	-321
ord	-322
ace	-323
▁ev	-324
ens	-325
ory	-326
ount	-327
ok	-328
ish	-329
ire	-330
▁who	-331
▁pe	-332
▁inf	-333
ame	-334
ack	-335
).	-336
▁sy	-337
▁his	-338
▁comm	-339
ors	-340
ue	-341
▁sc	-342
ub	-343
▁them	-344
ite	-345
ang	-346
ces	-347
ike	-348
ree	-349
ound	-350
olog	-351
▁pre	-352
now	-353
low	-354
▁bec	-355
▁Ch	-356
▁up	-357
ric	-358
▁may	-359
▁qu	-360
▁than	-361
iff	-362
ie	-363
ile	-364
ays	-365
ople	-366
▁rec	-367
▁some	-368
▁year	-369
▁20	-370
ail	-371
▁been	-372
▁when	-373
ates	-374
▁3	-375
▁there	-376
nder	-377
ings	-378
ian	-379
▁its	-380
mer	-381
▁into	-382
rit	-383
ren	-384
▁go	-385
▁work	-386
ough	-387
▁tra	-388
▁ag	-389
▁time	-390
ph	-391
▁over	-392
▁diff	-393
▁these	-394
vers	-395
▁how	-396
▁people	-397
erv	-398
▁ro	-399
te	-400
ally	-401
rough	-402
ons	-403
lud	-404
ause	-405
▁cons	-406
▁use	-407
▁col	-408
▁tr	-409
ond	-410
ific	-411
▁ra	-412
ms	-413
▁had	-414
tern	-415
▁our	-416
ove	-417
▁bet	-418
▁act	-419
we	-420
▁most	-421
alth	-422
ys	-423
▁like	-424
int	-425
ities	-426
▁under	-427
irst	-428
▁know	-429
lic	-430
▁bl	-431
▁sa	-432
▁acc	-433
lect	-434
ments	-435
..	-436
ject	-437
ll	-438
▁des	-439
row	-440
ning	-441
les	-442
ook	-443
▁would	-444
ious	-445
velop	-446
stem	-447
▁tw	-448
ffect	-449
▁new	-450
▁need	-451
▁rel	-452
▁such	-453
▁Wh	-454
▁rep	-455
▁if	-456
ient	-457
▁child	-458
▁hel	-459
▁gen	-460
▁includ	-461
▁any	-462
ob	-463
ational	-464
cess	-465
ative	-466
ple	-467
hed	-468
▁pr	-469
ular	-470
▁what	-471
▁ph	-472
▁help	-473
ced	-474
▁used	-475
▁produ	-476
yp	-477
▁Un	-478
▁only	-479
ating	-480
ov	-481
ool	-482
▁ind	-483
▁prov	-484
▁no	-485
▁many	-486
▁am	-487
▁develop	-488
▁off	-489
▁first	-490
▁through	-491
▁fe	-492
),	-493
▁spec	-494
fter	-495
▁ac	-496
ath	-497
▁As	-498
ise	-499
round	-500
ark	-501
oss	-502
▁di	-503
ics	-504
▁em	-505
▁reg	-506
▁exp	-507
▁po	-508
uc	-509
uring	-510
eth	-511
▁differe	-512
▁system	-513
▁two	-514
hen	-515
ful	-516
erm	-517
▁He	-518
rib	-519
ts	-520
oth	-521
iss	-522
ink	-523
▁201	-524
ne	-525
▁ob	-526
rop	-527
▁4	-528
ility	-529
old	-530
als	-531
▁dec	-532
▁ass	-533
ible	-534
ased	-535
▁att	-536
▁add	-537
▁sur	-538
ange	-539
ten	-540
▁should	-541
ower	-542
arch	-543
ures	-544
ife	-545
▁well	-546
fore	-547
ween	-548
ble	-549
▁supp	-550
ert	-551
▁fl	-552
ract	-553
▁water	-554
▁5	-555
▁rem	-556
ng	-557
ram	-558
aw	-559
▁sub	-560
▁inv	-561
own	-562
▁co	-563
▁health	-564
▁years	-565
gan	-566
▁between	-567
▁sm	-568
ade	-569
ied	-570
sel	-571
▁high	-572
ution	-573
▁could	-574
hes	-575
▁pres	-576
cy	-577
▁where	-578
▁200	-579
its	-580
ick	-581
ever	-582
▁trans	-583
▁make	-584
▁rese	-585
ants	-586
▁If	-587
▁get	-588
wn	-589
ily	-590
uch	-591
▁pers	-592
▁bu	-593
▁import	-594
xt	-595
ology	-596
chool	-597
▁We	-598
form	-599
chn	-600
▁her	-601
ident	-602
ience	-603
▁ear	-604
ural	-605
▁mod	-606
▁form	-607
▁inter	-608
ting	-609
▁pol	-610
ited	-611
▁num	-612
iet	-613
▁inst	-614
meric	-615
▁How	-616
▁exam	-617
ines	-618
▁Al	-619
land	-620
▁disc	-621
▁different	-622
ins	-623
▁An	-624
ef	-625
▁effect	-626
ata	-627
▁found	-628
▁lear	-629
▁For	-630
ness	-631
▁because	-632
ict	-633
ists	-634
▁after	-635
▁sim	-636
ont	-637
▁car	-638
ually	-639
▁exper	-640
▁long	-641
ism	-642
▁world	-643
▁lar	-644
▁even	-645
▁med	-646
▁cent	-647
▁very	-648
▁incre	-649
gy	-650
▁then	-651
cept	-652
▁just	-653
oy	-654
ft	-655
▁count	-656
ature	-657
▁ed	-658
▁way	-659
▁18	-660
▁det	-661
▁typ	-662
▁hum	-663
get	-664
▁resp	-665
▁inform	-666
▁Americ	-667
aking	-668
urn	-669
▁sign	-670
ically	-671
vent	-672
▁var	-673
▁see	-674
other	-675
▁ke	-676
ivers	-677
▁gener	-678
ives	-679
iew	-680
▁ref	-681
▁those	-682
▁fol	-683
ck	-684
▁Re	-685
▁pat	-686
▁Pro	-687
▁ext	-688
▁soc	-689
▁prog	-690
▁result	-691
▁process	-692
▁every	-693
▁pub	-694
cer	-695
▁Com	-696
▁children	-697
▁fact	-698
▁said	-699
▁call	-700
arm	-701
ases	-702
▁being	-703
ros	-704
.”	-705
▁ca	-706
▁gra	-707
ues	-708
▁each	-709
▁sec	-710
▁loc	-711
▁There	-712
ds	-713
ps	-714
led	-715
iron	-716
▁They	-717
▁6	-718
ruct	-719
▁requ	-720
ody	-721
▁important	-722
▁partic	-723
ages	-724
▁techn	-725
▁life	-726
tle	-727
ork	-728
▁set	-729
▁dist	-730
ved	-731
▁commun	-732
▁mon	-733
▁she	-734
▁much	-735
▁def	-736
▁during	-737
▁cre	-738
▁dep	-739
▁ent	-740
ather	-741
cent	-742
▁fam	-743
ized	-744
▁art	-745
▁lead	-746
▁read	-747
vern	-748
imes	-749
▁follow	-750
▁level	-751
▁students	-752
ward	-753
▁own	-754
▁sk	-755
▁food	-756
ices	-757
▁study	-758
▁information	-759
▁my	-760
▁aut	-761
gg	-762
▁Ar	-763
▁same	-764
▁right	-765
▁does	-766
▁made	-767
▁data	-768
ize	-769
▁grow	-770
▁proble	-771
▁But	-772
▁person	-773
any	-774
▁find	-775
ection	-776
hip	-777
▁good	-778
▁av	-779
io	-780
▁cur	-781
▁school	-782
0.	-783
▁min	-784
▁end	-785
▁str	-786
▁both	-787
ted	-788
▁ins	-789
▁back	-790
onom	-791
ale	-792
ality	-793
▁che	-794
▁using	-795
▁show	-796
und	-797
▁Sp	-798
▁pop	-799
.,	-800
▁hist	-801
viron	-802
▁expl	-803
▁Ind	-804
▁comple	-805
▁grou	-806
▁before	-807
▁cor	-808
▁gl	-809
▁small	-810
▁test	-811
read	-812
▁main	-813
stand	-814
ivid	-815
ially	-816
iel	-817
▁What	-818
ock	-819
▁treat	-820
▁Sc	-821
▁bo	-822
inal	-823
▁New	-824
▁again	-825
▁val	-826
ince	-827
ined	-828
▁often	-829
▁less	-830
▁sol	-831
▁br	-832
omen	-833
▁prot	-834
ars	-835
ix	-836
der	-837
▁while	-838
rol	-839
nce	-840
▁poss	-841
ien	-842
▁dise	-843
▁day	-844
ergy	-845
ty	-846
imate	-847
▁take	-848
▁state	-849
▁(1	-850
▁lit	-851
ished	-852
ax	-853
▁research	-854
▁7	-855
ute	-856
▁occ	-857
▁ec	-858
akes	-859
▁now	-860
▁number	-861
▁serv	-862
▁And	-863
ral	-864
▁ris	-865
▁power	-866
▁organ	-867
ex	-868
oh	-869
▁body	-870
▁mem	-871
ier	-872
vironment	-873
▁vis	-874
▁fun	-875
ulation	-876
000	-877
▁cell	-878
▁When	-879
▁him	-880
ides	-881
20	-882
▁activ	-883
▁char	-884
dition	-885
irect	-886
▁human	-887
iety	-888
ury	-889
▁hand	-890
▁design	-891
▁class	-892
iqu	-893
▁around	-894
▁These	-895
▁redu	-896
up	-897
▁support	-898
air	-899
▁8	-900
▁down	-901
▁bel	-902
iversity	-903
iving	-904
▁three	-905
ves	-906
ered	-907
com	-908
hers	-909
▁common	-910
ital	-911
ters	-912
-1	-913
▁must	-914
▁conf	-915
▁start	-916
ah	-917
ger	-918
▁look	-919
▁Is	-920
ium	-921
▁est	-922
aj	-923
▁elect	-924
uss	-925
ven	-926
▁cle	-927
▁point	-928
▁plan	-929
acter	-930
▁great	-931
▁govern	-932
day	-933
,”	-934
rent	-935
▁To	-936
ains	-937
▁10	-938
ving	-939
▁report	-940
▁did	-941
ross	-942
ave	-943
▁example	-944
▁large	-945
▁care	-946
▁writ	-947
▁ser	-948
▁land	-949
cl	-950
self	-951
ron	-952
▁9	-953
▁Se	-954
ouse	-955
▁contin	-956
▁op	-957
itions	-958
the	-959
ional	-960
gen	-961
rain	-962
outh	-963
ull	-964
▁including	-965
ared	-966
orn	-967
▁allow	-968
▁equ	-969
anc	-970
▁adv	-971
▁const	-972
way	-973
▁understand	-974
▁met	-975
ash	-976
▁though	-977
▁educ	-978
▁build	-979
▁ret	-980
...	-981
▁cour	-982
▁dr	-983
▁called	-984
▁At	-985
iver	-986
▁pract	-987
iven	-988
The	-989
▁De	-990
ner	-991
▁beh	-992
▁known	-993
▁som	-994
aterial	-995
ividual	-996
▁public	-997
▁still	-998
me	-999
ired	-1000
els	-1001
ential	-1002
▁eas	-1003
ids	-1004
▁quest	-1005
▁Res	-1006
iod	-1007
▁place	-1008
▁gu	-1009
▁Ad	-1010
ries	-1011
oms	-1012
▁ide	-1013
ider	-1014
oci	-1015
osed	-1016
▁think	-1017
ected	-1018
▁appro	-1019
▁However	-1020
de	-1021
▁gre	-1022
▁might	-1023
inc	-1024
ization	-1025
ets	-1026
itive	-1027
erest	-1028
▁mat	-1029
lish	-1030
▁few	-1031
▁caus	-1032
▁present	-1033
▁Eng	-1034
raph	-1035
▁stand	-1036
ination	-1037
▁chang	-1038
▁tem	-1039
ank	-1040
ources	-1041
eng	-1042
▁environment	-1043
▁within	-1044
▁dem	-1045
▁energy	-1046
▁change	-1047
bers	-1048
ording	-1049
▁individual	-1050
▁Con	-1051
▁pur	-1052
ration	-1053
▁product	-1054
ption	-1055
▁Ex	-1056
oun	-1057
▁want	-1058
▁without	-1059
ived	-1060
ffic	-1061
▁development	-1062
ense	-1063
▁phys	-1064
▁iss	-1065
ethod	-1066
angu	-1067
▁cap	-1068
▁sym	-1069
▁project	-1070
▁imm	-1071
ason	-1072
ior	-1073
ertain	-1074
."	-1075
▁light	-1076
▁Ph	-1077
▁University	-1078
▁material	-1079
▁199	-1080
▁impro	-1081
▁play	-1082
line	-1083
▁prof	-1084
agn	-1085
,000	-1086
▁pot	-1087
▁air	-1088
▁learn	-1089
▁Sh	-1090
▁ident	-1091
▁spe	-1092
▁ben	-1093
▁sl	-1094
▁disease	-1095
▁American	-1096
▁bre	-1097
▁pos	-1098
▁ve	-1099
▁don	-1100
man	-1101
▁direct	-1102
less	-1103
alk	-1104
▁social	-1105
arent	-1106
▁sit	-1107
iness	-1108
▁eng	-1109
sp	-1110
▁anal	-1111
▁area	-1112
eral	-1113
ability	-1114
ton	-1115
▁pass	-1116
illion	-1117
ental	-1118
bs	-1119
▁another	-1120
▁meas	-1121
orth	-1122
▁women	-1123
▁best	-1124
ians	-1125
ological	-1126
gin	-1127
▁ant	-1128
ield	-1129
ajor	-1130
▁belie	-1131
▁include	-1132
ified	-1133
▁home	-1134
▁blood	-1135
▁law	-1136
▁et	-1137
▁On	-1138
▁Cl	-1139
▁mus	-1140
erc	-1141
▁risk	-1142
▁bas	-1143
▁mark	-1144
▁cult	-1145
▁Be	-1146
rodu	-1147
ering	-1148
ify	-1149
▁interest	-1150
ug	-1151
ris	-1152
▁pain	-1153
▁desc	-1154
atural	-1155
ained	-1156
ccess	-1157
atic	-1158
▁control	-1159
ently	-1160
▁opp	-1161
▁rest	-1162
▁low	-1163
▁become	-1164
ats	-1165
▁par	-1166
▁econom	-1167
az	-1168
▁Le	-1169
▁method	-1170
▁proper	-1171
▁old	-1172
▁sever	-1173
▁early	-1174
▁anim	-1175
ern	-1176
ining	-1177
▁war	-1178
▁ess	-1179
▁better	-1180
arc	-1181
ource	-1182
esp	-1183
▁move	-1184
▁government	-1185
▁program	-1186
▁So	-1187
▁leg	-1188
▁Pl	-1189
ik	-1190
hor	-1191
▁mil	-1192
ways	-1193
▁against	-1194
ision	-1195
lished	-1196
ills	-1197
ients	-1198
▁tre	-1199
▁second	-1200
▁last	-1201
▁.	-1202
▁real	-1203
▁keep	-1204
▁fore	-1205
▁ele	-1206
▁here	-1207
str	-1208
▁oper	-1209
▁history	-1210
here	-1211
▁means	-1212
▁cause	-1213
ware	-1214
▁too	-1215
▁order	-1216
▁infl	-1217
rap	-1218
▁provide	-1219
▁15	-1220
rist	-1221
▁major	-1222
▁top	-1223
▁avail	-1224
▁occur	-1225
ories	-1226
▁ter	-1227
▁group	-1228
▁Can	-1229
▁perform	-1230
ission	-1231
view	-1232
ples	-1233
▁Col	-1234
ention	-1235
▁indu	-1236
▁particular	-1237
ards	-1238
▁dev	-1239
tt	-1240
▁family	-1241
▁United	-1242
icle	-1243
▁possible	-1244
▁period	-1245
▁learning	-1246
▁langu	-1247
▁current	-1248
amp	-1249
use	-1250
▁unt	-1251
▁addition	-1252
▁mean	-1253
▁invol	-1254
▁hig	-1255
▁say	-1256
ograph	-1257
▁saf	-1258
▁several	-1259
▁near	-1260
▁fin	-1261
▁able	-1262
▁species	-1263
▁percent	-1264
▁orig	-1265
▁signific	-1266
par	-1267
▁benef	-1268
irc	-1269
▁plant	-1270
oid	-1271
▁men	-1272
ote	-1273
▁God	-1274
▁bus	-1275
▁Comm	-1276
▁cal	-1277
idence	-1278
▁prom	-1279
▁happ	-1280
▁affect	-1281
ina	-1282
ogn	-1283
▁non	-1284
▁open	-1285
▁All	-1286
▁since	-1287
▁cost	-1288
▁lim	-1289
▁scient	-1290
▁el	-1291
urop	-1292
▁things	-1293
▁mar	-1294
ane	-1295
▁One	-1296
ator	-1297
▁feel	-1298
sy	-1299
▁En	-1300
▁says	-1301
▁among	-1302
▁areas	-1303
ilar	-1304
▁Te	-1305
ret	-1306
osp	-1307
▁treatment	-1308
▁others	-1309
ole	-1310
▁country	-1311
though	-1312
ended	-1313
▁based	-1314
▁12	-1315
▁available	-1316
▁following	-1317
elf	-1318
▁17	-1319
▁times	-1320
ends	-1321
▁four	-1322
ling	-1323
▁name	-1324
▁fre	-1325
▁prevent	-1326
▁head	-1327
▁fac	-1328
aper	-1329
▁del	-1330
▁cond	-1331
▁prop	-1332
ots	-1333
une	-1334
ames	-1335
ocus	-1336
▁Or	-1337
▁States	-1338
▁access	-1339
cing	-1340
▁With	-1341
▁wee	-1342
▁case	-1343
urther	-1344
ably	-1345
ances	-1346
ploy	-1347
▁Some	-1348
ox	-1349
▁certain	-1350
▁struct	-1351
▁free	-1352
▁month	-1353
▁age	-1354
▁come	-1355
▁problem	-1356
▁lo	-1357
1.	-1358
sc	-1359
ised	-1360
▁object	-1361
,"	-1362
▁view	-1363
▁lab	-1364
▁conn	-1365
▁post	-1366
urope	-1367
▁list	-1368
▁press	-1369
▁bi	-1370
▁natural	-1371
▁run	-1372
▁type	-1373
be	-1374
olution	-1375
▁levels	-1376
▁rece	-1377
▁put	-1378
▁success	-1379
br	-1380
oint	-1381
▁problems	-1382
▁intern	-1383
ression	-1384
ones	-1385
▁Cent	-1386
▁creat	-1387
eg	-1388
▁local	-1389
ided	-1390
▁gr	-1391
ww	-1392
▁National	-1393
▁bro	-1394
to	-1395
▁significant	-1396
icult	-1397
▁vol	-1398
▁hard	-1399
ope	-1400
▁amount	-1401
▁associ	-1402
ggest	-1403
▁little	-1404
▁impact	-1405
▁Af	-1406
▁cells	-1407
▁book	-1408
ring	-1409
▁bir	-1410
▁mult	-1411
work	-1412
2.	-1413
▁flow	-1414
▁far	-1415
▁due	-1416
▁By	-1417
▁Fr	-1418
▁young	-1419
▁let	-1420
▁vir	-1421
por	-1422
resent	-1423
ething	-1424
▁making	-1425
atory	-1426
▁Europe	-1427
▁until	-1428
▁Christ	-1429
▁later	-1430
▁short	-1431
▁suggest	-1432
▁focus	-1433
ither	-1434
ortun	-1435
oks	-1436
▁given	-1437
▁turn	-1438
ately	-1439
ledge	-1440
uture	-1441
yd	-1442
▁Wor	-1443
▁sw	-1444
▁Bl	-1445
▁cho	-1446
ication	-1447
▁behav	-1448
ged	-1449
ured	-1450
▁invest	-1451
stit	-1452
▁comput	-1453
▁determ	-1454
▁polit	-1455
▁US	-1456
▁16	-1457
▁function	-1458
▁education	-1459
aps	-1460
▁likely	-1461
▁days	-1462
aken	-1463
omm	-1464
▁seem	-1465
▁systems	-1466
agement	-1467
over	-1468
hem	-1469
oph	-1470
▁circ	-1471
▁rad	-1472
▁heart	-1473
▁comb	-1474
▁along	-1475
cle	-1476
not	-1477
face	-1478
▁Med	-1479
10	-1480
▁language	-1481
ead	-1482
pect	-1483
▁consider	-1484
▁obs	-1485
▁increase	-1486
▁fil	-1487
▁results	-1488
▁something	-1489
▁appear	-1490
▁death	-1491
ried	-1492
▁community	-1493
orts	-1494
▁course	-1495
▁usually	-1496
▁technology	-1497
▁Ear	-1498
vious	-1499
▁teac	-1500
ending	-1501
▁sing	-1502
▁rele	-1503
aster	-1504
▁always	-1505
▁difficult	-1506
▁dra	-1507
▁consum	-1508
▁specific	-1509
ecially	-1510
▁past	-1511
ohn	-1512
▁words	-1513
▁clear	-1514
▁temper	-1515
▁character	-1516
▁create	-1517
ape	-1518
▁enc	-1519
▁similar	-1520
▁author	-1521
pr	-1522
▁conditions	-1523
ember	-1524
etic	-1525
▁effective	-1526
▁give	-1527
▁ey	-1528
▁That	-1529
3.	-1530
▁record	-1531
▁experience	-1532
▁exist	-1533
▁cr	-1534
asing	-1535
▁space	-1536
▁today	-1537
ned	-1538
ym	-1539
▁ill	-1540
▁works	-1541
▁needs	-1542
ators	-1543
▁population	-1544
▁million	-1545
▁century	-1546
▁crit	-1547
▁line	-1548
isc	-1549
▁parent	-1550
▁describ	-1551
▁Afric	-1552
ours	-1553
af	-1554
▁why	-1555
ptoms	-1556
▁Brit	-1557
▁cancer	-1558
1,	-1559
▁various	-1560
aining	-1561
idd	-1562
▁profess	-1563
▁(2	-1564
especially	-1565
▁higher	-1566
▁brain	-1567
of	-1568
▁future	-1569
▁dam	-1570
▁necess	-1571
▁special	-1572
mit	-1573
▁across	-1574
▁discuss	-1575
obal	-1576
▁above	-1577
ribut	-1578
min	-1579
▁While	-1580
iation	-1581
▁er	-1582
ruction	-1583
▁toget	-1584
ysis	-1585
▁together	-1586
▁countries	-1587
▁next	-1588
ored	-1589
rug	-1590
▁Im	-1591
▁changes	-1592
▁begin	-1593
ler	-1594
▁strong	-1595
4.	-1596
▁applic	-1597
▁however	-1598
▁try	-1599
▁least	-1600
app	-1601
▁mov	-1602
reen	-1603
▁side	-1604
▁require	-1605
ique	-1606
▁working	-1607
put	-1608
▁business	-1609
▁ask	-1610
ateg	-1611
▁kind	-1612
▁respons	-1613
▁improve	-1614
most	-1615
▁mot	-1616
▁estab	-1617
▁researc	-1618
ilities	-1619
▁effects	-1620
▁patients	-1621
▁complete	-1622
atch	-1623
▁left	-1624
▁plants	-1625
▁Gen	-1626
aves	-1627
▁never	-1628
ray	-1629
▁Dr	-1630
selves	-1631
▁colle	-1632
▁cy	-1633
▁tool	-1634
▁away	-1635
▁John	-1636
▁Ab	-1637
ode	-1638
▁ways	-1639
amm	-1640
5.	-1641
▁1.	-1642
▁term	-1643
oney	-1644
sw	-1645
▁especially	-1646
▁sens	-1647
▁enough	-1648
omes	-1649
aces	-1650
▁After	-1651
▁tru	-1652
ilt	-1653
acy	-1654
▁chem	-1655
▁key	-1656
let	-1657
▁general	-1658
▁prim	-1659
▁studies	-1660
▁Germ	-1661
nal	-1662
oot	-1663
▁full	-1664
▁team	-1665
ument	-1666
▁influ	-1667
▁net	-1668
▁subject	-1669
▁relations	-1670
ales	-1671
▁types	-1672
▁War	-1673
50	-1674
▁Go	-1675
▁cases	-1676
ires	-1677
▁having	-1678
alf	-1679
thing	-1680
aching	-1681
port	-1682
duct	-1683
ush	-1684
iting	-1685
lement	-1686
▁role	-1687
▁going	-1688
aring	-1689
▁Am	-1690
▁lower	-1691
▁z	-1692
▁step	-1693
▁whether	-1694
acc	-1695
chie	-1696
oman	-1697
▁account	-1698
side	-1699
▁norm	-1700
ges	-1701
ley	-1702
▁became	-1703
▁World	-1704
▁Ne	-1705
▁opt	-1706
ipp	-1707
▁knowledge	-1708
▁physical	-1709
▁self	-1710
ae	-1711
▁concer	-1712
▁English	-1713
▁symptoms	-1714
▁mind	-1715
▁protect	-1716
▁198	-1717
▁Car	-1718
▁Stud	-1719
istic	-1720
▁pred	-1721
▁further	-1722
aim	-1723
NA	-1724
▁sum	-1725
ification	-1726
▁represent	-1727
▁production	-1728
▁Tr	-1729
ued	-1730
ready	-1731
▁city	-1732
ann	-1733
▁house	-1734
▁reason	-1735
▁makes	-1736
▁Health	-1737
ency	-1738
▁polic	-1739
▁science	-1740
▁ground	-1741
▁Mar	-1742
ables	-1743
icro	-1744
itor	-1745
▁wr	-1746
apt	-1747
▁chall	-1748
▁live	-1749
▁big	-1750
▁She	-1751
eds	-1752
▁paper	-1753
▁question	-1754
atures	-1755
ung	-1756
▁(19	-1757
▁ens	-1758
ott	-1759
▁value	-1760
ery	-1761
▁fund	-1762
sych	-1763
▁dig	-1764
▁Resear	-1765
▁range	-1766
▁text	-1767
edi	-1768
▁toward	-1769
▁model	-1770
ites	-1771
cul	-1772
iol	-1773
▁indic	-1774
▁employ	-1775
aut	-1776
▁nut	-1777
ibility	-1778
bon	-1779
▁Ge	-1780
▁growth	-1781
▁activity	-1782
verage	-1783
▁sure	-1784
6.	-1785
lo	-1786
▁Do	-1787
▁Intern	-1788
▁seen	-1789
2,	-1790
▁eff	-1791
▁already	-1792
by	-1793
ream	-1794
▁particip	-1795
▁quality	-1796
▁30	-1797
▁activities	-1798
▁story	-1799
ird	-1800
▁potential	-1801
▁groups	-1802
for	-1803
urch	-1804
▁below	-1805
osis	-1806
▁fall	-1807
8.	-1808
▁loss	-1809
▁offic	-1810
▁Pr	-1811
mber	-1812
▁really	-1813
▁word	-1814
▁close	-1815
iple	-1816
▁done	-1817
▁stat	-1818
▁lot	-1819
uation	-1820
erence	-1821
▁wind	-1822
▁rather	-1823
▁resources	-1824
ee	-1825
augh	-1826
▁products	-1827
rel	-1828
ils	-1829
▁mass	-1830
▁Cal	-1831
▁developed	-1832
etimes	-1833
▁field	-1834
▁recogn	-1835
ands	-1836
oura	-1837
▁achie	-1838
▁according	-1839
▁either	-1840
7.	-1841
▁South	-1842
iam	-1843
▁neg	-1844
overed	-1845
9.	-1846
fact	-1847
3,	-1848
esc	-1849
▁Acc	-1850
▁May	-1851
▁deg	-1852
▁abs	-1853
unt	-1854
▁single	-1855
▁event	-1856
ival	-1857
▁bat	-1858
▁14	-1859
▁prob	-1860
▁reduce	-1861
▁indust	-1862
idered	-1863
▁North	-1864
▁surface	-1865
yl	-1866
▁tradition	-1867
▁building	-1868
▁phot	-1869
▁skills	-1870
▁national	-1871
▁source	-1872
▁five	-1873
ison	-1874
▁ur	-1875
▁rate	-1876
wh	-1877
▁climate	-1878
▁introdu	-1879
▁observ	-1880
▁concept	-1881
▁init	-1882
▁site	-1883
▁researchers	-1884
ask	-1885
▁issues	-1886
ivil	-1887
amin	-1888
▁drug	-1889
yn	-1890
▁collect	-1891
rams	-1892
▁article	-1893
▁once	-1894
▁fr	-1895
val	-1896
▁medical	-1897
▁taken	-1898
▁evidence	-1899
▁flu	-1900
▁cut	-1901
leep	-1902
urity	-1903
▁whole	-1904
rict	-1905
▁red	-1906
▁questions	-1907
▁ann	-1908
▁America	-1909
▁tot	-1910
▁address	-1911
▁fail	-1912
eter	-1913
▁considered	-1914
▁white	-1915
▁recomm	-1916
▁meet	-1917
▁2.	-1918
▁Ass	-1919
▁Rep	-1920
▁dom	-1921
ule	-1922
fficient	-1923
ivity	-1924
▁frequ	-1925
rect	-1926
▁Cont	-1927
▁ver	-1928
▁Man	-1929
▁pressure	-1930
ublic	-1931
▁members	-1932
▁sent	-1933
5,	-1934
▁upon	-1935
▁created	-1936
▁sun	-1937
▁size	-1938
ER	-1939
▁associated	-1940
▁detail	-1941
30	-1942
fer	-1943
reme	-1944
ips	-1945
▁doct	-1946
▁nature	-1947
plic	-1948
roll	-1949
▁Many	-1950
▁increased	-1951
▁wide	-1952
▁11	-1953
▁Soc	-1954
▁market	-1955
▁skin	-1956
▁political	-1957
▁fri	-1958
▁hold	-1959
epend	-1960
▁came	-1961
▁themselves	-1962
▁sal	-1963
▁tell	-1964
ights	-1965
▁relig	-1966
▁living	-1967
▁pay	-1968
▁animals	-1969
▁dest	-1970
▁cannot	-1971
illed	-1972
▁No	-1973
▁states	-1974
▁understanding	-1975
▁Act	-1976
ournal	-1977
ober	-1978
▁practice	-1979
▁related	-1980
▁actually	-1981
▁return	-1982
▁histor	-1983
▁sound	-1984
ensive	-1985
▁stress	-1986
▁lay	-1987
▁Aust	-1988
▁required	-1989
▁opportun	-1990
▁simple	-1991
iding	-1992
sequ	-1993
reg	-1994
▁week	-1995
▁Pe	-1996
▁relationship	-1997
aced	-1998
ibr	-1999
▁Hist	-2000
▁adult	-2001
utions	-2002
org	-2003
▁black	-2004
▁purp	-2005
enn	-2006
▁Dep	-2007
itud	-2008
▁needed	-2009
like	-2010
▁ability	-2011
ety	-2012
▁entire	-2013
▁analysis	-2014
ening	-2015
▁modern	-2016
▁His	-2017
▁thought	-2018
▁economic	-2019
▁healthy	-2020
▁materials	-2021
▁complex	-2022
▁condition	-2023
▁engine	-2024
▁published	-2025
▁Gu	-2026
▁global	-2027
▁arg	-2028
▁197	-2029
▁maint	-2030
▁Fl	-2031
▁quick	-2032
▁prote	-2033
aging	-2034
▁doc	-2035
oon	-2036
201	-2037
▁port	-2038
".	-2039
▁factors	-2040
▁idea	-2041
▁writing	-2042
▁famil	-2043
▁comes	-2044
▁parts	-2045
▁answ	-2046
▁fat	-2047
▁student	-2048
sh	-2049
▁diet	-2050
ai	-2051
artment	-2052
4,	-2053
▁dog	-2054
▁experien	-2055
▁almost	-2056
eb	-2057
AS	-2058
▁management	-2059
▁Earth	-2060
▁itself	-2061
acks	-2062
▁Em	-2063
▁provides	-2064
▁cat	-2065
▁services	-2066
hing	-2067
▁avoid	-2068
-2	-2069
▁exerc	-2070
▁oil	-2071
aged	-2072
▁react	-2073
▁vers	-2074
hib	-2075
oses	-2076
ging	-2077
▁fish	-2078
chan	-2079
ney	-2080
ump	-2081
ened	-2082
▁money	-2083
▁months	-2084
▁Most	-2085
gest	-2086
rad	-2087
▁mor	-2088
▁assess	-2089
vere	-2090
go	-2091
▁arch	-2092
▁htt	-2093
ences	-2094
▁necessary	-2095
▁Co	-2096
itary	-2097
▁coll	-2098
▁State	-2099
▁sam	-2100
▁rights	-2101
▁path	-2102
lying	-2103
▁approach	-2104
):	-2105
▁More	-2106
mon	-2107
▁weight	-2108
▁soil	-2109
▁gas	-2110
▁half	-2111
▁measure	-2112
erve	-2113
uel	-2114
▁bar	-2115
ores	-2116
▁suff	-2117
▁super	-2118
▁liter	-2119
▁100	-2120
bo	-2121
ystem	-2122
urs	-2123
▁produce	-2124
▁medic	-2125
eding	-2126
▁Pol	-2127
▁link	-2128
usion	-2129
▁took	-2130
▁parents	-2131
▁priv	-2132
▁Su	-2133
ply	-2134
▁began	-2135
izing	-2136
6,	-2137
▁job	-2138
based	-2139
ese	-2140
▁tar	-2141
▁personal	-2142
▁arr	-2143
▁green	-2144
▁ever	-2145
▁Research	-2146
onse	-2147
▁soft	-2148
8,	-2149
▁conduct	-2150
▁Although	-2151
irm	-2152
abor	-2153
▁princ	-2154
ma	-2155
rown	-2156
▁British	-2157
emic	-2158
▁emer	-2159
nces	-2160
▁stop	-2161
▁individuals	-2162
▁region	-2163
▁ge	-2164
9,	-2165
iddle	-2166
▁chemical	-2167
▁Here	-2168
▁computer	-2169
▁throughout	-2170
igure	-2171
▁repl	-2172
▁color	-2173
▁farm	-2174
▁popular	-2175
utes	-2176
iction	-2177
▁pattern	-2178
▁separ	-2179
▁reading	-2180
▁yet	-2181
7,	-2182
ume	-2183
▁action	-2184
▁shows	-2185
ections	-2186
▁increasing	-2187
▁therap	-2188
▁cop	-2189
ze	-2190
▁society	-2191
abit	-2192
▁fire	-2193
▁taking	-2194
apan	-2195
▁claim	-2196
pid	-2197
▁regard	-2198
▁196	-2199
▁online	-2200
▁anc	-2201
my	-2202
empt	-2203
erous	-2204
▁structure	-2205
ript	-2206
▁win	-2207
▁sense	-2208
hold	-2209
ID	-2210
▁Canad	-2211
▁content	-2212
▁total	-2213
▁ut	-2214
▁rul	-2215
▁la	-2216
▁clean	-2217
▁longer	-2218
▁bur	-2219
▁According	-2220
▁built	-2221
▁recent	-2222
estern	-2223
▁company	-2224
yle	-2225
▁previous	-2226
▁interact	-2227
ising	-2228
▁Me	-2229
▁terms	-2230
▁50	-2231
anced	-2232
▁temperature	-2233
▁six	-2234
ches	-2235
▁industry	-2236
iment	-2237
▁deb	-2238
itation	-2239
ively	-2240
▁service	-2241
uck	-2242
pro	-2243
▁Par	-2244
▁training	-2245
▁Jew	-2246
icles	-2247
▁Per	-2248
▁sleep	-2249
▁Pre	-2250
▁position	-2251
▁diagn	-2252
▁School	-2253
het	-2254
▁talk	-2255
▁caused	-2256
▁13	-2257
astic	-2258
reng	-2259
▁travel	-2260
▁schools	-2261
▁causes	-2262
▁environmental	-2263
▁matter	-2264
▁hours	-2265
ulations	-2266
▁heav	-2267
▁surv	-2268
▁behavior	-2269
ES	-2270
▁Sec	-2271
▁rev	-2272
▁meaning	-2273
▁Int	-2274
▁inj	-2275
▁Other	-2276
▁heat	-2277
▁break	-2278
lt	-2279
ns	-2280
▁sat	-2281
▁disord	-2282
11	-2283
▁App	-2284
▁conc	-2285
▁benefits	-2286
▁ce	-2287
fully	-2288
▁Instit	-2289
minist	-2290
▁thing	-2291
aily	-2292
ene	-2293
▁mach	-2294
▁positive	-2295
▁lives	-2296
▁check	-2297
▁II	-2298
▁India	-2299
▁contact	-2300
▁shown	-2301
▁provided	-2302
AT	-2303
.)	-2304
lex	-2305
▁vari	-2306
▁easy	-2307
▁194	-2308
▁Japan	-2309
▁sex	-2310
ricult	-2311
▁spread	-2312
▁true	-2313
inary	-2314
▁CO	-2315
istance	-2316
▁etc	-2317
ropri	-2318
vey	-2319
▁contain	-2320
▁From	-2321
▁bring	-2322
ows	-2323
▁Will	-2324
aff	-2325
▁Pres	-2326
▁designed	-2327
ronic	-2328
▁safe	-2329
▁ste	-2330
▁prec	-2331
▁Comp	-2332
▁average	-2333
▁fru	-2334
▁bacter	-2335
hood	-2336
▁includes	-2337
▁methods	-2338
lands	-2339
istics	-2340
▁wild	-2341
▁regular	-2342
ister	-2343
▁vide	-2344
▁accept	-2345
▁viol	-2346
asc	-2347
▁fem	-2348
gar	-2349
ederal	-2350
rought	-2351
ched	-2352
▁...	-2353
AR	-2354
▁3.	-2355
▁relative	-2356
▁Of	-2357
▁deep	-2358
▁subst	-2359
ster	-2360
▁led	-2361
mb	-2362
--	-2363
▁target	-2364
aving	-2365
▁carbon	-2366
▁lif	-2367
▁earth	-2368
ufact	-2369
▁standard	-2370
imately	-2371
▁Us	-2372
▁response	-2373
▁Ed	-2374
▁greater	-2375
▁mechan	-2376
ades	-2377
▁poll	-2378
▁variety	-2379
▁review	-2380
abet	-2381
▁0	-2382
▁movement	-2383
▁music	-2384
ners	-2385
rast	-2386
▁simply	-2387
▁believe	-2388
rior	-2389
▁issue	-2390
aries	-2391
▁reported	-2392
▁origin	-2393
▁original	-2394
▁sometimes	-2395
atives	-2396
▁slow	-2397
verse	-2398
▁helps	-2399
▁programs	-2400
▁threat	-2401
▁love	-2402
▁scientists	-2403
▁Not	-2404
▁eat	-2405
▁psych	-2406
▁face	-2407
▁exc	-2408
▁written	-2409
▁culture	-2410
▁Min	-2411
amed	-2412
▁Science	-2413
rench	-2414
oll	-2415
▁Rec	-2416
▁damage	-2417
▁doing	-2418
▁events	-2419
▁compan	-2420
▁uses	-2421
▁streng	-2422
eration	-2423
▁remov	-2424
▁Part	-2425
▁involved	-2426
dom	-2427
▁demon	-2428
osition	-2429
▁sources	-2430
aling	-2431
ength	-2432
▁respect	-2433
▁Austral	-2434
▁normal	-2435
▁Cons	-2436
▁micro	-2437
▁identify	-2438
arily	-2439
▁encoura	-2440
duc	-2441
ials	-2442
know	-2443
▁image	-2444
▁outside	-2445
ender	-2446
▁,	-2447
▁electric	-2448
▁tax	-2449
new	-2450
▁compon	-2451
▁Har	-2452
aches	-2453
▁particularly	-2454
▁poor	-2455
▁compet	-2456
ucle	-2457
▁Ag	-2458
▁foods	-2459
oor	-2460
rand	-2461
▁integ	-2462
▁forms	-2463
ban	-2464
elling	-2465
▁camp	-2466
▁lack	-2467
▁virus	-2468
▁emot	-2469
▁essential	-2470
▁bal	-2471
uge	-2472
▁pict	-2473
▁i	-2474
▁produced	-2475
rie	-2476
▁challeng	-2477
▁ensure	-2478
▁attention	-2479
light	-2480
▁cust	-2481
ises	-2482
ctions	-2483
▁basic	-2484
▁force	-2485
▁Jan	-2486
▁Gl	-2487
▁developing	-2488
idge	-2489
▁refer	-2490
▁extreme	-2491
hel	-2492
▁ple	-2493
▁page	-2494
▁late	-2495
▁aff	-2496
▁generally	-2497
:1	-2498
▁lat	-2499
▁China	-2500
▁displ	-2501
▁forest	-2502
▁feet	-2503
▁growing	-2504
▁ox	-2505
umb	-2506
▁emb	-2507
▁attempt	-2508
ief	-2509
▁First	-2510
▁Now	-2511
▁harm	-2512
ops	-2513
▁webs	-2514
osure	-2515
ached	-2516
▁implement	-2517
▁sust	-2518
rated	-2519
▁serious	-2520
▁consist	-2521
▁appl	-2522
▁log	-2523
▁ap	-2524
▁Bec	-2525
son	-2526
ervation	-2527
▁share	-2528
▁numbers	-2529
▁During	-2530
▁animal	-2531
issions	-2532
▁network	-2533
▁25	-2534
▁attack	-2535
▁teachers	-2536
▁patient	-2537
▁--	-2538
room	-2539
▁select	-2540
▁squ	-2541
▁visit	-2542
▁coun	-2543
▁El	-2544
ads	-2545
▁defin	-2546
▁Count	-2547
▁Our	-2548
▁hyd	-2549
▁Bo	-2550
bor	-2551
▁correct	-2552
▁draw	-2553
▁included	-2554
osing	-2555
ems	-2556
▁wood	-2557
▁manufact	-2558
ming	-2559
▁Sm	-2560
▁independ	-2561
▁aware	-2562
▁Ju	-2563
▁ideas	-2564
▁probably	-2565
▁Art	-2566
▁Aug	-2567
▁doesn	-2568
olic	-2569
oles	-2570
▁Ac	-2571
▁ir	-2572
▁magn	-2573
fect	-2574
▁safety	-2575
▁vacc	-2576
▁series	-2577
▁mess	-2578
▁continue	-2579
▁therefore	-2580
set	-2581
isions	-2582
▁print	-2583
▁dou	-2584
▁getting	-2585
▁takes	-2586
eed	-2587
▁Child	-2588
▁prep	-2589
▁night	-2590
ana	-2591
raft	-2592
▁media	-2593
ography	-2594
uth	-2595
▁kids	-2596
▁financ	-2597
cies	-2598
▁express	-2599
rim	-2600
IS	-2601
▁My	-2602
▁Educ	-2603
ribution	-2604
imum	-2605
▁policy	-2606
▁concent	-2607
▁easily	-2608
ties	-2609
▁commit	-2610
ground	-2611
irit	-2612
▁Tw	-2613
▁veget	-2614
▁international	-2615
▁someone	-2616
▁thus	-2617
▁daily	-2618
ha	-2619
▁performance	-2620
▁investig	-2621
▁theory	-2622
▁fa	-2623
ension	-2624
IN	-2625
▁looking	-2626
▁colon	-2627
iot	-2628
▁earl	-2629
oly	-2630
▁wall	-2631
Th	-2632
▁sea	-2633
▁cit	-2634
▁cover	-2635
▁diseases	-2636
▁primary	-2637
▁0.	-2638
▁mother	-2639
▁difference	-2640
iency	-2641
ius	-2642
▁Center	-2643
▁European	-2644
▁mental	-2645
▁added	-2646
▁bab	-2647
▁started	-2648
▁estim	-2649
ino	-2650
uary	-2651
▁civil	-2652
▁ago	-2653
▁cross	-2654
haps	-2655
▁Sch	-2656
▁leaders	-2657
▁quite	-2658
rew	-2659
▁capt	-2660
vention	-2661
▁sil	-2662
▁allows	-2663
rs	-2664
▁appropri	-2665
▁instead	-2666
ror	-2667
▁traditional	-2668
asons	-2669
▁warm	-2670
▁ful	-2671
▁town	-2672
▁tree	-2673
▁vit	-2674
▁div	-2675
ington	-2676
▁compared	-2677
overy	-2678
▁dang	-2679
▁communities	-2680
▁achieve	-2681
▁Tra	-2682
▁decre	-2683
inks	-2684
erson	-2685
itude	-2686
▁determine	-2687
▁thous	-2688
▁progress	-2689
0,	-2690
▁Since	-2691
▁Reg	-2692
▁tiss	-2693
▁instit	-2694
▁books	-2695
▁tools	-2696
▁points	-2697
▁Indian	-2698
▁sold	-2699
▁eth	-2700
▁Even	-2701
▁scientific	-2702
erg	-2703
▁fav	-2704
▁sou	-2705
na	-2706
▁French	-2707
▁inside	-2708
▁multiple	-2709
▁Calif	-2710
ancy	-2711
▁offer	-2712
cell	-2713
ying	-2714
▁hy	-2715
▁reve	-2716
▁tur	-2717
▁held	-2718
▁humans	-2719
▁nation	-2720
▁larger	-2721
▁reflect	-2722
▁tend	-2723
▁eval	-2724
▁established	-2725
▁companies	-2726
▁unique	-2727
▁quickly	-2728
▁rout	-2729
▁feed	-2730
rate	-2731
where	-2732
▁trees	-2733
cil	-2734
▁answer	-2735
▁March	-2736
▁immedi	-2737
▁eye	-2738
▁third	-2739
▁military	-2740
▁altern	-2741
19	-2742
▁Oct	-2743
▁directly	-2744
▁demonstr	-2745
ille	-2746
▁Char	-2747
▁speak	-2748
▁highly	-2749
▁acid	-2750
pril	-2751
ounds	-2752
▁infection	-2753
▁critical	-2754
ellow	-2755
▁document	-2756
ls	-2757
▁West	-2758
▁additional	-2759
▁Lear	-2760
▁Department	-2761
useum	-2762
▁front	-2763
term	-2764
anks	-2765
▁negative	-2766
▁Jes	-2767
▁essay	-2768
abetes	-2769
12	-2770
▁Africa	-2771
▁Her	-2772
undred	-2773
▁although	-2774
elt	-2775
ift	-2776
▁Institute	-2777
▁birth	-2778
▁severe	-2779
▁dry	-2780
▁Ant	-2781
ornia	-2782
▁behind	-2783
▁analy	-2784
▁bit	-2785
▁drink	-2786
▁gard	-2787
▁(200	-2788
iers	-2789
▁German	-2790
▁write	-2791
▁40	-2792
aly	-2793
▁exercise	-2794
▁solar	-2795
▁security	-2796
▁extra	-2797
nov	-2798
▁Russ	-2799
▁clin	-2800
▁aspect	-2801
▁Read	-2802
▁broad	-2803
▁foot	-2804
▁central	-2805
▁soon	-2806
arr	-2807
▁hor	-2808
▁active	-2809
joy	-2810
▁Br	-2811
▁host	-2812
▁bad	-2813
▁towards	-2814
vant	-2815
▁History	-2816
▁aud	-2817
▁prior	-2818
iques	-2819
▁tri	-2820
▁labor	-2821
▁leading	-2822
▁Why	-2823
www	-2824
▁proced	-2825
▁har	-2826
att	-2827
▁Sept	-2828
▁aim	-2829
▁walk	-2830
▁purpose	-2831
▁families	-2832
▁supply	-2833
ulate	-2834
▁June	-2835
▁California	-2836
gency	-2837
▁Ret	-2838
cean	-2839
▁values	-2840
▁obt	-2841
▁stay	-2842
pe	-2843
omet	-2844
▁hot	-2845
▁Inc	-2846
thern	-2847
▁went	-2848
▁protein	-2849
itis	-2850
▁African	-2851
ilos	-2852
▁1,	-2853
▁doctor	-2854
▁International	-2855
isms	-2856
▁useful	-2857
▁stra	-2858
▁quant	-2859
▁Mon	-2860
oes	-2861
yond	-2862
▁accur	-2863
We	-2864
▁beginning	-2865
▁shall	-2866
hern	-2867
▁Mus	-2868
▁seems	-2869
AN	-2870
▁Cor	-2871
▁expect	-2872
den	-2873
▁August	-2874
▁custom	-2875
fl	-2876
▁fram	-2877
▁habit	-2878
▁capital	-2879
▁situation	-2880
▁Bar	-2881
▁Because	-2882
▁transport	-2883
▁teaching	-2884
-3	-2885
▁video	-2886
▁24	-2887
▁whose	-2888
uries	-2889
▁features	-2890
▁limited	-2891
mar	-2892
▁Sw	-2893
▁card	-2894
▁mount	-2895
▁contribut	-2896
▁4.	-2897
olar	-2898
▁hands	-2899
▁elements	-2900
▁Gree	-2901
ON	-2902
▁decl	-2903
OR	-2904
▁http	-2905
▁fight	-2906
▁workers	-2907
rogen	-2908
▁influence	-2909
formation	-2910
rition	-2911
iber	-2912
▁April	-2913
▁Dav	-2914
▁Sim	-2915
▁ones	-2916
yr	-2917
▁minutes	-2918
▁strateg	-2919
▁thinking	-2920
hens	-2921
▁contains	-2922
▁base	-2923
▁section	-2924
▁search	-2925
oming	-2926
▁lost	-2927
▁software	-2928
▁ancient	-2929
▁financial	-2930
lection	-2931
itch	-2932
▁block	-2933
▁pack	-2934
▁length	-2935
▁requires	-2936
▁Then	-2937
▁mill	-2938
pper	-2939
▁ang	-2940
oring	-2941
▁fast	-2942
uman	-2943
▁July	-2944
▁mom	-2945
cial	-2946
▁dark	-2947
▁exact	-2948
▁waste	-2949
▁x	-2950
▁rates	-2951
hest	-2952
inct	-2953
iter	-2954
▁stri	-2955
bol	-2956
uk	-2957
▁jud	-2958
▁hundred	-2959
▁nucle	-2960
coh	-2961
▁interp	-2962
-19	-2963
▁unc	-2964
ription	-2965
gn	-2966
▁Also	-2967
fort	-2968
▁jo	-2969
istry	-2970
▁described	-2971
▁Wash	-2972
orthern	-2973
▁news	-2974
▁application	-2975
▁except	-2976
ields	-2977
”.	-2978
▁Serv	-2979
ext	-2980
ologies	-2981
▁private	-2982
▁River	-2983
▁brought	-2984
▁demand	-2985
rote	-2986
▁sustain	-2987
▁enjoy	-2988
▁ord	-2989
▁disp	-2990
▁Jesus	-2991
▁adults	-2992
▁weeks	-2993
▁largest	-2994
IC	-2995
wise	-2996
▁administ	-2997
▁protection	-2998
▁capac	-2999
▁north	-3000
▁else	-3001
▁processes	-3002
▁William	-3003
▁carry	-3004
▁received	-3005
estic	-3006
▁Mc	-3007
izations	-3008
imin	-3009
▁costs	-3010
ipment	-3011
▁agricult	-3012
▁got	-3013
▁decision	-3014
▁devices	-3015
▁lines	-3016
▁importance	-3017
▁nearly	-3018
▁veh	-3019
▁stru	-3020
▁bacteria	-3021
▁wa	-3022
▁Fin	-3023
▁images	-3024
▁fit	-3025
cks	-3026
▁ult	-3027
▁sn	-3028
▁Over	-3029
▁solution	-3030
▁President	-3031
▁leaves	-3032
▁cred	-3033
ulated	-3034
▁places	-3035
▁speed	-3036
imal	-3037
equ	-3038
▁agree	-3039
▁goal	-3040
▁memory	-3041
▁located	-3042
▁ep	-3043
mission	-3044
▁projects	-3045
▁mole	-3046
▁becomes	-3047
idents	-3048
▁season	-3049
▁table	-3050
▁tests	-3051
odies	-3052
used	-3053
▁game	-3054
▁Press	-3055
▁Let	-3056
▁appropriate	-3057
▁website	-3058
vest	-3059
▁crop	-3060
▁reach	-3061
▁adop	-3062
▁communication	-3063
▁rare	-3064
▁establish	-3065
uous	-3066
▁told	-3067
iles	-3068
In	-3069
▁remain	-3070
▁Americans	-3071
▁People	-3072
▁England	-3073
▁remains	-3074
itect	-3075
see	-3076
▁respond	-3077
rag	-3078
▁mention	-3079
▁eyes	-3080
▁Techn	-3081
▁adapt	-3082
▁efforts	-3083
entially	-3084
▁typically	-3085
▁born	-3086
▁Associ	-3087
▁deal	-3088
▁Day	-3089
▁Ec	-3090
rael	-3091
▁surround	-3092
▁Canada	-3093
▁summer	-3094
▁laws	-3095
ibrary	-3096
▁south	-3097
▁adj	-3098
lim	-3099
▁rapid	-3100
sect	-3101
▁property	-3102
▁techniques	-3103
▁Trans	-3104
▁behavi	-3105
year	-3106
▁sites	-3107
bit	-3108
▁egg	-3109
oke	-3110
▁:	-3111
inese	-3112
▁Are	-3113
▁Christian	-3114
16	-3115
▁mix	-3116
izes	-3117
▁beaut	-3118
▁gives	-3119
▁basis	-3120
ipl	-3121
▁install	-3122
▁High	-3123
▁friends	-3124
▁testing	-3125
come	-3126
▁Prog	-3127
▁creating	-3128
▁Just	-3129
▁Inst	-3130
oud	-3131
ceed	-3132
king	-3133
▁vict	-3134
▁Another	-3135
▁died	-3136
▁accom	-3137
ham	-3138
ony	-3139
▁transl	-3140
▁September	-3141
AC	-3142
▁father	-3143
▁himself	-3144
▁religious	-3145
iece	-3146
▁advant	-3147
▁cool	-3148
▁Govern	-3149
▁citiz	-3150
ogen	-3151
▁Dis	-3152
▁Cong	-3153
atur	-3154
▁cultural	-3155
▁applications	-3156
arian	-3157
▁saw	-3158
▁breat	-3159
▁final	-3160
▁dead	-3161
▁sugar	-3162
resh	-3163
▁Education	-3164
ondon	-3165
▁Red	-3166
head	-3167
80	-3168
EN	-3169
▁cam	-3170
▁cold	-3171
It	-3172
cember	-3173
aid	-3174
ford	-3175
▁Use	-3176
▁der	-3177
▁Mod	-3178
▁stage	-3179
▁teeth	-3180
▁Park	-3181
▁teacher	-3182
▁eating	-3183
life	-3184
▁construction	-3185
med	-3186
ellig	-3187
▁Each	-3188
▁center	-3189
▁miles	-3190
▁IS	-3191
ype	-3192
▁examples	-3193
cles	-3194
▁command	-3195
itable	-3196
uments	-3197
▁monitor	-3198
cohol	-3199
▁fuel	-3200
▁anti	-3201
▁October	-3202
▁January	-3203
▁therapy	-3204
▁room	-3205
▁trade	-3206
▁Church	-3207
▁sequ	-3208
ED	-3209
iar	-3210
▁king	-3211
▁pan	-3212
▁anything	-3213
aul	-3214
▁expected	-3215
▁Sur	-3216
▁cele	-3217
▁cou	-3218
▁Great	-3219
illing	-3220
▁coast	-3221
▁son	-3222
▁calcul	-3223
▁Feb	-3224
▁21	-3225
▁nothing	-3226
ding	-3227
▁depend	-3228
▁forces	-3229
▁hous	-3230
▁Pat	-3231
eal	-3232
ira	-3233
▁hope	-3234
▁middle	-3235
▁affected	-3236
▁und	-3237
▁responsible	-3238
▁reasons	-3239
▁autom	-3240
bur	-3241
▁gradu	-3242
▁recently	-3243
strial	-3244
▁everything	-3245
▁device	-3246
▁benefit	-3247
▁imag	-3248
ama	-3249
▁Washington	-3250
▁Bi	-3251
ovember	-3252
▁practices	-3253
back	-3254
▁followed	-3255
▁equipment	-3256
aught	-3257
▁Journal	-3258
▁Develop	-3259
▁web	-3260
▁digital	-3261
▁pen	-3262
▁Once	-3263
▁exposure	-3264
▁hyp	-3265
▁bott	-3266
▁cru	-3267
▁City	-3268
▁code	-3269
ran	-3270
▁receive	-3271
▁Commun	-3272
▁beyond	-3273
▁consequ	-3274
▁legal	-3275
ico	-3276
mosp	-3277
▁connect	-3278
▁screen	-3279
▁objects	-3280
▁ice	-3281
water	-3282
40	-3283
▁bul	-3284
▁Israel	-3285
▁mid	-3286
▁older	-3287
▁Chinese	-3288
▁conflic	-3289
▁controll	-3290
▁yourself	-3291
▁Prof	-3292
▁providing	-3293
▁models	-3294
▁rock	-3295
▁professional	-3296
ari	-3297
apter	-3298
▁ten	-3299
▁choose	-3300
▁date	-3301
▁opportunity	-3302
ev	-3303
▁communic	-3304
-0	-3305
▁System	-3306
▁asked	-3307
▁cra	-3308
▁economy	-3309
ought	-3310
ribute	-3311
▁smaller	-3312
▁diabetes	-3313
uff	-3314
iples	-3315
unch	-3316
▁insp	-3317
wor	-3318
▁weather	-3319
▁rain	-3320
▁spirit	-3321
▁Water	-3322
load	-3323
▁strength	-3324
▁tit	-3325
▁overall	-3326
▁occurs	-3327
▁fear	-3328
▁organization	-3329
▁recommend	-3330
▁Arch	-3331
▁currently	-3332
ula	-3333
▁enh	-3334
ospital	-3335
▁degree	-3336
▁wrote	-3337
▁scale	-3338
▁sett	-3339
isl	-3340
▁federal	-3341
airs	-3342
▁everyone	-3343
▁trying	-3344
▁location	-3345
rees	-3346
▁woman	-3347
▁won	-3348
oe	-3349
▁completely	-3350
▁rob	-3351
▁alone	-3352
▁pregn	-3353
▁predict	-3354
▁rise	-3355
▁visual	-3356
amic	-3357
▁differences	-3358
ests	-3359
▁constit	-3360
sec	-3361
15	-3362
▁pet	-3363
▁via	-3364
▁swe	-3365
tery	-3366
▁earlier	-3367
time	-3368
▁Cur	-3369
vert	-3370
PA	-3371
▁standards	-3372
▁successful	-3373
anish	-3374
▁December	-3375
25	-3376
▁shape	-3377
▁measures	-3378
▁Black	-3379
▁Mex	-3380
lin	-3381
IT	-3382
▁instru	-3383
ech	-3384
ensity	-3385
▁London	-3386
▁constant	-3387
▁collection	-3388
▁beg	-3389
▁drugs	-3390
enge	-3391
ica	-3392
▁commonly	-3393
▁former	-3394
▁rules	-3395
▁winter	-3396
▁purch	-3397
▁ball	-3398
▁effort	-3399
book	-3400
▁Don	-3401
▁reduced	-3402
▁named	-3403
aur	-3404
▁file	-3405
▁electr	-3406
▁goes	-3407
▁East	-3408
mitted	-3409
men	-3410
▁DNA	-3411
rick	-3412
60	-3413
▁Under	-3414
▁Tod	-3415
▁billion	-3416
▁interesting	-3417
▁isn	-3418
omb	-3419
▁approx	-3420
▁poly	-3421
▁County	-3422
▁users	-3423
▁exec	-3424
▁November	-3425
▁max	-3426
uit	-3427
wide	-3428
con	-3429
▁allowed	-3430
▁joint	-3431
▁maintain	-3432
▁193	-3433
▁See	-3434
▁categ	-3435
▁steps	-3436
▁genetic	-3437
▁perfect	-3438
hy	-3439
▁placed	-3440
▁leave	-3441
▁birds	-3442
▁occup	-3443
▁General	-3444
▁identified	-3445
▁Cour	-3446
▁discovered	-3447
▁member	-3448
rieved	-3449
▁immune	-3450
▁planet	-3451
iest	-3452
▁Law	-3453
▁neigh	-3454
ingu	-3455
▁virt	-3456
▁sch	-3457
ara	-3458
▁user	-3459
▁applied	-3460
▁rich	-3461
ocr	-3462
▁fruit	-3463
▁enter	-3464
▁destro	-3465
▁historical	-3466
▁acqu	-3467
reet	-3468
▁hon	-3469
▁Aut	-3470
▁continued	-3471
▁display	-3472
ords	-3473
▁gold	-3474
ocks	-3475
▁powerful	-3476
▁mob	-3477
irection	-3478
iable	-3479
▁road	-3480
▁track	-3481
▁commerc	-3482
▁compar	-3483
ibly	-3484
▁Thus	-3485
▁showed	-3486
▁eight	-3487
ste	-3488
co	-3489
▁formed	-3490
▁context	-3491
▁San	-3492
ogle	-3493
▁philos	-3494
▁presence	-3495
▁mis	-3496
▁den	-3497
rig	-3498
alt	-3499
▁coming	-3500
▁rule	-3501
oration	-3502
▁majority	-3503
▁sect	-3504
ruary	-3505
bre	-3506
▁acad	-3507
▁Coun	-3508
▁tox	-3509
aled	-3510
enty	-3511
▁church	-3512
edom	-3513
▁miss	-3514
▁properties	-3515
▁fair	-3516
hemat	-3517
▁195	-3518
▁bra	-3519
ss	-3520
▁pow	-3521
▁signs	-3522
▁Conf	-3523
▁guid	-3524
▁(201	-3525
▁status	-3526
que	-3527
▁Their	-3528
▁Roman	-3529
▁60	-3530
▁limit	-3531
▁Ro	-3532
ocol	-3533
▁version	-3534
edia	-3535
▁mig	-3536
▁rat	-3537
▁nutri	-3538
bl	-3539
▁machine	-3540
....	-3541
▁wond	-3542
ament	-3543
▁Prot	-3544
▁cities	-3545
▁cook	-3546
▁capacity	-3547
aters	-3548
▁House	-3549
▁situ	-3550
▁perhaps	-3551
▁teach	-3552
▁gave	-3553
▁court	-3554
▁mouth	-3555
▁increases	-3556
▁assign	-3557
13	-3558
▁factor	-3559
▁antib	-3560
▁asse	-3561
▁atmosp	-3562
▁Australia	-3563
gery	-3564
▁actions	-3565
cious	-3566
known	-3567
▁Children	-3568
▁strugg	-3569
▁illness	-3570
▁dat	-3571
▁Spec	-3572
▁symbol	-3573
▁stim	-3574
▁emp	-3575
▁Every	-3576
▁belief	-3577
▁patterns	-3578
▁choice	-3579
▁illust	-3580
▁fully	-3581
▁changed	-3582
▁Rel	-3583
▁tissue	-3584
▁Environment	-3585
▁cry	-3586
▁emissions	-3587
▁relatively	-3588
aint	-3589
▁remember	-3590
18	-3591
▁anx	-3592
phas	-3593
iring	-3594
▁female	-3595
▁gir	-3596
rab	-3597
related	-3598
▁Che	-3599
▁incor	-3600
▁efficient	-3601
▁assist	-3602
▁note	-3603
encies	-3604
▁stories	-3605
▁baby	-3606
▁promot	-3607
▁didn	-3608
▁Public	-3609
craft	-3610
aste	-3611
▁tou	-3612
▁task	-3613
▁moment	-3614
▁effic	-3615
▁architect	-3616
▁Society	-3617
ees	-3618
▁worth	-3619
▁price	-3620
▁hair	-3621
emy	-3622
▁Germany	-3623
off	-3624
▁unit	-3625
orge	-3626
▁Lat	-3627
14	-3628
▁evolution	-3629
▁5.	-3630
▁moving	-3631
▁Union	-3632
▁ast	-3633
▁alcohol	-3634
more	-3635
▁vill	-3636
udd	-3637
▁challenges	-3638
▁construct	-3639
▁appears	-3640
can	-3641
▁Phil	-3642
gypt	-3643
▁peace	-3644
▁element	-3645
▁functions	-3646
ternal	-3647
▁components	-3648
▁names	-3649
lor	-3650
▁mut	-3651
▁forward	-3652
inated	-3653
▁staff	-3654
▁root	-3655
▁offers	-3656
▁fresh	-3657
▁Inter	-3658
▁existing	-3659
▁worked	-3660
▁Green	-3661
▁distance	-3662
rief	-3663
▁Medic	-3664
iful	-3665
▁repe	-3666
▁Today	-3667
iences	-3668
ey	-3669
aign	-3670
▁observed	-3671
AL	-3672
rehens	-3673
▁TH	-3674
▁piece	-3675
▁contract	-3676
",	-3677
▁susp	-3678
odes	-3679
▁star	-3680
▁Ang	-3681
▁pp	-3682
▁educational	-3683
ero	-3684
▁France	-3685
▁findings	-3686
▁style	-3687
resp	-3688
▁instance	-3689
▁giving	-3690
▁river	-3691
▁equal	-3692
▁initi	-3693
▁convers	-3694
▁innov	-3695
era	-3696
▁February	-3697
▁guide	-3698
▁expand	-3699
▁consumption	-3700
▁opportunities	-3701
rome	-3702
ux	-3703
house	-3704
▁reports	-3705
▁tele	-3706
ygen	-3707
▁ing	-3708
care	-3709
▁transfer	-3710
▁foreign	-3711
▁significantly	-3712
▁vo	-3713
▁direction	-3714
ald	-3715
▁absor	-3716
▁Retrieved	-3717
▁evalu	-3718
▁thousands	-3719
ession	-3720
▁balance	-3721
rupt	-3722
▁picture	-3723
▁resistance	-3724
▁iron	-3725
▁experim	-3726
▁mal	-3727
▁qual	-3728
▁garden	-3729
force	-3730
▁map	-3731
▁Des	-3732
▁huge	-3733
▁blue	-3734
▁Jewish	-3735
EC	-3736
▁box	-3737
▁weak	-3738
▁Av	-3739
▁Dec	-3740
iny	-3741
▁milk	-3742
abilities	-3743
▁mission	-3744
17	-3745
▁collabor	-3746
▁detect	-3747
amb	-3748
▁believed	-3749
hors	-3750
▁assum	-3751
▁planning	-3752
▁strategies	-3753
▁defined	-3754
▁explain	-3755
icip	-3756
▁regions	-3757
▁Mat	-3758
▁running	-3759
▁famous	-3760
▁Pal	-3761
▁Association	-3762
▁vision	-3763
▁wrong	-3764
▁breast	-3765
▁options	-3766
▁office	-3767
▁Bra	-3768
▁suggests	-3769
▁friend	-3770
”,	-3771
ching	-3772
▁chance	-3773
▁income	-3774
▁Congress	-3775
▁plastic	-3776
bed	-3777
▁survey	-3778
asion	-3779
▁details	-3780
▁native	-3781
▁James	-3782
22	-3783
▁passed	-3784
omas	-3785
-4	-3786
▁Students	-3787
ifically	-3788
▁instruct	-3789
▁spect	-3790
▁Therefore	-3791
▁citizens	-3792
ky	-3793
▁carried	-3794
▁disorder	-3795
3)	-3796
rec	-3797
▁Egypt	-3798
▁treated	-3799
▁extremely	-3800
▁gain	-3801
▁clinical	-3802
apers	-3803
▁Work	-3804
▁util	-3805
▁experiences	-3806
▁fix	-3807
▁plans	-3808
▁UN	-3809
▁exhib	-3810
isation	-3811
▁Rem	-3812
▁excess	-3813
▁Western	-3814
igen	-3815
▁watch	-3816
▁Rev	-3817
▁divid	-3818
▁Colle	-3819
▁Ob	-3820
▁insect	-3821
▁suppl	-3822
▁bound	-3823
▁Social	-3824
▁muscle	-3825
▁separate	-3826
▁rot	-3827
▁novel	-3828
▁glass	-3829
▁feature	-3830
pped	-3831
▁attract	-3832
▁eventually	-3833
▁Mich	-3834
▁presented	-3835
▁figure	-3836
▁fert	-3837
▁Japanese	-3838
▁highest	-3839
▁spring	-3840
▁seven	-3841
▁apply	-3842
▁David	-3843
▁items	-3844
▁explore	-3845
▁Bel	-3846
▁Internet	-3847
▁Plan	-3848
▁Mary	-3849
▁celebr	-3850
▁structures	-3851
orage	-3852
pris	-3853
▁Lord	-3854
▁male	-3855
▁Human	-3856
▁heavy	-3857
▁requirements	-3858
▁organizations	-3859
▁classroom	-3860
▁Food	-3861
▁phen	-3862
▁topic	-3863
▁happen	-3864
▁generation	-3865
nes	-3866
▁immediately	-3867
▁journal	-3868
▁goals	-3869
ophy	-3870
▁technologies	-3871
▁commercial	-3872
▁22	-3873
che	-3874
part	-3875
▁Bu	-3876
▁favor	-3877
▁Mor	-3878
▁industrial	-3879
▁decades	-3880
ographic	-3881
iance	-3882
▁Di	-3883
asks	-3884
▁sac	-3885
▁bone	-3886
uls	-3887
▁board	-3888
▁easier	-3889
▁liqu	-3890
▁pick	-3891
▁truth	-3892
▁intellig	-3893
wards	-3894
▁reality	-3895
ube	-3896
▁urban	-3897
▁mo	-3898
oma	-3899
▁save	-3900
▁Sub	-3901
▁medicine	-3902
▁Found	-3903
▁learned	-3904
70	-3905
▁Using	-3906
▁Net	-3907
eces	-3908
ares	-3909
DA	-3910
▁bed	-3911
▁emphas	-3912
change	-3913
▁bank	-3914
▁conducted	-3915
▁introduced	-3916
▁perspect	-3917
II	-3918
▁dyn	-3919
ken	-3920
iant	-3921
OS	-3922
▁hom	-3923
ologist	-3924
▁neu	-3925
▁depression	-3926
▁contrast	-3927
ulum	-3928
uing	-3929
▁vary	-3930
▁Program	-3931
90	-3932
pan	-3933
▁slight	-3934
zz	-3935
▁sample	-3936
▁resource	-3937
▁mer	-3938
▁populations	-3939
▁approximately	-3940
▁challenge	-3941
enth	-3942
▁Sam	-3943
▁HI	-3944
cast	-3945
EM	-3946
▁Two	-3947
▁performed	-3948
▁alternative	-3949
▁remove	-3950
▁release	-3951
This	-3952
▁cycle	-3953
▁faith	-3954
▁serve	-3955
▁speech	-3956
▁Further	-3957
▁electricity	-3958
plications	-3959
▁agg	-3960
ida	-3961
▁cand	-3962
St	-3963
▁letter	-3964
▁literature	-3965
▁becoming	-3966
▁fig	-3967
▁actual	-3968
▁bodies	-3969
▁sexual	-3970
▁Gra	-3971
▁stream	-3972
▁Web	-3973
▁kid	-3974
▁legisl	-3975
▁Organ	-3976
▁president	-3977
▁experiment	-3978
▁organic	-3979
▁records	-3980
▁oxygen	-3981
bal	-3982
▁Council	-3983
▁destroy	-3984
▁decisions	-3985
▁metal	-3986
▁aspects	-3987
▁nutrition	-3988
▁party	-3989
▁recommended	-3990
othes	-3991
iate	-3992
▁graph	-3993
▁distribution	-3994
▁moved	-3995
▁opin	-3996
▁Phys	-3997
roph	-3998
imens	-3999
21	-4000
▁chronic	-4001
erate	-4002
▁disorders	-4003
▁plat	-4004
▁temperatures	-4005
▁gene	-4006
▁ves	-4007
tical	-4008
▁estimated	-4009
▁Tur	-4010
antic	-4011
▁released	-4012
▁combination	-4013
gal	-4014
ulf	-4015
tee	-4016
▁frequently	-4017
▁household	-4018
▁23	-4019
▁violence	-4020
▁buildings	-4021
ager	-4022
▁independent	-4023
▁participants	-4024
▁desp	-4025
▁numerous	-4026
▁assessment	-4027
▁ign	-4028
▁fields	-4029
▁flood	-4030
uses	-4031
▁vitamin	-4032
AM	-4033
▁mag	-4034
▁causing	-4035
ously	-4036
▁buy	-4037
▁College	-4038
▁dogs	-4039
Wh	-4040
▁nuclear	-4041
▁connected	-4042
▁Test	-4043
▁widely	-4044
▁Air	-4045
▁notes	-4046
▁film	-4047
▁homes	-4048
▁Som	-4049
icial	-4050
ologists	-4051
▁Rober	-4052
▁doub	-4053
char	-4054
▁reference	-4055
▁inflamm	-4056
▁186	-4057
▁characteristics	-4058
ET	-4059
porary	-4060
▁Greek	-4061
ructure	-4062
▁statement	-4063
▁risks	-4064
▁Paul	-4065
▁operations	-4066
rant	-4067
PS	-4068
▁Def	-4069
unction	-4070
▁solutions	-4071
iders	-4072
▁killed	-4073
order	-4074
▁trust	-4075
▁George	-4076
clus	-4077
2)	-4078
▁changing	-4079
▁Hel	-4080
ortion	-4081
▁190	-4082
raw	-4083
▁esc	-4084
▁clearly	-4085
▁Republic	-4086
▁store	-4087
▁drive	-4088
cular	-4089
▁compl	-4090
▁college	-4091
▁setting	-4092
▁prefer	-4093
▁Development	-4094
▁failure	-4095
▁Fore	-4096
▁isol	-4097
▁About	-4098
▁reducing	-4099
▁Both	-4100
met	-4101
ped	-4102
▁Mark	-4103
▁mic	-4104
▁NAS	-4105
▁trig	-4106
▁Like	-4107
▁univers	-4108
▁lived	-4109
▁gets	-4110
▁wanted	-4111
▁resulting	-4112
iveness	-4113
raction	-4114
▁80	-4115
▁email	-4116
▁bottom	-4117
▁divers	-4118
▁starting	-4119
▁layer	-4120
▁policies	-4121
ognitive	-4122
▁prepar	-4123
erences	-4124
tered	-4125
▁Museum	-4126
▁covered	-4127
▁drop	-4128
▁partners	-4129
▁authors	-4130
elines	-4131
▁initial	-4132
Ch	-4133
▁discussion	-4134
▁Off	-4135
olved	-4136
ressive	-4137
▁Spanish	-4138
▁ready	-4139
▁thr	-4140
▁noted	-4141
▁Government	-4142
ij	-4143
essor	-4144
do	-4145
▁ST	-4146
▁dri	-4147
▁appe	-4148
▁burn	-4149
rosc	-4150
▁campaign	-4151
▁ocean	-4152
▁tour	-4153
▁shap	-4154
▁internal	-4155
▁battle	-4156
▁connection	-4157
ilit	-4158
rest	-4159
▁Its	-4160
▁Tex	-4161
cont	-4162
▁technique	-4163
anging	-4164
▁infections	-4165
▁Project	-4166
▁anxiety	-4167
▁surgery	-4168
▁turned	-4169
works	-4170
rog	-4171
▁Sy	-4172
▁ded	-4173
ias	-4174
ingly	-4175
▁anyone	-4176
roup	-4177
▁minor	-4178
▁La	-4179
▁mostly	-4180
ollow	-4181
atically	-4182
▁relationships	-4183
▁hear	-4184
▁sand	-4185
▁2010	-4186
▁distinct	-4187
▁creation	-4188
▁removed	-4189
▁tim	-4190
▁thick	-4191
▁upper	-4192
▁involves	-4193
▁Ev	-4194
-5	-4195
▁injury	-4196
▁trib	-4197
▁trend	-4198
▁exactly	-4199
ieties	-4200
▁seed	-4201
▁counter	-4202
▁arm	-4203
▁replace	-4204
▁Dem	-4205
▁territ	-4206
▁horm	-4207
hetic	-4208
▁circum	-4209
olid	-4210
▁reprodu	-4211
▁2,	-4212
rm	-4213
▁seeds	-4214
erved	-4215
▁degrees	-4216
ii	-4217
amental	-4218
▁tooth	-4219
▁load	-4220
▁happens	-4221
▁Second	-4222
▁referred	-4223
▁cris	-4224
▁conv	-4225
▁sav	-4226
▁Court	-4227
▁pi	-4228
▁vessel	-4229
▁message	-4230
ocal	-4231
▁expression	-4232
SA	-4233
▁feeling	-4234
key	-4235
▁finding	-4236
▁freedom	-4237
▁tum	-4238
▁principles	-4239
▁confirm	-4240
▁Mal	-4241
▁annual	-4242
▁encourage	-4243
ault	-4244
▁dangerous	-4245
▁volume	-4246
▁advanced	-4247
▁background	-4248
▁vul	-4249
▁genes	-4250
▁Rich	-4251
▁nor	-4252
▁classes	-4253
▁output	-4254
▁Bas	-4255
▁experts	-4256
▁radio	-4257
▁meeting	-4258
▁trou	-4259
urance	-4260
anch	-4261
▁pal	-4262
▁academic	-4263
▁games	-4264
▁fine	-4265
ndrome	-4266
▁adjust	-4267
▁Sun	-4268
▁physic	-4269
▁Mount	-4270
200	-4271
▁upd	-4272
ception	-4273
respond	-4274
▁incorpor	-4275
rows	-4276
▁Mr	-4277
▁comprehens	-4278
▁scen	-4279
▁storage	-4280
▁properly	-4281
▁core	-4282
▁helped	-4283
▁mentioned	-4284
▁leads	-4285
▁whom	-4286
▁conflict	-4287
▁Step	-4288
oyal	-4289
▁diss	-4290
▁processing	-4291
▁option	-4292
▁White	-4293
uration	-4294
och	-4295
▁Hen	-4296
▁emotional	-4297
▁reaction	-4298
▁experienced	-4299
osystem	-4300
▁determined	-4301
▁gender	-4302
▁radiation	-4303
▁race	-4304
▁religion	-4305
▁pric	-4306
ST	-4307
▁unf	-4308
▁units	-4309
▁belong	-4310
▁Cath	-4311
78	-4312
▁NASA	-4313
▁2012	-4314
▁dram	-4315
▁Post	-4316
▁die	-4317
▁lung	-4318
▁involve	-4319
▁transform	-4320
▁regarding	-4321
lick	-4322
▁excell	-4323
▁exposed	-4324
▁Scient	-4325
▁Port	-4326
▁click	-4327
▁Bro	-4328
▁solid	-4329
▁profession	-4330
▁Ben	-4331
▁landsc	-4332
ortunately	-4333
riculum	-4334
▁advantage	-4335
ios	-4336
▁2011	-4337
▁elimin	-4338
▁reb	-4339
▁relevant	-4340
▁victim	-4341
▁pollution	-4342
▁motor	-4343
▁defic	-4344
ping	-4345
ressed	-4346
ander	-4347
▁effectively	-4348
▁describe	-4349
▁synt	-4350
▁jour	-4351
▁6.	-4352
orial	-4353
ishing	-4354
▁Get	-4355
riage	-4356
▁Met	-4357
▁mathemat	-4358
▁grade	-4359
▁calc	-4360
▁linked	-4361
inter	-4362
▁influen	-4363
▁previously	-4364
rum	-4365
▁depending	-4366
▁promote	-4367
▁inh	-4368
▁grant	-4369
▁island	-4370
▁Je	-4371
▁manufacture	-4372
▁mist	-4373
▁conservation	-4374
▁grass	-4375
▁heard	-4376
▁Island	-4377
iverse	-4378
▁kept	-4379
▁beautiful	-4380
▁spot	-4381
▁Mac	-4382
▁Cle	-4383
4)	-4384
▁served	-4385
▁math	-4386
▁Isl	-4387
▁helping	-4388
▁amounts	-4389
▁expert	-4390
▁alg	-4391
urt	-4392
mark	-4393
▁meat	-4394
▁interpret	-4395
▁(199	-4396
▁Service	-4397
▁please	-4398
▁phase	-4399
▁concerns	-4400
▁god	-4401
▁Mars	-4402
za	-4403
▁Ber	-4404
▁Mexico	-4405
▁AD	-4406
▁Data	-4407
ago	-4408
▁sem	-4409
▁prepared	-4410
▁Asia	-4411
cers	-4412
umn	-4413
RE	-4414
▁round	-4415
▁interested	-4416
▁operation	-4417
▁vot	-4418
▁coal	-4419
▁Fre	-4420
▁Treat	-4421
▁input	-4422
ategy	-4423
ributed	-4424
▁wealth	-4425
▁meant	-4426
▁definition	-4427
▁comfort	-4428
zing	-4429
▁10.	-4430
alle	-4431
▁decided	-4432
onic	-4433
▁pages	-4434
▁Class	-4435
▁manage	-4436
ya	-4437
▁farmers	-4438
▁Elect	-4439
rete	-4440
▁sort	-4441
▁strategy	-4442
▁northern	-4443
▁saying	-4444
▁eggs	-4445
inate	-4446
ek	-4447
mat	-4448
▁Ser	-4449
▁concepts	-4450
place	-4451
▁mel	-4452
uted	-4453
▁efficiency	-4454
▁official	-4455
▁Central	-4456
▁aid	-4457
▁spent	-4458
▁improved	-4459
▁hearing	-4460
itz	-4461
▁obvious	-4462
▁ship	-4463
▁southern	-4464
▁Old	-4465
▁26	-4466
stitution	-4467
▁Make	-4468
▁bud	-4469
oking	-4470
▁datab	-4471
▁kill	-4472
▁presc	-4473
▁Mart	-4474
ta	-4475
▁Ref	-4476
▁engineering	-4477
▁volunt	-4478
▁atmosphere	-4479
ams	-4480
▁Thomas	-4481
▁90	-4482
▁Op	-4483
▁hour	-4484
▁languages	-4485
▁square	-4486
▁consult	-4487
▁completed	-4488
ifying	-4489
▁Texas	-4490
▁articles	-4491
▁concern	-4492
▁Jews	-4493
▁diagnosis	-4494
▁reached	-4495
ded	-4496
wood	-4497
alled	-4498
▁pip	-4499
▁impl	-4500
▁28	-4501
clusion	-4502
isher	-4503
▁Sal	-4504
23	-4505
▁sustainable	-4506
▁samples	-4507
CC	-4508
▁cast	-4509
▁Dist	-4510
▁awareness	-4511
▁discover	-4512
▁west	-4513
▁clos	-4514
▁platform	-4515
board	-4516
▁cere	-4517
▁manner	-4518
lease	-4519
▁pun	-4520
▁conclud	-4521
▁Learning	-4522
▁motiv	-4523
▁vegetables	-4524
▁recorded	-4525
rates	-4526
▁hospital	-4527
▁owners	-4528
▁hop	-4529
▁conver	-4530
▁Acad	-4531
▁chemicals	-4532
▁invent	-4533
▁professor	-4534
▁seek	-4535
▁Sk	-4536
▁song	-4537
▁institutions	-4538
▁vaccine	-4539
itors	-4540
tes	-4541
▁Miss	-4542
-8	-4543
aughter	-4544
▁Sen	-4545
pat	-4546
uable	-4547
▁Britain	-4548
▁signal	-4549
onomic	-4550
▁Up	-4551
▁mainly	-4552
standing	-4553
ria	-4554
▁reduction	-4555
▁Through	-4556
▁storm	-4557
▁proposed	-4558
▁lesson	-4559
▁Lou	-4560
▁looks	-4561
▁Civil	-4562
▁Jer	-4563
bi	-4564
▁secret	-4565
▁procedure	-4566
1)	-4567
acing	-4568
▁formation	-4569
▁Addition	-4570
ormal	-4571
nic	-4572
irgin	-4573
▁lib	-4574
▁pret	-4575
astern	-4576
▁70	-4577
berg	-4578
▁practical	-4579
▁nav	-4580
▁Hol	-4581
comes	-4582
▁Any	-4583
▁supported	-4584
well	-4585
▁continues	-4586
iling	-4587
▁mort	-4588
▁correspond	-4589
▁pieces	-4590
ball	-4591
▁Energy	-4592
▁Disc	-4593
vision	-4594
▁2013	-4595
▁Supp	-4596
rep	-4597
▁Life	-4598
▁appoint	-4599
▁purposes	-4600
acific	-4601
▁frequency	-4602
▁revolution	-4603
▁pul	-4604
▁contribute	-4605
▁allowing	-4606
▁electrical	-4607
▁dro	-4608
▁Direct	-4609
▁Medical	-4610
24	-4611
▁extensive	-4612
▁Ir	-4613
▁notice	-4614
▁flex	-4615
▁drinking	-4616
▁yellow	-4617
ules	-4618
osite	-4619
otic	-4620
▁authority	-4621
5)	-4622
▁Out	-4623
▁shared	-4624
▁height	-4625
▁News	-4626
▁vulner	-4627
▁sufficient	-4628
▁intended	-4629
▁situations	-4630
▁master	-4631
rations	-4632
▁charge	-4633
▁ban	-4634
rence	-4635
▁youth	-4636
icy	-4637
-6	-4638
akers	-4639
▁brother	-4640
▁Cam	-4641
ishes	-4642
su	-4643
▁Space	-4644
aker	-4645
▁ideal	-4646
▁station	-4647
▁Women	-4648
▁27	-4649
acters	-4650
ounced	-4651
▁finally	-4652
▁wet	-4653
▁combined	-4654
▁toxic	-4655
▁Where	-4656
▁begins	-4657
▁park	-4658
▁bond	-4659
▁jobs	-4660
▁https	-4661
▁hit	-4662
istan	-4663
▁straight	-4664
▁renew	-4665
▁Dise	-4666
▁tasks	-4667
eline	-4668
▁focused	-4669
▁offered	-4670
ears	-4671
▁2009	-4672
▁fort	-4673
▁facts	-4674
AD	-4675
olute	-4676
ixt	-4677
▁lic	-4678
▁primarily	-4679
▁certainly	-4680
▁credit	-4681
▁treatments	-4682
▁Technology	-4683
▁indicate	-4684
▁kinds	-4685
OT	-4686
▁Such	-4687
▁Instead	-4688
▁remained	-4689
▁liquid	-4690
▁army	-4691
▁taught	-4692
▁foss	-4693
▁brief	-4694
eters	-4695
▁Information	-4696
▁existence	-4697
▁Before	-4698
▁collected	-4699
▁subjects	-4700
▁extent	-4701
▁phenomen	-4702
▁consequences	-4703
▁189	-4704
▁forced	-4705
▁doll	-4706
rapy	-4707
▁advance	-4708
▁sector	-4709
▁nutrients	-4710
ags	-4711
EL	-4712
lig	-4713
▁Franc	-4714
▁coord	-4715
▁morning	-4716
▁Medicine	-4717
▁largely	-4718
▁digest	-4719
▁Mil	-4720
inger	-4721
ulating	-4722
espite	-4723
▁operating	-4724
▁Latin	-4725
ague	-4726
▁Bur	-4727
▁gar	-4728
▁wonder	-4729
▁Army	-4730
▁stone	-4731
▁Exam	-4732
▁showing	-4733
▁waters	-4734
▁Arab	-4735
▁bill	-4736
▁crucial	-4737
▁Book	-4738
▁Robert	-4739
▁fib	-4740
▁muscles	-4741
ses	-4742
▁vital	-4743
leg	-4744
oper	-4745
aturally	-4746
▁Sl	-4747
▁specifically	-4748
▁identity	-4749
▁Muslim	-4750
▁east	-4751
iated	-4752
des	-4753
▁keeping	-4754
▁attacks	-4755
▁occurred	-4756
atric	-4757
▁bird	-4758
▁technical	-4759
▁centuries	-4760
▁career	-4761
▁Well	-4762
arrow	-4763
▁Bay	-4764
▁spend	-4765
▁perman	-4766
5).	-4767
▁faster	-4768
▁Stand	-4769
icated	-4770
▁impacts	-4771
eria	-4772
roke	-4773
▁(18	-4774
▁recy	-4775
▁ecosystem	-4776
gl	-4777
▁AN	-4778
▁Jud	-4779
rier	-4780
▁lov	-4781
▁2008	-4782
ossible	-4783
▁Atl	-4784
▁Commission	-4785
▁raised	-4786
vis	-4787
▁particles	-4788
▁settle	-4789
▁responsibility	-4790
▁metab	-4791
▁bright	-4792
▁hyper	-4793
▁leader	-4794
going	-4795
▁salt	-4796
▁Expl	-4797
RI	-4798
▁quar	-4799
▁topics	-4800
▁Bet	-4801
▁advice	-4802
▁characters	-4803
AP	-4804
▁despite	-4805
▁emergency	-4806
▁Mass	-4807
osen	-4808
gra	-4809
eep	-4810
▁liver	-4811
▁felt	-4812
▁2014	-4813
west	-4814
▁flowers	-4815
▁letters	-4816
▁shar	-4817
▁roll	-4818
rich	-4819
itness	-4820
ado	-4821
▁Fam	-4822
inent	-4823
26	-4824
▁Cop	-4825
▁external	-4826
olars	-4827
▁oral	-4828
oxide	-4829
▁voice	-4830
▁Those	-4831
▁double	-4832
▁surrounding	-4833
▁wife	-4834
▁motion	-4835
▁domestic	-4836
nel	-4837
ework	-4838
▁refers	-4839
osc	-4840
▁resist	-4841
▁clim	-4842
ancing	-4843
▁vast	-4844
▁Histor	-4845
▁measured	-4846
unk	-4847
▁Psych	-4848
▁comment	-4849
▁detailed	-4850
▁syn	-4851
▁affects	-4852
▁nations	-4853
▁perspective	-4854
▁nerv	-4855
ipped	-4856
inn	-4857
▁monitoring	-4858
▁excellent	-4859
▁Budd	-4860
▁Studies	-4861
▁vehicle	-4862
▁Flor	-4863
▁kn	-4864
roid	-4865
▁proteins	-4866
tion	-4867
inding	-4868
7).	-4869
▁Common	-4870
▁grand	-4871
▁explains	-4872
othing	-4873
▁Jose	-4874
ras	-4875
▁Fe	-4876
▁nit	-4877
▁Smith	-4878
▁tested	-4879
▁Sum	-4880
ails	-4881
rastructure	-4882
▁familiar	-4883
▁periods	-4884
▁Bible	-4885
▁suggested	-4886
rian	-4887
umin	-4888
▁sche	-4889
▁component	-4890
▁Nor	-4891
▁agricultural	-4892
▁moist	-4893
▁cert	-4894
▁maximum	-4895
▁tro	-4896
ael	-4897
▁onto	-4898
▁facilities	-4899
▁kil	-4900
▁goods	-4901
▁diam	-4902
▁sounds	-4903
osa	-4904
enses	-4905
▁Mem	-4906
oo	-4907
gment	-4908
▁Wind	-4909
▁Despite	-4910
▁controlled	-4911
field	-4912
▁immun	-4913
▁mere	-4914
▁divided	-4915
oviet	-4916
▁fundamental	-4917
▁haz	-4918
▁trial	-4919
oughly	-4920
▁cognitive	-4921
▁accurate	-4922
▁played	-4923
▁Google	-4924
▁aren	-4925
▁crops	-4926
▁otherwise	-4927
▁7.	-4928
hi	-4929
▁typical	-4930
down	-4931
▁sin	-4932
▁vent	-4933
▁links	-4934
▁greatest	-4935
band	-4936
▁blog	-4937
▁slightly	-4938
▁explan	-4939
▁fif	-4940
▁crisis	-4941
▁interview	-4942
▁explained	-4943
iced	-4944
▁Sou	-4945
▁Land	-4946
BC	-4947
li	-4948
anges	-4949
▁increasingly	-4950
▁ju	-4951
▁potentially	-4952
ificial	-4953
▁biological	-4954
▁satis	-4955
▁Pacific	-4956
▁flat	-4957
▁subsequ	-4958
▁send	-4959
point	-4960
verty	-4961
▁police	-4962
▁Foundation	-4963
inant	-4964
▁THE	-4965
▁poverty	-4966
▁depends	-4967
▁lose	-4968
▁floor	-4969
▁interests	-4970
▁(3	-4971
▁rail	-4972
▁thin	-4973
▁fluid	-4974
roc	-4975
▁immig	-4976
▁35	-4977
▁Sea	-4978
28	-4979
▁follows	-4980
▁studied	-4981
name	-4982
▁CD	-4983
▁instruction	-4984
▁substant	-4985
resents	-4986
6).	-4987
▁Lake	-4988
▁BC	-4989
▁girls	-4990
▁Charles	-4991
▁helpful	-4992
▁valid	-4993
▁Ste	-4994
▁apparent	-4995
▁fruits	-4996
▁neut	-4997
▁chann	-4998
▁western	-4999
▁sen	-5000
▁Ham	-5001
utive	-5002
▁dial	-5003
▁grown	-5004
▁introduction	-5005
▁happened	-5006
▁spl	-5007
▁Russian	-5008
▁abuse	-5009
stood	-5010
▁surpris	-5011
▁Mont	-5012
▁smart	-5013
▁depth	-5014
omy	-5015
athy	-5016
▁tips	-5017
▁phone	-5018
▁request	-5019
▁rural	-5020
▁Tem	-5021
▁Environmental	-5022
RO	-5023
▁Professor	-5024
▁paint	-5025
▁bow	-5026
aks	-5027
igenous	-5028
▁188	-5029
▁stars	-5030
▁looked	-5031
▁Inf	-5032
▁persons	-5033
▁Middle	-5034
ville	-5035
▁obtained	-5036
▁Figure	-5037
▁snow	-5038
▁habitat	-5039
▁Del	-5040
▁km	-5041
win	-5042
▁hundreds	-5043
▁harvest	-5044
ht	-5045
cript	-5046
van	-5047
▁containing	-5048
▁continuous	-5049
▁walls	-5050
▁thoughts	-5051
▁Nav	-5052
▁investment	-5053
▁recognized	-5054
▁format	-5055
▁Good	-5056
▁elev	-5057
▁instrument	-5058
▁disapp	-5059
▁Russia	-5060
ION	-5061
▁playing	-5062
zy	-5063
75	-5064
▁consists	-5065
burg	-5066
▁lik	-5067
itage	-5068
▁deliver	-5069
▁concerned	-5070
▁sed	-5071
ensus	-5072
▁stem	-5073
▁Engine	-5074
▁returned	-5075
7)	-5076
▁du	-5077
▁represents	-5078
▁pregnancy	-5079
lar	-5080
▁cardi	-5081
▁prices	-5082
▁wel	-5083
▁Henry	-5084
▁officials	-5085
▁argument	-5086
▁governments	-5087
▁Micro	-5088
▁convent	-5089
▁outcomes	-5090
▁Saf	-5091
▁protected	-5092
▁firm	-5093
▁concentration	-5094
▁residents	-5095
▁curriculum	-5096
col	-5097
▁pil	-5098
▁approaches	-5099
▁Carol	-5100
which	-5101
▁tried	-5102
▁Soviet	-5103
▁decrease	-5104
▁stock	-5105
▁wear	-5106
▁train	-5107
celer	-5108
rolog	-5109
▁prison	-5110
stronom	-5111
▁neighbor	-5112
▁internet	-5113
▁files	-5114
chers	-5115
▁roots	-5116
mp	-5117
▁valuable	-5118
▁visible	-5119
▁Id	-5120
▁principle	-5121
▁Wild	-5122
active	-5123
▁Pub	-5124
right	-5125
atever	-5126
▁pig	-5127
▁fle	-5128
▁rapidly	-5129
▁appearance	-5130
▁title	-5131
▁chief	-5132
6)	-5133
▁syndrome	-5134
▁pray	-5135
hips	-5136
29	-5137
MS	-5138
▁pu	-5139
▁latest	-5140
BN	-5141
▁closely	-5142
asure	-5143
DF	-5144
▁employees	-5145
fall	-5146
▁suffering	-5147
▁feelings	-5148
what	-5149
▁director	-5150
▁deaths	-5151
ascular	-5152
▁Att	-5153
▁Bre	-5154
tenance	-5155
yright	-5156
▁appeared	-5157
▁extract	-5158
’.	-5159
rot	-5160
▁accompl	-5161
▁medium	-5162
▁behaviour	-5163
▁minimum	-5164
ooth	-5165
▁inflammation	-5166
▁dut	-5167
inations	-5168
▁rand	-5169
▁therm	-5170
▁Power	-5171
abil	-5172
▁claims	-5173
▁medications	-5174
▁views	-5175
▁portion	-5176
CO	-5177
▁2000	-5178
▁selected	-5179
▁san	-5180
▁frag	-5181
▁rein	-5182
▁conscious	-5183
▁paid	-5184
▁contem	-5185
▁Emp	-5186
▁lessons	-5187
irt	-5188
▁sides	-5189
▁Catholic	-5190
▁Have	-5191
umber	-5192
▁Ox	-5193
▁discussed	-5194
▁gun	-5195
▁reform	-5196
▁wire	-5197
▁adding	-5198
▁satell	-5199
▁weap	-5200
▁leaving	-5201
▁justice	-5202
▁horse	-5203
▁circumst	-5204
▁knew	-5205
▁stret	-5206
▁stated	-5207
▁assemb	-5208
icks	-5209
▁Only	-5210
▁diversity	-5211
olf	-5212
▁Nature	-5213
▁expensive	-5214
▁191	-5215
ulin	-5216
▁Review	-5217
▁random	-5218
racy	-5219
TS	-5220
▁regularly	-5221
▁distingu	-5222
▁Phot	-5223
indu	-5224
▁naturally	-5225
ellect	-5226
▁push	-5227
ga	-5228
▁infected	-5229
▁mobile	-5230
▁Prov	-5231
▁band	-5232
▁Alex	-5233
▁Control	-5234
▁advoc	-5235
▁recovery	-5236
▁sick	-5237
▁29	-5238
ffee	-5239
▁inches	-5240
▁purs	-5241
▁ages	-5242
▁substance	-5243
▁procedures	-5244
▁enhance	-5245
▁IN	-5246
lers	-5247
▁sets	-5248
▁intelligence	-5249
▁shel	-5250
▁movements	-5251
▁infrastructure	-5252
▁Company	-5253
free	-5254
▁couple	-5255
▁Long	-5256
iled	-5257
▁millions	-5258
▁param	-5259
▁PC	-5260
▁Who	-5261
▁moral	-5262
bing	-5263
alse	-5264
▁secure	-5265
▁poet	-5266
uest	-5267
▁Ap	-5268
▁driving	-5269
▁rub	-5270
▁alt	-5271
▁Louis	-5272
▁recognize	-5273
uke	-5274
▁spiritual	-5275
▁funding	-5276
▁Exper	-5277
ario	-5278
▁Ess	-5279
▁Group	-5280
cling	-5281
▁soldiers	-5282
▁agriculture	-5283
▁ingred	-5284
▁absolute	-5285
ston	-5286
stream	-5287
esity	-5288
▁Writ	-5289
▁Add	-5290
100	-5291
▁AI	-5292
▁corpor	-5293
US	-5294
bert	-5295
▁discovery	-5296
▁od	-5297
▁businesses	-5298
anes	-5299
▁documents	-5300
▁mit	-5301
irus	-5302
inet	-5303
▁Library	-5304
▁exchange	-5305
la	-5306
▁raise	-5307
▁Note	-5308
▁capable	-5309
ING	-5310
▁Bat	-5311
anguage	-5312
▁Div	-5313
▁Finally	-5314
▁colors	-5315
▁secondary	-5316
▁pref	-5317
▁suffer	-5318
▁Rights	-5319
▁Federal	-5320
▁healthcare	-5321
▁adequ	-5322
▁Follow	-5323
ota	-5324
▁Please	-5325
▁narr	-5326
▁pump	-5327
▁Mo	-5328
▁Whe	-5329
▁stages	-5330
▁boost	-5331
▁Management	-5332
▁incl	-5333
▁Care	-5334
state	-5335
▁myth	-5336
oral	-5337
mas	-5338
▁chapter	-5339
irginia	-5340
45	-5341
▁Ter	-5342
▁Design	-5343
▁phr	-5344
2).	-5345
alysis	-5346
▁sensitive	-5347
▁pure	-5348
▁Rad	-5349
with	-5350
▁intake	-5351
osal	-5352
liam	-5353
▁Though	-5354
▁impossible	-5355
▁massive	-5356
ka	-5357
▁leadership	-5358
pping	-5359
▁facilit	-5360
orith	-5361
agers	-5362
road	-5363
▁unlike	-5364
▁Ca	-5365
▁vehicles	-5366
▁prem	-5367
▁Early	-5368
▁precise	-5369
▁nurs	-5370
▁talking	-5371
▁Exp	-5372
▁hunt	-5373
▁revealed	-5374
▁describes	-5375
▁wave	-5376
▁fertil	-5377
▁Take	-5378
▁prevention	-5379
plicated	-5380
rants	-5381
▁lifest	-5382
▁3,	-5383
▁traffic	-5384
▁brown	-5385
▁Global	-5386
▁experiments	-5387
33	-5388
asive	-5389
▁Florida	-5390
▁Last	-5391
▁selection	-5392
▁entirely	-5393
▁era	-5394
asp	-5395
ocratic	-5396
500	-5397
olve	-5398
▁allerg	-5399
long	-5400
being	-5401
▁Pers	-5402
▁apart	-5403
▁closed	-5404
▁antibiot	-5405
▁normally	-5406
▁touch	-5407
▁calls	-5408
▁wors	-5409
▁Ext	-5410
▁recip	-5411
▁ble	-5412
cules	-5413
ny	-5414
▁database	-5415
4).	-5416
▁Office	-5417
▁interf	-5418
dden	-5419
▁suitable	-5420
▁diverse	-5421
▁opinion	-5422
idden	-5423
▁Det	-5424
teries	-5425
▁library	-5426
▁minim	-5427
▁trad	-5428
▁parties	-5429
aser	-5430
ypes	-5431
▁Diff	-5432
▁producing	-5433
alian	-5434
▁moon	-5435
▁amb	-5436
ibilities	-5437
▁figures	-5438
▁creative	-5439
CS	-5440
▁prepare	-5441
▁survival	-5442
▁worldwide	-5443
▁dental	-5444
▁narrow	-5445
▁Labor	-5446
▁Ann	-5447
▁networks	-5448
▁inject	-5449
othe	-5450
ona	-5451
▁chain	-5452
▁understood	-5453
▁originally	-5454
▁gall	-5455
ilding	-5456
▁discrim	-5457
▁comprehensive	-5458
▁steel	-5459
▁recon	-5460
27	-5461
olester	-5462
▁routine	-5463
▁possibly	-5464
▁possess	-5465
ca	-5466
▁cars	-5467
▁generate	-5468
▁formal	-5469
iology	-5470
▁index	-5471
▁Frank	-5472
▁label	-5473
▁opened	-5474
▁candid	-5475
ava	-5476
▁computers	-5477
▁nan	-5478
▁landscape	-5479
▁district	-5480
▁Natural	-5481
▁speaking	-5482
▁improving	-5483
▁transition	-5484
ki	-5485
▁manufacturing	-5486
▁plays	-5487
vironments	-5488
▁accepted	-5489
liament	-5490
▁dream	-5491
anged	-5492
aph	-5493
ato	-5494
▁Joseph	-5495
▁bones	-5496
▁adopted	-5497
omach	-5498
▁pictures	-5499
▁listed	-5500
▁supplement	-5501
osph	-5502
▁possibility	-5503
▁dust	-5504
pass	-5505
▁tun	-5506
▁warming	-5507
▁village	-5508
▁achieved	-5509
▁medication	-5510
▁decline	-5511
▁Sym	-5512
▁budget	-5513
▁toler	-5514
1).	-5515
▁regional	-5516
▁sudden	-5517
▁marriage	-5518
▁readers	-5519
▁latter	-5520
▁Home	-5521
isp	-5522
▁stick	-5523
▁universe	-5524
▁houses	-5525
abric	-5526
abits	-5527
agues	-5528
▁suc	-5529
▁acts	-5530
orter	-5531
▁mac	-5532
▁tal	-5533
▁repeated	-5534
ropical	-5535
▁fill	-5536
▁aw	-5537
▁flight	-5538
▁restrict	-5539
▁abund	-5540
▁185	-5541
olesterol	-5542
▁stored	-5543
ifies	-5544
▁worse	-5545
▁guidelines	-5546
kin	-5547
mun	-5548
▁Ill	-5549
▁wildlife	-5550
▁gather	-5551
▁Stat	-5552
▁fell	-5553
▁cloud	-5554
erals	-5555
▁mountain	-5556
▁answers	-5557
▁mamm	-5558
▁starts	-5559
▁harmful	-5560
obe	-5561
▁forests	-5562
▁Fact	-5563
▁USA	-5564
▁administration	-5565
▁2015	-5566
▁Form	-5567
▁sports	-5568
▁mur	-5569
▁plate	-5570
▁engage	-5571
▁Peter	-5572
▁Canadian	-5573
▁leaf	-5574
▁afford	-5575
▁tow	-5576
mary	-5577
flow	-5578
normal	-5579
▁ISBN	-5580
pet	-5581
▁solve	-5582
rors	-5583
▁tail	-5584
▁beneficial	-5585
aria	-5586
▁af	-5587
▁Gold	-5588
▁doctors	-5589
▁agreement	-5590
▁professionals	-5591
▁imper	-5592
exp	-5593
▁aircraft	-5594
▁Paris	-5595
▁Commit	-5596
▁unless	-5597
rem	-5598
▁ancest	-5599
hemical	-5600
▁journey	-5601
▁ax	-5602
▁arms	-5603
▁cultiv	-5604
▁Constitution	-5605
▁generated	-5606
lements	-5607
oted	-5608
apping	-5609
35	-5610
imer	-5611
▁transmission	-5612
ctic	-5613
ye	-5614
▁museum	-5615
▁apprec	-5616
▁Free	-5617
▁Australian	-5618
3).	-5619
▁scholars	-5620
▁Learn	-5621
▁remaining	-5622
▁survive	-5623
▁struggle	-5624
▁Report	-5625
▁aqu	-5626
organ	-5627
gent	-5628
▁pretty	-5629
ects	-5630
▁accounts	-5631
▁Ma	-5632
born	-5633
▁Dan	-5634
▁Cult	-5635
▁Sometimes	-5636
▁maintenance	-5637
prise	-5638
▁Columb	-5639
▁Tor	-5640
▁Cat	-5641
▁creates	-5642
▁edge	-5643
▁Clin	-5644
▁twice	-5645
▁courses	-5646
▁marine	-5647
▁surf	-5648
▁Among	-5649
▁tells	-5650
ada	-5651
▁remote	-5652
▁lands	-5653
▁equival	-5654
ala	-5655
▁expressed	-5656
▁Time	-5657
throp	-5658
ester	-5659
ican	-5660
▁chart	-5661
▁187	-5662
▁catch	-5663
anda	-5664
▁sweet	-5665
ua	-5666
▁obtain	-5667
ogue	-5668
▁window	-5669
▁door	-5670
war	-5671
▁2020	-5672
▁switch	-5673
▁sell	-5674
iform	-5675
▁filled	-5676
▁agencies	-5677
▁45	-5678
▁Study	-5679
inder	-5680
▁Lab	-5681
cel	-5682
▁tiny	-5683
▁Cre	-5684
▁perce	-5685
▁happy	-5686
▁injuries	-5687
rans	-5688
▁kit	-5689
▁500	-5690
add	-5691
ashion	-5692
▁Street	-5693
▁depos	-5694
▁sequence	-5695
▁bio	-5696
alley	-5697
▁consistent	-5698
▁electronic	-5699
▁outl	-5700
▁extended	-5701
▁indeed	-5702
ums	-5703
▁environments	-5704
▁assistance	-5705
▁Nations	-5706
▁error	-5707
▁reject	-5708
▁choices	-5709
▁circumstances	-5710
▁decade	-5711
▁aer	-5712
▁Haw	-5713
tage	-5714
▁intellect	-5715
▁derived	-5716
▁battery	-5717
▁algorith	-5718
orrow	-5719
▁successfully	-5720
▁studying	-5721
eper	-5722
▁discipl	-5723
ini	-5724
▁acceler	-5725
▁childhood	-5726
▁failed	-5727
9)	-5728
▁waves	-5729
.’	-5730
▁enable	-5731
▁unknown	-5732
ansion	-5733
icians	-5734
▁optim	-5735
▁Mill	-5736
▁produces	-5737
▁opening	-5738
▁8.	-5739
IL	-5740
▁shell	-5741
38	-5742
▁seeing	-5743
mic	-5744
▁End	-5745
▁broken	-5746
If	-5747
CT	-5748
▁colour	-5749
▁Disease	-5750
▁OF	-5751
nam	-5752
▁wid	-5753
▁locations	-5754
spec	-5755
▁sod	-5756
▁density	-5757
▁molecules	-5758
icide	-5759
▁composition	-5760
▁foundation	-5761
▁wants	-5762
▁framework	-5763
▁sentence	-5764
hma	-5765
▁pull	-5766
▁truly	-5767
▁2016	-5768
▁yield	-5769
▁intervention	-5770
▁mechanism	-5771
▁skill	-5772
▁lots	-5773
zen	-5774
▁Hall	-5775
▁laun	-5776
lets	-5777
▁download	-5778
▁copy	-5779
▁slowly	-5780
▁opposite	-5781
▁multi	-5782
▁thor	-5783
inity	-5784
▁doubt	-5785
hist	-5786
▁troops	-5787
ocracy	-5788
▁philosophy	-5789
▁papers	-5790
▁photos	-5791
arant	-5792
▁indicates	-5793
▁calcium	-5794
▁decide	-5795
▁responses	-5796
▁audience	-5797
’,	-5798
▁protocol	-5799
inating	-5800
▁acids	-5801
▁Pract	-5802
▁fossil	-5803
▁stomach	-5804
▁Sol	-5805
wing	-5806
▁witness	-5807
▁authorities	-5808
▁interaction	-5809
▁critic	-5810
rid	-5811
▁gal	-5812
▁greatly	-5813
▁respir	-5814
oung	-5815
▁managed	-5816
▁300	-5817
▁ratio	-5818
▁sky	-5819
UR	-5820
▁Wood	-5821
ait	-5822
last	-5823
▁signals	-5824
igation	-5825
oster	-5826
inction	-5827
-9	-5828
▁unp	-5829
▁raw	-5830
▁Check	-5831
▁Rob	-5832
▁fixed	-5833
▁marked	-5834
▁mixed	-5835
▁uns	-5836
▁AS	-5837
▁grav	-5838
▁cart	-5839
▁traum	-5840
▁volunte	-5841
▁doi	-5842
kes	-5843
▁ultimately	-5844
struct	-5845
▁difficulty	-5846
▁institution	-5847
▁description	-5848
▁permanent	-5849
ena	-5850
body	-5851
ivery	-5852
HO	-5853
▁flav	-5854
▁fasc	-5855
▁walking	-5856
luding	-5857
itudes	-5858
▁simpl	-5859
itative	-5860
▁carefully	-5861
▁hus	-5862
stein	-5863
▁www	-5864
gans	-5865
▁coffee	-5866
▁cultures	-5867
▁comparison	-5868
▁replaced	-5869
▁fly	-5870
erent	-5871
▁organized	-5872
▁vessels	-5873
▁represented	-5874
▁Climate	-5875
reland	-5876
▁Rome	-5877
▁laboratory	-5878
▁consumers	-5879
▁circuit	-5880
▁princip	-5881
oned	-5882
▁Oh	-5883
umes	-5884
▁Southern	-5885
▁wish	-5886
▁reader	-5887
▁emotions	-5888
ifications	-5889
▁Mad	-5890
▁insects	-5891
no	-5892
▁inhib	-5893
▁immediate	-5894
▁newsp	-5895
inking	-5896
EP	-5897
ache	-5898
ribed	-5899
▁Bank	-5900
▁Dig	-5901
zil	-5902
▁Cancer	-5903
▁fiber	-5904
▁highlight	-5905
▁cutting	-5906
▁PM	-5907
▁bear	-5908
▁remark	-5909
▁corn	-5910
▁preval	-5911
▁debate	-5912
▁2007	-5913
▁accum	-5914
▁conventional	-5915
▁dedicated	-5916
using	-5917
48	-5918
▁lifestyle	-5919
bour	-5920
▁IP	-5921
▁acknow	-5922
▁Richard	-5923
reed	-5924
▁sight	-5925
rine	-5926
▁thousand	-5927
▁alle	-5928
▁biggest	-5929
hand	-5930
▁nine	-5931
▁gluc	-5932
▁Creat	-5933
TM	-5934
▁voc	-5935
abul	-5936
▁Find	-5937
▁daughter	-5938
▁shift	-5939
▁Ireland	-5940
▁desire	-5941
9).	-5942
▁supporting	-5943
▁handle	-5944
▁mild	-5945
ocy	-5946
▁unable	-5947
▁tea	-5948
▁ethnic	-5949
▁noise	-5950
▁implementation	-5951
▁electron	-5952
▁1990	-5953
▁attend	-5954
▁closer	-5955
zed	-5956
usal	-5957
▁university	-5958
tering	-5959
▁Michael	-5960
▁architecture	-5961
icago	-5962
▁regulations	-5963
sis	-5964
▁Gal	-5965
▁hydrogen	-5966
▁necessarily	-5967
▁Northern	-5968
▁Top	-5969
▁paralle	-5970
▁Camp	-5971
▁writer	-5972
▁cholesterol	-5973
▁Eth	-5974
▁pron	-5975
▁Sign	-5976
▁Does	-5977
agon	-5978
▁regul	-5979
aped	-5980
▁Administ	-5981
▁Forest	-5982
▁Ocean	-5983
▁persist	-5984
ictionary	-5985
▁destroyed	-5986
fe	-5987
izer	-5988
ints	-5989
▁hero	-5990
▁arrived	-5991
▁habits	-5992
ront	-5993
ett	-5994
▁fighting	-5995
▁fewer	-5996
▁brand	-5997
▁inner	-5998
▁Color	-5999
▁younger	-6000
rating	-6001
▁Fort	-6002
level	-6003
▁Cap	-6004
▁gone	-6005
▁Revolution	-6006
▁chosen	-6007
phone	-6008
▁reserv	-6009
gu	-6010
▁concrete	-6011
▁breathing	-6012
elled	-6013
▁roof	-6014
▁pup	-6015
▁magnetic	-6016
▁din	-6017
▁limits	-6018
sey	-6019
▁Agricult	-6020
▁underlying	-6021
▁Committee	-6022
ella	-6023
▁purchase	-6024
▁machines	-6025
yles	-6026
▁Furthermore	-6027
▁dent	-6028
▁exists	-6029
▁smoking	-6030
▁Italy	-6031
▁Royal	-6032
▁constitution	-6033
▁standing	-6034
▁Moreover	-6035
▁founded	-6036
▁Plant	-6037
eck	-6038
▁Str	-6039
▁colleagues	-6040
▁Sing	-6041
▁stands	-6042
▁supports	-6043
irty	-6044
Americ	-6045
bridge	-6046
-7	-6047
▁Unf	-6048
▁join	-6049
ita	-6050
han	-6051
ictor	-6052
▁Click	-6053
▁fabric	-6054
▁Pan	-6055
▁neck	-6056
▁ourselves	-6057
▁overl	-6058
▁communicate	-6059
▁nerve	-6060
hop	-6061
▁unus	-6062
▁whereas	-6063
▁feeding	-6064
▁List	-6065
stone	-6066
▁camera	-6067
▁mechanisms	-6068
▁improvement	-6069
riers	-6070
▁married	-6071
▁housing	-6072
▁epid	-6073
▁Similar	-6074
▁ends	-6075
ipping	-6076
▁sharing	-6077
stract	-6078
rd	-6079
▁relax	-6080
▁drawing	-6081
▁false	-6082
▁conclusion	-6083
▁Current	-6084
ml	-6085
▁Access	-6086
aud	-6087
▁twenty	-6088
▁Mag	-6089
heast	-6090
▁clust	-6091
▁agency	-6092
then	-6093
▁variable	-6094
ribe	-6095
▁recognition	-6096
▁Scot	-6097
36	-6098
▁Look	-6099
▁transportation	-6100
▁supplies	-6101
▁listen	-6102
cher	-6103
▁percentage	-6104
azing	-6105
▁Gard	-6106
▁Brown	-6107
orses	-6108
▁compounds	-6109
▁thy	-6110
under	-6111
ctor	-6112
▁photograph	-6113
▁4,	-6114
▁obesity	-6115
▁border	-6116
▁organisms	-6117
▁Non	-6118
inson	-6119
▁eastern	-6120
▁Times	-6121
icon	-6122
▁regist	-6123
8).	-6124
▁Native	-6125
▁1:	-6126
ctive	-6127
▁Penn	-6128
ora	-6129
▁programming	-6130
▁vulnerable	-6131
▁Back	-6132
▁cos	-6133
▁evaluation	-6134
▁occasion	-6135
▁contamin	-6136
▁artificial	-6137
word	-6138
▁Additionally	-6139
▁Researchers	-6140
▁psychological	-6141
rus	-6142
▁hypothes	-6143
▁eld	-6144
orous	-6145
▁Sever	-6146
▁crow	-6147
▁behaviors	-6148
▁dioxide	-6149
ading	-6150
▁taste	-6151
▁demonstrated	-6152
LA	-6153
fish	-6154
▁membr	-6155
▁Effect	-6156
▁pool	-6157
▁bread	-6158
▁instructions	-6159
itan	-6160
▁veter	-6161
▁launch	-6162
rovers	-6163
utch	-6164
▁Spain	-6165
What	-6166
▁reactions	-6167
avery	-6168
▁shut	-6169
▁attached	-6170
▁2017	-6171
▁contained	-6172
hesis	-6173
▁trials	-6174
itt	-6175
▁politics	-6176
▁Main	-6177
▁carb	-6178
▁zone	-6179
▁horiz	-6180
▁confidence	-6181
ifest	-6182
▁Three	-6183
▁delay	-6184
isters	-6185
▁turns	-6186
een	-6187
▁Carolina	-6188
▁rising	-6189
▁Nut	-6190
▁territory	-6191
▁36	-6192
▁employment	-6193
▁Scott	-6194
▁Bab	-6195
▁Empire	-6196
▁vote	-6197
▁capture	-6198
▁resulted	-6199
▁crime	-6200
8)	-6201
▁grew	-6202
▁ahead	-6203
hav	-6204
▁functional	-6205
omic	-6206
▁prompt	-6207
▁mice	-6208
▁Comput	-6209
▁equivalent	-6210
▁lies	-6211
▁cm	-6212
▁accident	-6213
▁stable	-6214
▁subs	-6215
ola	-6216
▁fract	-6217
▁202	-6218
▁zero	-6219
▁Table	-6220
▁layers	-6221
▁row	-6222
▁participate	-6223
▁willing	-6224
▁pair	-6225
▁knows	-6226
▁resolution	-6227
▁whatever	-6228
▁examine	-6229
▁Sciences	-6230
▁trained	-6231
▁chrom	-6232
▁diagnosed	-6233
▁Conn	-6234
▁fever	-6235
▁Open	-6236
DP	-6237
ymph	-6238
▁Academy	-6239
▁refuge	-6240
▁Age	-6241
▁legs	-6242
▁ships	-6243
▁tall	-6244
▁ath	-6245
▁entry	-6246
▁presentation	-6247
▁feedback	-6248
▁Equ	-6249
▁Bus	-6250
bra	-6251
▁Pop	-6252
▁observations	-6253
▁greenhouse	-6254
▁recept	-6255
▁prev	-6256
▁prove	-6257
▁guarant	-6258
▁shop	-6259
abled	-6260
▁customers	-6261
▁powers	-6262
▁partner	-6263
▁Adv	-6264
exam	-6265
▁Cy	-6266
onia	-6267
▁objective	-6268
▁relation	-6269
▁cats	-6270
▁Unfortunately	-6271
esis	-6272
▁joined	-6273
▁demonstrate	-6274
erior	-6275
▁Board	-6276
irds	-6277
▁smoke	-6278
▁beliefs	-6279
▁stroke	-6280
▁hur	-6281
▁ment	-6282
▁estimates	-6283
▁Chicago	-6284
teen	-6285
▁Teac	-6286
weight	-6287
ione	-6288
▁distur	-6289
anta	-6290
▁debt	-6291
▁competition	-6292
called	-6293
▁instruments	-6294
▁frequent	-6295
ults	-6296
▁maps	-6297
▁flo	-6298
▁independence	-6299
pread	-6300
▁Prop	-6301
As	-6302
▁administr	-6303
tic	-6304
▁Special	-6305
ritis	-6306
▁substances	-6307
▁supposed	-6308
ups	-6309
▁connections	-6310
▁generations	-6311
▁fu	-6312
▁department	-6313
▁III	-6314
▁meth	-6315
top	-6316
▁shot	-6317
hered	-6318
▁nearby	-6319
▁Language	-6320
asters	-6321
▁comments	-6322
oding	-6323
LE	-6324
tra	-6325
▁Brazil	-6326
▁Wik	-6327
plant	-6328
▁Sil	-6329
There	-6330
99	-6331
▁bot	-6332
cycl	-6333
▁issued	-6334
▁virtual	-6335
ugh	-6336
▁maintaining	-6337
▁Hy	-6338
▁mode	-6339
▁funds	-6340
itivity	-6341
▁defe	-6342
▁insurance	-6343
anches	-6344
▁Chapter	-6345
▁server	-6346
idespread	-6347
▁Mer	-6348
▁delivery	-6349
▁EU	-6350
roduction	-6351
▁scene	-6352
BS	-6353
▁Start	-6354
icious	-6355
▁gap	-6356
▁ru	-6357
ih	-6358
▁spok	-6359
▁launched	-6360
▁Article	-6361
opy	-6362
▁drain	-6363
▁association	-6364
▁swim	-6365
▁explo	-6366
▁tissues	-6367
▁lect	-6368
▁Py	-6369
etime	-6370
▁challenging	-6371
▁Holy	-6372
▁Dar	-6373
▁teen	-6374
▁Jo	-6375
▁mm	-6376
▁Big	-6377
▁mos	-6378
▁184	-6379
▁Author	-6380
▁pra	-6381
struction	-6382
how	-6383
eless	-6384
▁chick	-6385
▁Eastern	-6386
▁scan	-6387
▁Martin	-6388
▁Family	-6389
▁mand	-6390
▁poison	-6391
▁mining	-6392
▁wasn	-6393
▁Georg	-6394
▁script	-6395
but	-6396
Go	-6397
▁interactions	-6398
▁sheet	-6399
▁surve	-6400
▁spending	-6401
earing	-6402
▁define	-6403
▁employed	-6404
▁tank	-6405
ishment	-6406
xts	-6407
▁arrange	-6408
aked	-6409
▁positions	-6410
▁match	-6411
▁sole	-6412
▁Est	-6413
▁astronom	-6414
ployment	-6415
▁stimul	-6416
▁Never	-6417
▁Irish	-6418
while	-6419
▁Orig	-6420
▁192	-6421
▁putting	-6422
▁everyday	-6423
▁legislation	-6424
eenth	-6425
▁compare	-6426
▁operate	-6427
▁smooth	-6428
▁Mean	-6429
ediatric	-6430
▁outbre	-6431
▁hem	-6432
▁hole	-6433
▁painting	-6434
▁insulin	-6435
▁vs	-6436
ureau	-6437
▁consumer	-6438
ushed	-6439
▁categories	-6440
▁cup	-6441
▁matters	-6442
isk	-6443
▁voltage	-6444
▁markets	-6445
▁Guide	-6446
▁sections	-6447
▁transp	-6448
▁bridge	-6449
▁industries	-6450
▁organs	-6451
▁expansion	-6452
IA	-6453
▁Works	-6454
▁involving	-6455
ether	-6456
▁route	-6457
itely	-6458
▁centre	-6459
IP	-6460
osion	-6461
▁settings	-6462
▁Italian	-6463
▁neur	-6464
▁fold	-6465
▁passage	-6466
▁holds	-6467
▁Four	-6468
▁undert	-6469
▁exercises	-6470
▁Less	-6471
▁explanation	-6472
▁committed	-6473
▁reliable	-6474
▁Mult	-6475
▁adequate	-6476
▁fashion	-6477
ighter	-6478
▁county	-6479
▁usage	-6480
▁participation	-6481
▁blocks	-6482
such	-6483
hyth	-6484
▁covers	-6485
▁breath	-6486
▁Down	-6487
▁award	-6488
▁danger	-6489
fit	-6490
▁ended	-6491
▁ongoing	-6492
▁fer	-6493
▁division	-6494
▁players	-6495
▁kidney	-6496
▁Low	-6497
arn	-6498
idity	-6499
▁none	-6500
▁flag	-6501
▁reduces	-6502
alls	-6503
otes	-6504
▁Cho	-6505
ourage	-6506
▁rice	-6507
rite	-6508
▁significance	-6509
omp	-6510
itter	-6511
▁meal	-6512
▁align	-6513
▁widespread	-6514
▁accessible	-6515
uh	-6516
ingdom	-6517
▁oblig	-6518
▁150	-6519
▁brings	-6520
▁frame	-6521
scale	-6522
▁tight	-6523
oven	-6524
▁rig	-6525
▁indicated	-6526
▁Lar	-6527
▁succeed	-6528
▁controls	-6529
▁reven	-6530
▁drawn	-6531
▁agreed	-6532
▁Mel	-6533
dule	-6534
▁forth	-6535
▁holding	-6536
▁cryst	-6537
▁neither	-6538
▁repair	-6539
▁spaces	-6540
▁ske	-6541
▁glucose	-6542
▁rivers	-6543
▁relief	-6544
CD	-6545
umps	-6546
▁historic	-6547
▁viruses	-6548
▁depart	-6549
iah	-6550
▁announced	-6551
▁runs	-6552
iral	-6553
▁Several	-6554
▁approved	-6555
▁meters	-6556
▁street	-6557
▁string	-6558
azine	-6559
▁electro	-6560
▁receiving	-6561
▁installed	-6562
she	-6563
▁trip	-6564
▁Party	-6565
▁butter	-6566
▁minerals	-6567
▁Word	-6568
ittle	-6569
▁column	-6570
▁75	-6571
▁9.	-6572
▁burning	-6573
▁damaged	-6574
▁ped	-6575
rial	-6576
▁estimate	-6577
gical	-6578
reek	-6579
▁gram	-6580
▁banks	-6581
acco	-6582
▁constructed	-6583
occ	-6584
orph	-6585
▁rank	-6586
▁ille	-6587
▁cav	-6588
▁controvers	-6589
▁Leg	-6590
▁archae	-6591
▁Community	-6592
▁Next	-6593
▁orient	-6594
▁strongly	-6595
▁forget	-6596
▁measurement	-6597
ented	-6598
▁respectively	-6599
▁blow	-6600
▁theories	-6601
▁physics	-6602
▁declared	-6603
gov	-6604
▁earn	-6605
▁conven	-6606
abulary	-6607
▁vac	-6608
▁sacr	-6609
37	-6610
icit	-6611
rooms	-6612
▁victims	-6613
▁tons	-6614
▁holid	-6615
▁intellectual	-6616
▁mechanical	-6617
IR	-6618
▁fulf	-6619
▁shif	-6620
▁texts	-6621
▁offering	-6622
▁aband	-6623
▁destruction	-6624
etics	-6625
▁furn	-6626
▁nob	-6627
▁Which	-6628
▁2006	-6629
▁moisture	-6630
▁Pet	-6631
iration	-6632
▁integrated	-6633
▁biod	-6634
ibl	-6635
▁Sat	-6636
▁nest	-6637
▁)	-6638
▁proportion	-6639
hent	-6640
▁Resources	-6641
▁somewhat	-6642
▁worry	-6643
▁Services	-6644
▁Method	-6645
▁measurements	-6646
▁recommendations	-6647
▁workshe	-6648
CA	-6649
▁Atlantic	-6650
▁photo	-6651
▁artists	-6652
34	-6653
▁entered	-6654
▁constantly	-6655
ocation	-6656
▁publication	-6657
▁election	-6658
▁paras	-6659
▁blind	-6660
iability	-6661
amins	-6662
▁AP	-6663
▁tube	-6664
▁Ep	-6665
▁kne	-6666
▁negot	-6667
▁facility	-6668
▁babies	-6669
▁cards	-6670
idential	-6671
▁Try	-6672
▁enemy	-6673
herent	-6674
▁Hill	-6675
itamin	-6676
▁seeking	-6677
▁Indians	-6678
quit	-6679
▁Face	-6680
▁dys	-6681
▁composed	-6682
▁1980	-6683
▁theore	-6684
▁Men	-6685
▁surfaces	-6686
▁intense	-6687
▁parallel	-6688
rency	-6689
▁ring	-6690
▁roles	-6691
▁missing	-6692
▁variables	-6693
rane	-6694
▁Security	-6695
▁category	-6696
▁Change	-6697
elesc	-6698
▁boy	-6699
▁asking	-6700
▁Fund	-6701
making	-6702
▁tract	-6703
car	-6704
▁Lib	-6705
▁Consider	-6706
that	-6707
▁bath	-6708
95	-6709
▁trouble	-6710
-10	-6711
Is	-6712
▁females	-6713
▁boys	-6714
aded	-6715
▁Rom	-6716
▁dose	-6717
▁manip	-6718
otton	-6719
▁mood	-6720
▁turning	-6721
▁preparation	-6722
▁seemed	-6723
▁males	-6724
▁forg	-6725
▁mortality	-6726
ulty	-6727
▁nervous	-6728
▁Po	-6729
agram	-6730
▁evaluate	-6731
▁withd	-6732
▁fro	-6733
▁criteria	-6734
▁metabol	-6735
▁Oxford	-6736
onds	-6737
▁collaboration	-6738
▁arrest	-6739
▁stre	-6740
▁rid	-6741
65	-6742
▁pharm	-6743
▁hun	-6744
▁volcan	-6745
▁centers	-6746
▁influenced	-6747
agraph	-6748
▁wait	-6749
▁loved	-6750
▁advert	-6751
▁distributed	-6752
▁Set	-6753
▁Type	-6754
uts	-6755
▁husband	-6756
▁Pak	-6757
▁renewable	-6758
thritis	-6759
▁1970	-6760
▁rocks	-6761
▁Sup	-6762
oples	-6763
▁wound	-6764
ady	-6765
▁MS	-6766
▁pregnant	-6767
▁angle	-6768
▁Indust	-6769
▁31	-6770
▁calories	-6771
▁Rock	-6772
sts	-6773
rey	-6774
▁crim	-6775
▁merely	-6776
igan	-6777
▁honor	-6778
▁dollars	-6779
▁guidance	-6780
▁examination	-6781
▁proof	-6782
▁designs	-6783
▁analys	-6784
▁coastal	-6785
▁detection	-6786
▁theme	-6787
▁2018	-6788
▁respiratory	-6789
▁horses	-6790
▁Princ	-6791
▁plus	-6792
▁outcome	-6793
▁Naz	-6794
gers	-6795
kins	-6796
▁Bill	-6797
▁Agency	-6798
▁engaged	-6799
iox	-6800
▁Asian	-6801
▁strict	-6802
▁preventing	-6803
roat	-6804
▁complicated	-6805
ivered	-6806
▁plenty	-6807
▁considering	-6808
▁rely	-6809
airy	-6810
▁silver	-6811
▁pounds	-6812
▁satellite	-6813
▁captured	-6814
esides	-6815
▁Dou	-6816
▁dependent	-6817
▁edition	-6818
IG	-6819
▁commission	-6820
hyd	-6821
▁shock	-6822
▁arts	-6823
▁intest	-6824
onomy	-6825
▁uncertain	-6826
gs	-6827
▁advantages	-6828
▁molecular	-6829
▁facing	-6830
opes	-6831
▁beauty	-6832
rary	-6833
▁realize	-6834
yal	-6835
UN	-6836
▁tub	-6837
operation	-6838
▁officers	-6839
apse	-6840
▁2005	-6841
▁contemporary	-6842
▁breeding	-6843
oom	-6844
▁Modern	-6845
▁sought	-6846
greg	-6847
net	-6848
▁clothing	-6849
aired	-6850
ohyd	-6851
ixture	-6852
▁ingredients	-6853
▁domain	-6854
▁nose	-6855
rene	-6856
▁careful	-6857
▁conversation	-6858
▁fourth	-6859
▁artist	-6860
▁removal	-6861
itals	-6862
osh	-6863
▁5,	-6864
▁confirmed	-6865
bu	-6866
▁subsequent	-6867
▁thanks	-6868
▁Islam	-6869
-18	-6870
▁favorite	-6871
ealand	-6872
▁Super	-6873
▁Gr	-6874
▁sharp	-6875
▁biology	-6876
▁farming	-6877
forcement	-6878
▁Christmas	-6879
▁Grand	-6880
▁acute	-6881
▁Without	-6882
▁attempts	-6883
OL	-6884
▁abnormal	-6885
oln	-6886
▁moves	-6887
▁accuracy	-6888
df	-6889
▁owner	-6890
▁agents	-6891
▁dischar	-6892
39	-6893
▁gradually	-6894
▁(4	-6895
▁Pot	-6896
▁copper	-6897
▁peak	-6898
▁incred	-6899
▁messages	-6900
▁implemented	-6901
▁implications	-6902
▁escape	-6903
▁maintained	-6904
▁earthqu	-6905
▁slavery	-6906
▁discrimination	-6907
▁beings	-6908
▁signed	-6909
▁seconds	-6910
▁Den	-6911
▁rarely	-6912
▁proven	-6913
▁180	-6914
▁jump	-6915
▁Secret	-6916
▁excessive	-6917
▁desired	-6918
isdom	-6919
icate	-6920
▁essays	-6921
He	-6922
▁presents	-6923
▁weapons	-6924
▁bringing	-6925
pes	-6926
▁Er	-6927
aming	-6928
rowing	-6929
▁aims	-6930
▁opposed	-6931
▁Whether	-6932
▁islands	-6933
▁score	-6934
iological	-6935
▁32	-6936
▁circle	-6937
Al	-6938
health	-6939
▁stronger	-6940
▁Reading	-6941
cons	-6942
▁ov	-6943
▁Source	-6944
cyclop	-6945
▁compris	-6946
▁District	-6947
▁inn	-6948
▁irrit	-6949
▁phenomenon	-6950
▁carrying	-6951
▁Network	-6952
▁Jac	-6953
▁serving	-6954
ventions	-6955
▁effectiveness	-6956
ovascular	-6957
eness	-6958
▁absence	-6959
▁visitors	-6960
▁fairly	-6961
▁correl	-6962
▁universal	-6963
▁1960	-6964
▁Cast	-6965
heric	-6966
▁Perhaps	-6967
eren	-6968
▁branches	-6969
▁Desc	-6970
▁considerable	-6971
▁formula	-6972
▁writers	-6973
▁session	-6974
▁Angel	-6975
asty	-6976
▁essentially	-6977
▁principal	-6978
arsh	-6979
▁Iran	-6980
▁chlor	-6981
▁AM	-6982
▁combat	-6983
▁Tim	-6984
▁focuses	-6985
oir	-6986
▁varieties	-6987
▁passing	-6988
▁shapes	-6989
▁Sund	-6990
▁Coll	-6991
rox	-6992
▁id	-6993
▁radical	-6994
▁proved	-6995
▁mathematics	-6996
olving	-6997
ailed	-6998
▁Scientists	-6999
orders	-7000
IM	-7001
vard	-7002
▁claimed	-7003
istical	-7004
▁Administration	-7005
▁towns	-7006
▁heating	-7007
eut	-7008
▁infect	-7009
theless	-7010
▁informed	-7011
▁fung	-7012
▁Lo	-7013
▁judge	-7014
▁crew	-7015
▁prohib	-7016
HD	-7017
▁roads	-7018
▁Tre	-7019
raining	-7020
▁asthma	-7021
▁characterized	-7022
▁Heb	-7023
▁empt	-7024
peror	-7025
▁delivered	-7026
▁gut	-7027
▁Sir	-7028
▁newly	-7029
▁encouraged	-7030
rous	-7031
▁statistics	-7032
▁spectrum	-7033
heimer	-7034
▁planned	-7035
32	-7036
ommod	-7037
RA	-7038
10.	-7039
example	-7040
olesc	-7041
▁difficulties	-7042
emia	-7043
▁400	-7044
▁dealing	-7045
▁teams	-7046
▁AND	-7047
▁insert	-7048
▁disaster	-7049
▁targets	-7050
OC	-7051
▁overw	-7052
▁(198	-7053
▁sales	-7054
▁Swed	-7055
▁clar	-7056
ani	-7057
▁item	-7058
ruption	-7059
▁tut	-7060
▁evil	-7061
▁defense	-7062
▁2:	-7063
▁Resp	-7064
▁infant	-7065
▁pand	-7066
▁hormone	-7067
▁Centre	-7068
▁Jul	-7069
▁cleaning	-7070
▁outer	-7071
▁Director	-7072
▁microb	-7073
iana	-7074
IDS	-7075
▁interpretation	-7076
▁MD	-7077
▁Light	-7078
UT	-7079
▁imagine	-7080
▁knowing	-7081
▁cham	-7082
▁inher	-7083
▁equally	-7084
SS	-7085
aska	-7086
▁flower	-7087
▁roughly	-7088
▁turb	-7089
▁falls	-7090
outs	-7091
illa	-7092
incoln	-7093
eli	-7094
adder	-7095
▁Moon	-7096
▁Johnson	-7097
▁mineral	-7098
▁screening	-7099
mes	-7100
▁unusual	-7101
▁transact	-7102
▁treating	-7103
medi	-7104
▁lie	-7105
pling	-7106
▁concerning	-7107
oston	-7108
▁Cell	-7109
▁Safety	-7110
▁chest	-7111
▁nitrogen	-7112
▁racial	-7113
▁phosph	-7114
▁poem	-7115
▁comfortable	-7116
▁investigation	-7117
▁py	-7118
▁criminal	-7119
bles	-7120
▁breed	-7121
▁interpre	-7122
EE	-7123
▁microsc	-7124
▁lake	-7125
44	-7126
▁panel	-7127
▁Fire	-7128
▁learners	-7129
▁gained	-7130
▁laid	-7131
lishing	-7132
▁Pakistan	-7133
Ph	-7134
▁assume	-7135
▁encoun	-7136
▁Ident	-7137
▁Treatment	-7138
▁compound	-7139
ilation	-7140
▁reward	-7141
▁galax	-7142
▁gro	-7143
▁Oper	-7144
▁minute	-7145
▁lights	-7146
▁Having	-7147
▁examined	-7148
▁pestic	-7149
▁scientist	-7150
▁plane	-7151
▁Online	-7152
▁prominent	-7153
▁branch	-7154
▁exclus	-7155
sell	-7156
bec	-7157
haust	-7158
bar	-7159
▁deeper	-7160
▁temple	-7161
▁Jeff	-7162
▁Windows	-7163
▁remed	-7164
▁wine	-7165
▁marks	-7166
orea	-7167
uality	-7168
ali	-7169
▁serves	-7170
▁happening	-7171
▁cash	-7172
chen	-7173
▁biom	-7174
▁demands	-7175
▁decreased	-7176
▁healing	-7177
▁anywhere	-7178
▁experimental	-7179
▁substantial	-7180
▁cooking	-7181
▁bomb	-7182
▁elected	-7183
▁fishing	-7184
▁fed	-7185
▁sport	-7186
▁senior	-7187
▁Sar	-7188
abeth	-7189
▁finished	-7190
▁Hand	-7191
▁statements	-7192
▁plot	-7193
▁Engineering	-7194
rison	-7195
▁grain	-7196
▁variation	-7197
oga	-7198
▁modified	-7199
riend	-7200
ogether	-7201
▁structural	-7202
essions	-7203
▁consideration	-7204
ounce	-7205
onn	-7206
▁filter	-7207
▁printed	-7208
▁innovation	-7209
▁usual	-7210
iary	-7211
▁holes	-7212
▁dates	-7213
▁Neu	-7214
▁initially	-7215
▁Nov	-7216
▁trigger	-7217
rav	-7218
▁decor	-7219
ano	-7220
▁Again	-7221
▁exception	-7222
Ar	-7223
▁ordered	-7224
▁Dev	-7225
▁flour	-7226
▁compens	-7227
▁stead	-7228
ipedia	-7229
▁Mah	-7230
▁fest	-7231
▁satisf	-7232
▁Remember	-7233
▁adm	-7234
▁guard	-7235
ima	-7236
▁eliminate	-7237
▁rose	-7238
▁detected	-7239
▁defend	-7240
▁slaves	-7241
▁tropical	-7242
▁manifest	-7243
▁Tom	-7244
▁Imp	-7245
tles	-7246
▁Ur	-7247
▁Columbia	-7248
▁hazard	-7249
▁65	-7250
▁observe	-7251
▁physician	-7252
▁terror	-7253
▁Dom	-7254
▁scar	-7255
▁spin	-7256
▁Organization	-7257
amics	-7258
▁suffered	-7259
▁diameter	-7260
▁bigger	-7261
▁trends	-7262
▁Liter	-7263
▁(5	-7264
ricts	-7265
▁slave	-7266
▁faced	-7267
ograp	-7268
▁Eliz	-7269
▁brush	-7270
▁assigned	-7271
▁Sand	-7272
▁threats	-7273
▁isolated	-7274
▁Pur	-7275
coming	-7276
▁corner	-7277
▁mg	-7278
alm	-7279
▁printing	-7280
:10.	-7281
▁television	-7282
▁neighborhood	-7283
▁adds	-7284
▁unw	-7285
▁regulation	-7286
▁Minister	-7287
▁Coast	-7288
ontal	-7289
otype	-7290
▁soul	-7291
▁literacy	-7292
77	-7293
▁remind	-7294
▁errors	-7295
ostic	-7296
▁Contin	-7297
ptions	-7298
icted	-7299
▁kilomet	-7300
ueen	-7301
▁intent	-7302
AA	-7303
▁maybe	-7304
▁editor	-7305
▁evolved	-7306
An	-7307
CE	-7308
class	-7309
▁hosp	-7310
ultane	-7311
▁intensity	-7312
ishop	-7313
asant	-7314
▁conqu	-7315
▁traditions	-7316
▁earliest	-7317
▁Wall	-7318
▁recover	-7319
▁sus	-7320
▁Supreme	-7321
▁driven	-7322
▁(20	-7323
▁warning	-7324
▁videos	-7325
▁identification	-7326
▁conj	-7327
▁complications	-7328
▁alter	-7329
including	-7330
▁Prevention	-7331
▁Business	-7332
▁Cross	-7333
itarian	-7334
▁caught	-7335
▁dynamic	-7336
▁van	-7337
oured	-7338
elfare	-7339
▁config	-7340
gence	-7341
▁bacterial	-7342
igate	-7343
▁Init	-7344
▁accommod	-7345
▁Parent	-7346
igue	-7347
vania	-7348
mm	-7349
onal	-7350
▁granted	-7351
▁split	-7352
ioxid	-7353
▁Christians	-7354
ette	-7355
cient	-7356
▁mold	-7357
▁provider	-7358
▁Math	-7359
sm	-7360
icing	-7361
ested	-7362
▁Ol	-7363
▁subt	-7364
▁Lincoln	-7365
fts	-7366
▁correctly	-7367
▁amazing	-7368
semb	-7369
atial	-7370
▁union	-7371
▁consume	-7372
riz	-7373
ogenic	-7374
▁Assess	-7375
▁heavily	-7376
▁stability	-7377
▁accompan	-7378
▁ye	-7379
otal	-7380
ustain	-7381
iat	-7382
▁measuring	-7383
American	-7384
unicip	-7385
▁reveal	-7386
▁pit	-7387
oric	-7388
atively	-7389
▁inspired	-7390
▁cab	-7391
▁Polit	-7392
▁schedule	-7393
▁Rh	-7394
▁strengthen	-7395
▁listening	-7396
▁Ut	-7397
▁Following	-7398
▁orbit	-7399
effect	-7400
▁disrupt	-7401
▁observation	-7402
▁Person	-7403
▁sitting	-7404
▁Alz	-7405
▁channel	-7406
▁hence	-7407
▁antibiotics	-7408
▁cort	-7409
▁concluded	-7410
▁aged	-7411
▁finds	-7412
▁wheat	-7413
▁stores	-7414
▁Boston	-7415
▁Lead	-7416
▁array	-7417
rance	-7418
ude	-7419
▁stuff	-7420
▁Scotland	-7421
▁rab	-7422
▁grid	-7423
▁Edward	-7424
syl	-7425
isco	-7426
▁stations	-7427
▁cattle	-7428
iture	-7429
▁Father	-7430
▁Due	-7431
▁Mot	-7432
▁Star	-7433
▁Heart	-7434
▁Ask	-7435
▁vocabulary	-7436
▁Pen	-7437
ucky	-7438
produ	-7439
▁worship	-7440
▁writes	-7441
ieval	-7442
▁Based	-7443
▁enorm	-7444
▁Bul	-7445
RC	-7446
cking	-7447
▁1950	-7448
▁engineers	-7449
uten	-7450
▁viewed	-7451
▁suscept	-7452
▁les	-7453
▁Lee	-7454
▁acquired	-7455
▁overcome	-7456
▁Scholar	-7457
▁Incre	-7458
etary	-7459
▁Ohio	-7460
ura	-7461
▁flows	-7462
▁Far	-7463
▁processed	-7464
▁contribution	-7465
▁worst	-7466
▁Hospital	-7467
▁CP	-7468
▁brows	-7469
▁TO	-7470
▁paragraph	-7471
▁drought	-7472
raq	-7473
▁pros	-7474
▁windows	-7475
▁wheel	-7476
rays	-7477
▁concentrations	-7478
▁reaching	-7479
▁rac	-7480
▁objectives	-7481
▁Indeed	-7482
va	-7483
▁Ins	-7484
▁phrase	-7485
▁Division	-7486
opic	-7487
brid	-7488
ba	-7489
▁occurring	-7490
▁mountains	-7491
inf	-7492
har	-7493
▁vitamins	-7494
▁indigenous	-7495
▁perm	-7496
▁Ly	-7497
▁player	-7498
▁lymph	-7499
▁pin	-7500
▁Avoid	-7501
▁agent	-7502
▁Cambridge	-7503
▁narrative	-7504
▁translation	-7505
▁identifying	-7506
▁conference	-7507
▁decay	-7508
▁uncom	-7509
▁imaging	-7510
▁coverage	-7511
door	-7512
▁ceremon	-7513
▁emphasis	-7514
▁dietary	-7515
▁athlet	-7516
▁conce	-7517
orted	-7518
▁literary	-7519
▁sunlight	-7520
mers	-7521
▁uniform	-7522
▁Hebrew	-7523
▁sup	-7524
▁protecting	-7525
▁Protection	-7526
▁musical	-7527
▁driver	-7528
▁alph	-7529
46	-7530
▁Unlike	-7531
night	-7532
▁extend	-7533
▁directed	-7534
HA	-7535
▁fatty	-7536
▁autism	-7537
▁Corn	-7538
▁Being	-7539
▁adverse	-7540
yer	-7541
▁Survey	-7542
▁mir	-7543
oids	-7544
▁functioning	-7545
mod	-7546
onym	-7547
▁commitment	-7548
▁duty	-7549
▁laser	-7550
▁heads	-7551
▁Obs	-7552
▁grows	-7553
▁Conservation	-7554
▁giant	-7555
▁perception	-7556
itual	-7557
▁personality	-7558
plete	-7559
▁stake	-7560
▁superior	-7561
▁abilities	-7562
▁Did	-7563
otherapy	-7564
▁Way	-7565
▁client	-7566
just	-7567
▁moderate	-7568
▁Alzheimer	-7569
▁providers	-7570
▁automatically	-7571
▁inhabit	-7572
▁strain	-7573
▁experiencing	-7574
soft	-7575
▁coc	-7576
▁quantity	-7577
▁IT	-7578
isted	-7579
angered	-7580
▁Road	-7581
▁epis	-7582
spect	-7583
▁Hor	-7584
▁meals	-7585
▁DO	-7586
▁honey	-7587
▁exhaust	-7588
▁oldest	-7589
▁48	-7590
▁bees	-7591
century	-7592
▁resid	-7593
31	-7594
▁authent	-7595
enger	-7596
▁asc	-7597
▁acres	-7598
▁Books	-7599
▁contributed	-7600
ographical	-7601
itory	-7602
HS	-7603
sylvania	-7604
from	-7605
▁Facebook	-7606
gien	-7607
▁vel	-7608
▁Play	-7609
▁covering	-7610
▁hardware	-7611
▁Force	-7612
acent	-7613
▁peoples	-7614
▁innovative	-7615
writ	-7616
▁mixture	-7617
▁6,	-7618
▁ampl	-7619
▁affecting	-7620
oli	-7621
▁disabilities	-7622
▁protective	-7623
athered	-7624
ptom	-7625
▁calling	-7626
▁programme	-7627
▁Spring	-7628
holders	-7629
▁advent	-7630
▁tables	-7631
▁representation	-7632
▁farms	-7633
▁thereby	-7634
▁colonial	-7635
adel	-7636
▁settlement	-7637
▁Michigan	-7638
ailable	-7639
▁argue	-7640
▁sensors	-7641
▁lip	-7642
▁Wil	-7643
▁cooling	-7644
▁gases	-7645
▁Iss	-7646
▁38	-7647
rection	-7648
ansas	-7649
▁nice	-7650
76	-7651
▁taxes	-7652
▁conserv	-7653
▁forming	-7654
▁Analysis	-7655
▁Battle	-7656
▁2004	-7657
▁weakness	-7658
▁rational	-7659
▁regardless	-7660
ymes	-7661
▁tumor	-7662
▁regarded	-7663
▁Policy	-7664
▁robot	-7665
▁parameters	-7666
▁Head	-7667
ercury	-7668
▁seat	-7669
▁Georgia	-7670
▁bag	-7671
New	-7672
▁quiet	-7673
▁hidden	-7674
▁polar	-7675
▁finger	-7676
ruit	-7677
▁thermal	-7678
▁enables	-7679
▁Card	-7680
▁democracy	-7681
▁mosquit	-7682
▁preced	-7683
▁sensitivity	-7684
angle	-7685
MP	-7686
▁falling	-7687
▁addressed	-7688
▁coron	-7689
▁separated	-7690
ogs	-7691
▁killing	-7692
▁relie	-7693
▁quarter	-7694
▁vaccines	-7695
▁tob	-7696
▁deficiency	-7697
▁supplements	-7698
▁planting	-7699
▁reporting	-7700
▁surge	-7701
▁Elizabeth	-7702
▁Dutch	-7703
▁inequ	-7704
▁profit	-7705
▁lungs	-7706
quar	-7707
acts	-7708
▁ordinary	-7709
esh	-7710
lines	-7711
▁lens	-7712
atal	-7713
hea	-7714
usalem	-7715
ENT	-7716
▁Small	-7717
igare	-7718
▁girl	-7719
▁overwhel	-7720
▁availability	-7721
▁SS	-7722
▁counsel	-7723
-20	-7724
▁AL	-7725
rical	-7726
▁characteristic	-7727
▁productivity	-7728
▁mathematical	-7729
quir	-7730
rolled	-7731
▁simultane	-7732
▁aimed	-7733
▁appointed	-7734
print	-7735
▁descript	-7736
▁ran	-7737
icular	-7738
▁disability	-7739
▁manufacturers	-7740
▁Impro	-7741
▁carbohyd	-7742
htt	-7743
ema	-7744
▁herb	-7745
▁chemistry	-7746
▁Thanks	-7747
▁summary	-7748
iments	-7749
apor	-7750
Cl	-7751
▁Later	-7752
▁Pennsylvania	-7753
▁(1)	-7754
▁rect	-7755
▁vertical	-7756
▁desert	-7757
▁educators	-7758
▁calculated	-7759
▁visited	-7760
▁shoot	-7761
antly	-7762
▁Iraq	-7763
ao	-7764
▁Islamic	-7765
▁neutral	-7766
▁rhyth	-7767
▁assets	-7768
▁dress	-7769
▁insight	-7770
▁elder	-7771
▁mine	-7772
zer	-7773
▁scores	-7774
▁researcher	-7775
▁abstract	-7776
▁achievement	-7777
▁cure	-7778
▁versions	-7779
▁comprom	-7780
▁smell	-7781
▁Lim	-7782
▁interventions	-7783
▁alive	-7784
▁consumed	-7785
▁stones	-7786
▁preserve	-7787
BT	-7788
▁Help	-7789
▁Building	-7790
▁interactive	-7791
▁pandemic	-7792
uset	-7793
hus	-7794
▁cotton	-7795
▁officer	-7796
▁tobacco	-7797
▁buried	-7798
▁cardiovascular	-7799
▁Him	-7800
▁Mach	-7801
▁Mic	-7802
alities	-7803
▁Wal	-7804
▁pla	-7805
▁Spirit	-7806
▁batteries	-7807
▁DC	-7808
▁Invest	-7809
▁Little	-7810
irth	-7811
▁argued	-7812
▁tor	-7813
ulpt	-7814
▁Writing	-7815
▁advis	-7816
▁Model	-7817
▁illegal	-7818
▁losses	-7819
▁Cr	-7820
▁steam	-7821
▁psychology	-7822
▁Solar	-7823
▁pH	-7824
▁introduce	-7825
irms	-7826
real	-7827
55	-7828
▁sizes	-7829
una	-7830
▁1)	-7831
advant	-7832
ricted	-7833
neys	-7834
▁technological	-7835
▁substit	-7836
▁ensuring	-7837
▁managing	-7838
▁pointed	-7839
▁analyze	-7840
▁updated	-7841
▁heritage	-7842
▁migration	-7843
archy	-7844
▁geomet	-7845
▁Page	-7846
Un	-7847
allow	-7848
▁panels	-7849
▁urine	-7850
▁orders	-7851
▁stopped	-7852
▁Blue	-7853
▁Gar	-7854
▁34	-7855
sen	-7856
▁arguments	-7857
achuset	-7858
▁chances	-7859
▁Drug	-7860
▁exciting	-7861
▁Jerusalem	-7862
▁cas	-7863
▁tong	-7864
aws	-7865
achusetts	-7866
▁humanity	-7867
▁customer	-7868
▁nutrient	-7869
erty	-7870
▁charged	-7871
▁ven	-7872
ivest	-7873
▁opposition	-7874
▁believes	-7875
▁expanded	-7876
▁sentences	-7877
adow	-7878
▁interface	-7879
▁flexible	-7880
▁gast	-7881
urches	-7882
▁2019	-7883
▁logic	-7884
▁dism	-7885
▁nom	-7886
▁linear	-7887
▁Lin	-7888
▁bless	-7889
eting	-7890
▁exploration	-7891
▁Max	-7892
Sp	-7893
▁Parliament	-7894
azon	-7895
▁myst	-7896
TP	-7897
▁plain	-7898
▁societies	-7899
▁attitude	-7900
▁initiative	-7901
▁dimens	-7902
▁Circ	-7903
▁antioxid	-7904
dr	-7905
▁cord	-7906
▁proceed	-7907
▁poetry	-7908
▁flash	-7909
▁button	-7910
▁fra	-7911
▁propag	-7912
▁Digital	-7913
▁CH	-7914
▁Colorado	-7915
▁behavioral	-7916
ependent	-7917
▁variations	-7918
iger	-7919
▁wisdom	-7920
▁Section	-7921
▁Crit	-7922
▁Alexander	-7923
▁Hawai	-7924
rix	-7925
▁equation	-7926
▁engaging	-7927
How	-7928
anger	-7929
▁Point	-7930
▁cyber	-7931
▁royal	-7932
▁dance	-7933
▁1,000	-7934
▁oxid	-7935
▁lock	-7936
▁tap	-7937
▁compost	-7938
iva	-7939
▁Bang	-7940
berry	-7941
▁chap	-7942
▁trauma	-7943
▁fellow	-7944
▁EPA	-7945
▁Cub	-7946
forest	-7947
▁harder	-7948
▁performing	-7949
▁dim	-7950
▁exhibit	-7951
▁tick	-7952
def	-7953
mann	-7954
pled	-7955
▁ton	-7956
▁computing	-7957
▁membrane	-7958
-12	-7959
▁tribes	-7960
▁fuels	-7961
▁clock	-7962
▁Palest	-7963
▁adolesc	-7964
▁emerging	-7965
▁improvements	-7966
NS	-7967
▁focusing	-7968
CP	-7969
▁elsewhere	-7970
aren	-7971
▁planets	-7972
▁2003	-7973
▁Systems	-7974
▁ritual	-7975
DS	-7976
Med	-7977
ecess	-7978
▁resil	-7979
▁mothers	-7980
▁embra	-7981
▁fought	-7982
▁physically	-7983
▁permission	-7984
▁directions	-7985
▁rh	-7986
▁temporary	-7987
▁boat	-7988
▁Harvard	-7989
olk	-7990
▁cancers	-7991
html	-7992
▁sensor	-7993
reated	-7994
79	-7995
asts	-7996
▁spoken	-7997
ami	-7998
▁ease	-7999
▁Justice	-8000
▁boundaries	-8001
uther	-8002
▁sched	-8003
▁Pass	-8004
▁irrig	-8005
▁scope	-8006
▁dramatic	-8007
▁grains	-8008
▁lists	-8009
▁Massachusetts	-8010
▁reasonable	-8011
amine	-8012
.).	-8013
▁keeps	-8014
▁dominant	-8015
fulness	-8016
▁executive	-8017
lete	-8018
▁waiting	-8019
bean	-8020
▁Process	-8021
▁Often	-8022
▁communications	-8023
▁Sunday	-8024
▁Philipp	-8025
▁owned	-8026
▁manager	-8027
▁Economic	-8028
opher	-8029
▁transmit	-8030
▁Stan	-8031
▁fats	-8032
▁entertain	-8033
▁duration	-8034
▁Still	-8035
▁exped	-8036
▁classified	-8037
▁Gener	-8038
hire	-8039
▁threatened	-8040
▁creatures	-8041
▁Behav	-8042
ivestock	-8043
▁emotion	-8044
▁evening	-8045
amination	-8046
▁recycling	-8047
uum	-8048
ugg	-8049
omer	-8050
ipe	-8051
rize	-8052
▁7,	-8053
▁lowest	-8054
▁expectations	-8055
▁consciousness	-8056
▁spray	-8057
▁faces	-8058
▁hunting	-8059
▁Arctic	-8060
▁metals	-8061
▁Navy	-8062
▁NO	-8063
▁marketing	-8064
ptic	-8065
oul	-8066
▁investigate	-8067
▁fing	-8068
zo	-8069
▁websites	-8070
▁sevent	-8071
▁Level	-8072
▁Physical	-8073
▁equality	-8074
▁spr	-8075
▁vegetation	-8076
▁asp	-8077
▁Within	-8078
▁reverse	-8079
EF	-8080
▁settled	-8081
▁33	-8082
▁labour	-8083
Google	-8084
▁Mur	-8085
▁Christianity	-8086
uan	-8087
endment	-8088
▁flying	-8089
erman	-8090
▁ecological	-8091
▁Agriculture	-8092
▁attach	-8093
ician	-8094
▁drivers	-8095
▁establishment	-8096
▁tempor	-8097
▁wonderful	-8098
49	-8099
asy	-8100
▁jur	-8101
▁remarkable	-8102
▁ethical	-8103
rat	-8104
eor	-8105
▁Confed	-8106
ipher	-8107
▁quantum	-8108
▁10,	-8109
66	-8110
▁incident	-8111
▁capabilities	-8112
▁classical	-8113
▁preferred	-8114
ourse	-8115
MA	-8116
▁extension	-8117
▁courts	-8118
▁assumed	-8119
▁AR	-8120
▁Right	-8121
▁eru	-8122
▁tip	-8123
elve	-8124
▁integration	-8125
asma	-8126
kind	-8127
amps	-8128
▁audio	-8129
▁Ha	-8130
▁Saint	-8131
▁watching	-8132
▁degrad	-8133
▁deeply	-8134
▁hall	-8135
▁infants	-8136
▁styles	-8137
▁Hum	-8138
▁determining	-8139
▁evident	-8140
▁parad	-8141
iations	-8142
lights	-8143
▁container	-8144
▁Ok	-8145
▁promoting	-8146
▁priority	-8147
▁hypothesis	-8148
▁contributions	-8149
▁perceived	-8150
▁streets	-8151
▁Islands	-8152
▁sodium	-8153
▁Laboratory	-8154
▁fatigue	-8155
▁movie	-8156
cyclopedia	-8157
▁enormous	-8158
Ex	-8159
sor	-8160
lu	-8161
▁wider	-8162
▁telling	-8163
▁corresponding	-8164
For	-8165
▁cann	-8166
And	-8167
▁gent	-8168
▁fisher	-8169
▁Pu	-8170
▁Wildlife	-8171
ailing	-8172
▁Cost	-8173
ket	-8174
▁households	-8175
▁(2)	-8176
▁AC	-8177
▁conclus	-8178
▁8,	-8179
▁viral	-8180
▁removing	-8181
▁ecosystems	-8182
▁committee	-8183
utation	-8184
▁clothes	-8185
▁Gulf	-8186
▁colonies	-8187
▁37	-8188
▁strike	-8189
▁safely	-8190
▁tens	-8191
hemistry	-8192
▁versus	-8193
agen	-8194
idal	-8195
agan	-8196
▁lighting	-8197
▁saved	-8198
▁Put	-8199
▁Gall	-8200
eries	-8201
▁definitely	-8202
▁Between	-8203
▁Fil	-8204
▁hormones	-8205
▁universities	-8206
▁applying	-8207
▁celebrated	-8208
▁dies	-8209
▁Copyright	-8210
▁SP	-8211
▁Ice	-8212
edu	-8213
▁entering	-8214
▁Given	-8215
▁kingdom	-8216
ranean	-8217
▁fires	-8218
▁feels	-8219
▁Li	-8220
ogy	-8221
anted	-8222
▁districts	-8223
▁interior	-8224
▁attribut	-8225
▁genome	-8226
▁ranging	-8227
▁RNA	-8228
borne	-8229
▁Mond	-8230
▁beat	-8231
ols	-8232
▁minds	-8233
▁fo	-8234
▁Frid	-8235
▁2)	-8236
▁trick	-8237
▁dil	-8238
▁2001	-8239
▁Francisco	-8240
mia	-8241
▁empty	-8242
▁devast	-8243
iop	-8244
▁Standard	-8245
▁MA	-8246
▁Place	-8247
jo	-8248
▁thread	-8249
mented	-8250
thon	-8251
uits	-8252
▁differently	-8253
aints	-8254
▁dense	-8255
ati	-8256
▁promise	-8257
▁appeal	-8258
▁Fred	-8259
nut	-8260
▁manual	-8261
▁shed	-8262
▁reign	-8263
▁fur	-8264
▁gly	-8265
▁occas	-8266
▁orb	-8267
olt	-8268
istant	-8269
▁marg	-8270
asm	-8271
ouds	-8272
▁CE	-8273
▁requirement	-8274
▁wearing	-8275
▁transc	-8276
▁Ram	-8277
▁fet	-8278
▁converted	-8279
olves	-8280
▁Farm	-8281
▁assembly	-8282
▁province	-8283
▁continuing	-8284
▁verb	-8285
▁gravity	-8286
▁Ott	-8287
▁acting	-8288
▁Hence	-8289
opl	-8290
▁heaven	-8291
86	-8292
enced	-8293
▁chair	-8294
▁profile	-8295
▁biodiversity	-8296
▁explicit	-8297
▁1930	-8298
▁tack	-8299
▁differ	-8300
▁Symptoms	-8301
▁Understanding	-8302
▁resc	-8303
▁55	-8304
▁violent	-8305
bell	-8306
▁buff	-8307
▁Andrew	-8308
▁Code	-8309
▁grounds	-8310
▁Los	-8311
▁Capt	-8312
▁Conference	-8313
▁Proble	-8314
▁libr	-8315
▁Ba	-8316
▁Diet	-8317
▁targeted	-8318
▁joints	-8319
▁lifetime	-8320
▁Major	-8321
▁guess	-8322
▁Examples	-8323
▁cough	-8324
unc	-8325
▁shaped	-8326
▁CA	-8327
▁newspaper	-8328
▁dairy	-8329
elescope	-8330
erts	-8331
▁limitations	-8332
▁3:	-8333
▁transmitted	-8334
wan	-8335
ologically	-8336
▁pupils	-8337
gon	-8338
▁convey	-8339
▁wouldn	-8340
encing	-8341
OM	-8342
raham	-8343
▁Daniel	-8344
▁losing	-8345
▁engines	-8346
tw	-8347
neum	-8348
▁ham	-8349
▁prevalence	-8350
urning	-8351
box	-8352
▁dating	-8353
▁painful	-8354
▁entit	-8355
▁Bal	-8356
mentation	-8357
▁craft	-8358
words	-8359
▁sustainability	-8360
▁Pain	-8361
ila	-8362
thod	-8363
▁95	-8364
▁pilot	-8365
gener	-8366
▁emerged	-8367
▁mature	-8368
unct	-8369
▁sculpt	-8370
▁passion	-8371
▁existed	-8372
▁Introduction	-8373
▁prey	-8374
▁convert	-8375
▁Testament	-8376
books	-8377
▁medicines	-8378
▁aging	-8379
rh	-8380
▁Indones	-8381
▁accompanied	-8382
47	-8383
▁weigh	-8384
----	-8385
▁accord	-8386
▁saving	-8387
▁mouse	-8388
▁Historical	-8389
▁Norm	-8390
▁hat	-8391
▁atoms	-8392
▁assert	-8393
oto	-8394
▁anticip	-8395
▁cul	-8396
▁balanced	-8397
▁adapted	-8398
▁Interest	-8399
▁raising	-8400
lymp	-8401
lock	-8402
▁facilitate	-8403
▁loose	-8404
▁symbols	-8405
Gen	-8406
inois	-8407
aka	-8408
▁Similarly	-8409
▁references	-8410
endar	-8411
▁drinks	-8412
▁barriers	-8413
▁Nob	-8414
When	-8415
▁Mid	-8416
OD	-8417
▁engagement	-8418
▁addiction	-8419
▁bare	-8420
▁sulf	-8421
▁trem	-8422
CR	-8423
▁nutritional	-8424
▁handling	-8425
ackson	-8426
esium	-8427
flamm	-8428
▁traits	-8429
▁Emer	-8430
▁Music	-8431
▁expertise	-8432
Sh	-8433
▁Blood	-8434
zyme	-8435
vin	-8436
▁Short	-8437
▁chose	-8438
▁pill	-8439
▁stood	-8440
▁clients	-8441
▁digestive	-8442
orig	-8443
▁begun	-8444
▁Much	-8445
▁integr	-8446
▁Hard	-8447
ashes	-8448
oves	-8449
▁tone	-8450
▁Material	-8451
adelph	-8452
▁thesis	-8453
eping	-8454
▁grades	-8455
▁embry	-8456
▁withdraw	-8457
usive	-8458
thew	-8459
▁Watch	-8460
85	-8461
RNA	-8462
▁complexity	-8463
▁spots	-8464
▁Offic	-8465
▁sad	-8466
▁Support	-8467
olume	-8468
earch	-8469
▁unn	-8470
▁Hindu	-8471
ocolate	-8472
▁thyroid	-8473
▁origins	-8474
foot	-8475
▁peer	-8476
cin	-8477
▁recre	-8478
▁probability	-8479
▁actively	-8480
▁Arts	-8481
▁Portug	-8482
operative	-8483
▁cooperation	-8484
▁welfare	-8485
▁obst	-8486
▁realized	-8487
▁apparently	-8488
▁virtually	-8489
▁intention	-8490
▁attitudes	-8491
▁cow	-8492
oons	-8493
▁victory	-8494
chain	-8495
uscript	-8496
▁Fig	-8497
▁notion	-8498
▁Ast	-8499
agnetic	-8500
▁holiday	-8501
▁beans	-8502
sex	-8503
▁sessions	-8504
▁club	-8505
▁solving	-8506
ietnam	-8507
▁hospitals	-8508
obile	-8509
▁Muslims	-8510
▁discussions	-8511
disc	-8512
▁Self	-8513
▁involvement	-8514
▁Town	-8515
section	-8516
▁acknowled	-8517
▁Squ	-8518
▁friendly	-8519
▁meaningful	-8520
▁gathered	-8521
raine	-8522
roud	-8523
▁till	-8524
▁precip	-8525
▁habitats	-8526
▁Wikipedia	-8527
▁Should	-8528
▁soils	-8529
mentia	-8530
▁replacement	-8531
▁readily	-8532
They	-8533
▁ion	-8534
▁Lew	-8535
▁ID	-8536
▁Rail	-8537
bel	-8538
▁juice	-8539
ilson	-8540
▁hygien	-8541
▁Bureau	-8542
▁circulation	-8543
▁persu	-8544
▁wars	-8545
CH	-8546
▁tact	-8547
▁Media	-8548
▁Occ	-8549
▁spinal	-8550
▁municip	-8551
eath	-8552
▁span	-8553
▁controlling	-8554
▁disadvant	-8555
▁absorb	-8556
▁shore	-8557
▁Chief	-8558
▁haven	-8559
▁myself	-8560
▁occupied	-8561
▁scheme	-8562
made	-8563
▁Call	-8564
▁personnel	-8565
ifice	-8566
zymes	-8567
▁unlikely	-8568
▁resistant	-8569
▁seriously	-8570
▁diarr	-8571
▁purchased	-8572
ensed	-8573
▁gum	-8574
▁pollut	-8575
▁opinions	-8576
▁2012.	-8577
▁classic	-8578
IF	-8579
▁pel	-8580
▁addresses	-8581
▁Different	-8582
▁Secretary	-8583
▁reaches	-8584
▁hal	-8585
ceans	-8586
▁planted	-8587
adelphia	-8588
izers	-8589
▁(6	-8590
▁Greece	-8591
▁graduate	-8592
▁Move	-8593
▁strategic	-8594
▁cheap	-8595
▁pairs	-8596
▁breaking	-8597
▁outbreak	-8598
▁choosing	-8599
▁restaur	-8600
▁contents	-8601
▁Poly	-8602
▁auto	-8603
▁associate	-8604
▁anger	-8605
▁restore	-8606
▁armed	-8607
▁Friday	-8608
▁returns	-8609
▁photographs	-8610
▁Hyd	-8611
▁collective	-8612
▁Colon	-8613
ocity	-8614
▁tu	-8615
ilst	-8616
▁shorter	-8617
▁Dam	-8618
▁aggressive	-8619
▁Dictionary	-8620
▁literally	-8621
▁suit	-8622
aware	-8623
specific	-8624
▁prime	-8625
▁insights	-8626
urrent	-8627
assium	-8628
itting	-8629
EG	-8630
friend	-8631
▁funded	-8632
play	-8633
▁uncle	-8634
▁McC	-8635
▁spoke	-8636
▁noticed	-8637
▁ears	-8638
▁Olymp	-8639
▁Amazon	-8640
▁tension	-8641
▁qualities	-8642
▁Creek	-8643
▁varies	-8644
▁pione	-8645
▁Const	-8646
▁scenario	-8647
plate	-8648
▁workplace	-8649
▁develops	-8650
▁bleeding	-8651
▁varied	-8652
▁Mexican	-8653
▁Trust	-8654
▁currency	-8655
▁gods	-8656
▁representative	-8657
▁default	-8658
▁Biology	-8659
eutic	-8660
umer	-8661
uity	-8662
▁chromos	-8663
▁kg	-8664
unning	-8665
▁2002	-8666
▁powder	-8667
▁Image	-8668
▁tends	-8669
▁sees	-8670
▁soph	-8671
oded	-8672
▁Field	-8673
▁songs	-8674
▁Moses	-8675
▁specialized	-8676
▁globe	-8677
▁cub	-8678
▁immigrants	-8679
▁dipl	-8680
▁reveals	-8681
requ	-8682
▁Temple	-8683
▁neurons	-8684
▁couldn	-8685
▁recording	-8686
▁Illinois	-8687
▁dropped	-8688
awa	-8689
▁Mess	-8690
▁enthus	-8691
cule	-8692
▁maxim	-8693
▁annually	-8694
fast	-8695
▁predicted	-8696
▁specified	-8697
▁crown	-8698
▁sciences	-8699
▁paying	-8700
▁displayed	-8701
▁influences	-8702
▁12.	-8703
akespe	-8704
world	-8705
orean	-8706
▁practition	-8707
▁conversion	-8708
▁dict	-8709
ais	-8710
▁joy	-8711
▁optimal	-8712
▁analyzed	-8713
▁forecast	-8714
icts	-8715
▁livestock	-8716
▁wat	-8717
▁Select	-8718
▁constra	-8719
▁Aff	-8720
▁Jacob	-8721
▁frust	-8722
▁celebrate	-8723
TH	-8724
▁breaks	-8725
▁vegetable	-8726
imp	-8727
▁11,	-8728
▁Rest	-8729
ois	-8730
▁alarm	-8731
▁trace	-8732
▁Third	-8733
▁basically	-8734
▁deploy	-8735
swe	-8736
▁tab	-8737
plo	-8738
▁pets	-8739
▁accurately	-8740
▁ash	-8741
▁Best	-8742
avirus	-8743
▁Near	-8744
▁calculate	-8745
▁developments	-8746
rip	-8747
vation	-8748
akespeare	-8749
▁Prim	-8750
▁overview	-8751
aya	-8752
mond	-8753
▁coat	-8754
▁ho	-8755
▁Clean	-8756
▁reflected	-8757
▁Gre	-8758
▁sale	-8759
ogens	-8760
▁orange	-8761
▁happiness	-8762
bury	-8763
▁divine	-8764
▁Ide	-8765
▁1920	-8766
▁gif	-8767
awn	-8768
▁sacred	-8769
▁2011.	-8770
outheast	-8771
sembly	-8772
▁Print	-8773
▁penet	-8774
▁Abraham	-8775
▁Ell	-8776
▁representing	-8777
▁Jackson	-8778
▁profound	-8779
▁logical	-8780
▁savings	-8781
▁Century	-8782
▁scat	-8783
▁prox	-8784
▁spacecraft	-8785
▁Microsoft	-8786
▁colony	-8787
▁preparing	-8788
▁clay	-8789
▁Ministry	-8790
▁privile	-8791
▁incidence	-8792
▁suicide	-8793
▁arise	-8794
▁Nutrition	-8795
▁metabolism	-8796
▁restoration	-8797
▁gardens	-8798
EA	-8799
▁2010.	-8800
ifier	-8801
ifer	-8802
▁pace	-8803
▁everywhere	-8804
▁refused	-8805
▁prescribed	-8806
▁indirect	-8807
▁competitive	-8808
dd	-8809
▁crypt	-8810
▁tongue	-8811
irable	-8812
▁glac	-8813
▁Sustain	-8814
rait	-8815
▁caps	-8816
▁copyright	-8817
▁barrier	-8818
flu	-8819
▁preserved	-8820
▁exploring	-8821
▁Wed	-8822
▁sug	-8823
▁strange	-8824
▁surgical	-8825
▁assignment	-8826
through	-8827
▁evolutionary	-8828
▁identical	-8829
▁Fish	-8830
▁Week	-8831
▁burden	-8832
▁judgment	-8833
izz	-8834
issipp	-8835
▁throat	-8836
atus	-8837
▁11.	-8838
▁Local	-8839
▁posts	-8840
▁minimal	-8841
iterranean	-8842
▁Working	-8843
▁Computer	-8844
▁Sus	-8845
▁oste	-8846
▁specialist	-8847
▁Obama	-8848
urable	-8849
claim	-8850
▁transferred	-8851
▁sister	-8852
▁Son	-8853
▁productive	-8854
mega	-8855
shaped	-8856
But	-8857
88	-8858
▁chicken	-8859
▁severity	-8860
▁Neg	-8861
▁revers	-8862
▁quantities	-8863
onents	-8864
▁Essay	-8865
▁Import	-8866
▁mask	-8867
▁transplant	-8868
▁bias	-8869
▁creativity	-8870
▁Gh	-8871
icking	-8872
▁impair	-8873
▁Philadelphia	-8874
▁themes	-8875
▁motivation	-8876
▁ol	-8877
▁discipline	-8878
▁tomat	-8879
▁churches	-8880
▁gift	-8881
▁Uk	-8882
ometer	-8883
▁spatial	-8884
rue	-8885
▁permit	-8886
▁Rather	-8887
▁2013.	-8888
▁registered	-8889
BM	-8890
▁managers	-8891
▁embed	-8892
▁possibilities	-8893
▁advances	-8894
▁Master	-8895
aternal	-8896
▁179	-8897
▁sheep	-8898
▁illnesses	-8899
▁Ancient	-8900
▁sons	-8901
▁wise	-8902
")	-8903
▁rod	-8904
▁candidate	-8905
apes	-8906
▁prayer	-8907
issance	-8908
▁Connect	-8909
▁optical	-8910
▁Paper	-8911
uis	-8912
ught	-8913
▁curve	-8914
▁accomplish	-8915
apped	-8916
iner	-8917
▁analyses	-8918
cut	-8919
▁incent	-8920
▁ultimate	-8921
▁Convention	-8922
imm	-8923
▁12,	-8924
▁Mind	-8925
▁theoretical	-8926
bered	-8927
▁oils	-8928
▁wash	-8929
BA	-8930
rypt	-8931
▁wing	-8932
▁Commons	-8933
▁Heritage	-8934
▁39	-8935
vi	-8936
▁worker	-8937
mble	-8938
▁9,	-8939
Sc	-8940
▁Practice	-8941
reprene	-8942
▁Senate	-8943
▁Fair	-8944
worth	-8945
▁OS	-8946
▁Typ	-8947
▁Die	-8948
▁ster	-8949
▁mammals	-8950
▁restrictions	-8951
▁120	-8952
▁vig	-8953
▁enjoyed	-8954
▁regime	-8955
▁streams	-8956
▁cellular	-8957
▁Action	-8958
▁dimensions	-8959
▁perfectly	-8960
▁adopt	-8961
rowth	-8962
▁Hit	-8963
▁borrow	-8964
▁Tradition	-8965
▁tom	-8966
▁(“	-8967
▁Rab	-8968
▁outdoor	-8969
▁ownership	-8970
▁2015.	-8971
▁buying	-8972
▁Fed	-8973
▁documented	-8974
▁1.5	-8975
▁eleph	-8976
▁Think	-8977
elect	-8978
▁draft	-8979
▁requiring	-8980
42	-8981
▁Prom	-8982
▁puzz	-8983
ologic	-8984
▁rooms	-8985
▁minority	-8986
▁dimin	-8987
▁suddenly	-8988
▁Ult	-8989
isations	-8990
▁PDF	-8991
▁legit	-8992
▁Area	-8993
regon	-8994
iblical	-8995
▁sediment	-8996
oked	-8997
▁statistical	-8998
▁Text	-8999
▁bron	-9000
▁surprise	-9001
▁Relig	-9002
iler	-9003
▁PL	-9004
▁hydro	-9005
▁Ren	-9006
▁channels	-9007
▁Brain	-9008
▁Origin	-9009
▁Marine	-9010
▁compass	-9011
text	-9012
▁Tit	-9013
inces	-9014
▁scr	-9015
▁puts	-9016
▁Answ	-9017
green	-9018
ocated	-9019
▁CT	-9020
▁passes	-9021
▁varying	-9022
▁satisfact	-9023
▁amino	-9024
▁beneath	-9025
▁invasion	-9026
▁instances	-9027
aneous	-9028
otypes	-9029
▁Others	-9030
▁addressing	-9031
▁stere	-9032
▁volunteers	-9033
▁Apple	-9034
isd	-9035
abling	-9036
▁utility	-9037
▁bears	-9038
▁bought	-9039
rub	-9040
▁Contact	-9041
▁Altern	-9042
▁Mediterranean	-9043
▁Monday	-9044
▁inev	-9045
▁Mississipp	-9046
ker	-9047
▁underground	-9048
▁15,	-9049
▁unem	-9050
▁Product	-9051
▁herself	-9052
▁vibr	-9053
▁Clinical	-9054
▁zones	-9055
▁Garden	-9056
▁fraction	-9057
▁contributing	-9058
dep	-9059
▁minimize	-9060
after	-9061
inth	-9062
▁philosoph	-9063
▁privacy	-9064
▁consequence	-9065
aved	-9066
▁inhabitants	-9067
OP	-9068
No	-9069
▁absolutely	-9070
▁Line	-9071
▁Walk	-9072
▁fifth	-9073
▁summar	-9074
▁arthritis	-9075
▁algorithm	-9076
▁regulate	-9077
▁distinguish	-9078
▁noun	-9079
▁isolation	-9080
▁susceptible	-9081
▁ft	-9082
OW	-9083
▁meetings	-9084
ghan	-9085
▁distant	-9086
▁NOT	-9087
▁favour	-9088
▁Luc	-9089
▁Wilson	-9090
gments	-9091
▁designated	-9092
▁villages	-9093
▁reef	-9094
▁partnership	-9095
▁estate	-9096
▁merch	-9097
▁Nevertheless	-9098
▁invasive	-9099
▁initiatives	-9100
▁Log	-9101
▁Santa	-9102
sk	-9103
thur	-9104
▁applies	-9105
▁rib	-9106
▁conflicts	-9107
zone	-9108
▁Scientific	-9109
oca	-9110
elly	-9111
erb	-9112
rin	-9113
▁particle	-9114
▁Antar	-9115
▁Individual	-9116
▁Assessment	-9117
▁neglect	-9118
▁restricted	-9119
▁Schools	-9120
▁simultaneously	-9121
▁shr	-9122
▁payment	-9123
▁compos	-9124
terior	-9125
▁inch	-9126
▁descend	-9127
▁consent	-9128
ji	-9129
urse	-9130
▁flexibility	-9131
▁encl	-9132
▁doses	-9133
▁provision	-9134
ador	-9135
power	-9136
▁CDC	-9137
▁employee	-9138
▁attempted	-9139
worm	-9140
▁magnitude	-9141
▁attributed	-9142
43	-9143
▁invention	-9144
▁Full	-9145
▁establishing	-9146
▁soy	-9147
▁electrons	-9148
▁2014.	-9149
▁inherent	-9150
uled	-9151
▁Hem	-9152
▁elementary	-9153
▁paintings	-9154
▁Proper	-9155
▁teens	-9156
▁rainfall	-9157
▁finish	-9158
▁acceptable	-9159
▁Sud	-9160
▁gest	-9161
▁totally	-9162
▁tort	-9163
emies	-9164
▁subsc	-9165
▁corporate	-9166
▁Applic	-9167
▁phones	-9168
▁minister	-9169
▁visits	-9170
▁separation	-9171
▁Teachers	-9172
orus	-9173
▁exclud	-9174
▁Egyptian	-9175
▁winds	-9176
western	-9177
eh	-9178
▁nuts	-9179
▁hybrid	-9180
▁ruled	-9181
▁lingu	-9182
▁disturb	-9183
▁sending	-9184
amil	-9185
regular	-9186
rose	-9187
▁gate	-9188
▁proposal	-9189
ceptions	-9190
▁lakes	-9191
▁remem	-9192
▁dramatically	-9193
▁alert	-9194
▁developmental	-9195
▁citizen	-9196
▁Nic	-9197
orters	-9198
function	-9199
▁encounter	-9200
▁hopes	-9201
omed	-9202
▁segment	-9203
▁swelling	-9204
▁symptom	-9205
ref	-9206
▁LED	-9207
▁precisely	-9208
▁contamination	-9209
ospel	-9210
urd	-9211
press	-9212
▁178	-9213
▁Oregon	-9214
▁dish	-9215
▁ranges	-9216
▁memor	-9217
duction	-9218
▁entitled	-9219
cho	-9220
iano	-9221
▁calm	-9222
▁fascinating	-9223
▁Station	-9224
▁abandoned	-9225
eras	-9226
▁sleeping	-9227
▁cited	-9228
▁Adam	-9229
▁Bern	-9230
▁reserved	-9231
▁Fer	-9232
ethe	-9233
▁systematic	-9234
▁classification	-9235
▁exceed	-9236
▁tumors	-9237
▁efficiently	-9238
efficient	-9239
▁Ariz	-9240
▁cycles	-9241
▁Teaching	-9242
▁elections	-9243
economic	-9244
▁deer	-9245
▁elevated	-9246
ouri	-9247
quality	-9248
▁wal	-9249
▁diets	-9250
▁FDA	-9251
▁Student	-9252
▁Mountain	-9253
▁transformation	-9254
▁Unt	-9255
anz	-9256
▁copies	-9257
acles	-9258
astics	-9259
ideo	-9260
ateral	-9261
▁wooden	-9262
▁scales	-9263
▁Ont	-9264
▁Turn	-9265
enda	-9266
1:	-9267
▁Ent	-9268
▁suggesting	-9269
▁reproductive	-9270
▁relate	-9271
▁es	-9272
http	-9273
▁Mississippi	-9274
▁glob	-9275
Figure	-9276
▁resemb	-9277
▁incorporated	-9278
▁alongside	-9279
▁Univers	-9280
ricane	-9281
ika	-9282
▁package	-9283
▁accounting	-9284
▁MP	-9285
▁ow	-9286
rics	-9287
▁perpet	-9288
▁wings	-9289
-201	-9290
▁diagram	-9291
▁manuscript	-9292
▁debris	-9293
▁lecture	-9294
▁translated	-9295
▁Ash	-9296
▁blank	-9297
olph	-9298
▁2010,	-9299
▁discharge	-9300
bow	-9301
▁Sn	-9302
uestions	-9303
▁legend	-9304
ictions	-9305
▁enforcement	-9306
UL	-9307
child	-9308
▁PhD	-9309
▁ending	-9310
▁Mrs	-9311
▁pert	-9312
▁distinction	-9313
▁module	-9314
▁enzymes	-9315
▁predom	-9316
▁Poland	-9317
pdf	-9318
▁bonds	-9319
▁faculty	-9320
▁3-	-9321
oler	-9322
▁abundance	-9323
▁Write	-9324
▁popularity	-9325
▁alumin	-9326
itches	-9327
▁Bell	-9328
▁morph	-9329
aven	-9330
isting	-9331
▁combine	-9332
ivation	-9333
▁aside	-9334
1),	-9335
▁whenever	-9336
▁excav	-9337
2),	-9338
▁prosper	-9339
profit	-9340
▁encouraging	-9341
▁honest	-9342
▁neighb	-9343
▁alternatives	-9344
▁partial	-9345
▁regulatory	-9346
▁neural	-9347
▁Spe	-9348
▁1000	-9349
▁978	-9350
▁repeat	-9351
itic	-9352
▁metabolic	-9353
▁civilization	-9354
.),	-9355
▁Berlin	-9356
SP	-9357
▁absorption	-9358
▁Alaska	-9359
▁scholar	-9360
▁thirty	-9361
▁visiting	-9362
▁folk	-9363
▁stabil	-9364
aine	-9365
igned	-9366
▁Number	-9367
▁prol	-9368
▁canal	-9369
▁continent	-9370
▁revenue	-9371
▁endangered	-9372
▁amongst	-9373
▁Williams	-9374
▁Ho	-9375
▁peers	-9376
▁surprising	-9377
▁pesticides	-9378
▁Corpor	-9379
▁surrounded	-9380
▁attractive	-9381
▁burned	-9382
▁anthrop	-9383
erving	-9384
▁medieval	-9385
▁spreading	-9386
▁survived	-9387
▁installation	-9388
eem	-9389
▁plates	-9390
▁broke	-9391
▁earthquake	-9392
nia	-9393
▁dementia	-9394
▁cream	-9395
ouses	-9396
▁abundant	-9397
▁strains	-9398
▁tendency	-9399
▁Turkey	-9400
▁0.0	-9401
▁Turk	-9402
▁ancestors	-9403
▁Training	-9404
▁hier	-9405
▁Tar	-9406
▁punishment	-9407
▁Encyclopedia	-9408
▁operated	-9409
▁brains	-9410
▁confusion	-9411
▁dried	-9412
▁Hig	-9413
quiry	-9414
▁Jr	-9415
▁2012,	-9416
ffe	-9417
▁Aud	-9418
▁sovere	-9419
▁clouds	-9420
▁Redu	-9421
▁Need	-9422
unar	-9423
▁250	-9424
▁collapse	-9425
▁neurolog	-9426
▁Object	-9427
▁enhanced	-9428
ighth	-9429
▁reflection	-9430
▁sectors	-9431
▁subsid	-9432
▁Making	-9433
▁robust	-9434
68	-9435
▁surveys	-9436
▁irrigation	-9437
ATION	-9438
reshold	-9439
▁Wales	-9440
▁chamber	-9441
enter	-9442
▁collections	-9443
▁penal	-9444
even	-9445
▁empire	-9446
▁diagnostic	-9447
▁knee	-9448
▁Assembly	-9449
▁celeb	-9450
▁expanding	-9451
▁cyl	-9452
▁disk	-9453
67	-9454
▁sensory	-9455
rium	-9456
▁1999	-9457
▁register	-9458
▁reflects	-9459
▁Meanwhile	-9460
▁producers	-9461
▁engineer	-9462
▁cable	-9463
▁achieving	-9464
▁Isa	-9465
▁occasionally	-9466
▁4:	-9467
▁rays	-9468
▁complement	-9469
▁describing	-9470
sters	-9471
▁600	-9472
▁intr	-9473
▁murder	-9474
▁Bol	-9475
▁films	-9476
▁hol	-9477
ocial	-9478
etically	-9479
uct	-9480
▁deposits	-9481
ubble	-9482
atoes	-9483
▁democratic	-9484
▁Angeles	-9485
itzer	-9486
▁Culture	-9487
▁Matthew	-9488
▁candidates	-9489
▁Arizona	-9490
▁suggestions	-9491
▁elderly	-9492
▁infectious	-9493
▁Fac	-9494
Os	-9495
▁germ	-9496
DL	-9497
▁Tool	-9498
rint	-9499
▁incorporate	-9500
▁contaminated	-9501
▁rough	-9502
▁extraord	-9503
▁factory	-9504
arks	-9505
▁spons	-9506
ivities	-9507
▁nursing	-9508
▁doors	-9509
69	-9510
▁partly	-9511
▁allergies	-9512
▁bottle	-9513
▁Below	-9514
▁Map	-9515
.:	-9516
▁beach	-9517
▁disag	-9518
▁radi	-9519
.1	-9520
▁invented	-9521
▁relating	-9522
▁organism	-9523
▁worksheets	-9524
▁repet	-9525
▁hurt	-9526
▁prevents	-9527
▁Risk	-9528
▁intra	-9529
▁velocity	-9530
▁conclusions	-9531
▁Bh	-9532
page	-9533
▁fant	-9534
▁("	-9535
▁Indigenous	-9536
▁Future	-9537
▁Doc	-9538
ashed	-9539
▁arrival	-9540
elihood	-9541
▁verte	-9542
▁chocolate	-9543
jud	-9544
▁guarantee	-9545
▁Name	-9546
stru	-9547
▁prolong	-9548
▁magazine	-9549
▁Defin	-9550
oline	-9551
▁enzyme	-9552
▁hygiene	-9553
expected	-9554
best	-9555
▁Jack	-9556
▁healthier	-9557
▁algorithms	-9558
▁lob	-9559
▁painted	-9560
▁twelve	-9561
ropol	-9562
▁Unit	-9563
▁straw	-9564
▁Photo	-9565
▁speaker	-9566
▁mistakes	-9567
imen	-9568
inery	-9569
▁vom	-9570
▁semi	-9571
obic	-9572
▁tough	-9573
▁Besides	-9574
di	-9575
eller	-9576
▁liberal	-9577
▁platforms	-9578
▁muc	-9579
▁rom	-9580
▁BM	-9581
▁salmon	-9582
▁socio	-9583
▁broader	-9584
▁dynamics	-9585
▁Nether	-9586
▁thank	-9587
▁pine	-9588
▁affairs	-9589
▁crack	-9590
▁erosion	-9591
▁Exerc	-9592
mal	-9593
▁pneum	-9594
ependence	-9595
▁Philos	-9596
▁oceans	-9597
▁holy	-9598
▁fingers	-9599
enti	-9600
▁homework	-9601
rible	-9602
▁cuts	-9603
▁Peace	-9604
▁Jon	-9605
▁selling	-9606
▁Story	-9607
mental	-9608
▁Integ	-9609
pre	-9610
▁weaken	-9611
▁bee	-9612
▁Pope	-9613
▁consisting	-9614
▁sequences	-9615
▁onset	-9616
▁economics	-9617
bage	-9618
▁SC	-9619
pos	-9620
▁Talk	-9621
▁equipped	-9622
▁duties	-9623
▁throw	-9624
▁Order	-9625
▁molecule	-9626
RS	-9627
imensional	-9628
▁reputation	-9629
illance	-9630
▁hung	-9631
▁bull	-9632
▁contrad	-9633
▁Jones	-9634
▁camps	-9635
mail	-9636
On	-9637
▁memories	-9638
▁grammar	-9639
▁influenza	-9640
▁Dyn	-9641
▁pipe	-9642
▁confident	-9643
▁erect	-9644
BI	-9645
▁Available	-9646
eling	-9647
▁valve	-9648
▁20,	-9649
▁dying	-9650
▁incom	-9651
ders	-9652
redit	-9653
▁14,	-9654
▁Theory	-9655
▁GM	-9656
▁fiction	-9657
ricks	-9658
Ind	-9659
▁mile	-9660
▁divide	-9661
▁codes	-9662
▁Standards	-9663
▁synthetic	-9664
▁certific	-9665
▁imagination	-9666
isition	-9667
▁NE	-9668
▁42	-9669
▁Cook	-9670
▁consistently	-9671
▁panc	-9672
▁Real	-9673
nesota	-9674
▁swimming	-9675
▁atmospheric	-9676
64	-9677
▁Mother	-9678
,’	-9679
▁grams	-9680
▁eaten	-9681
▁rent	-9682
▁horizontal	-9683
▁schem	-9684
▁reasoning	-9685
▁Parents	-9686
ela	-9687
▁kitchen	-9688
▁Sem	-9689
▁crimes	-9690
owered	-9691
▁offices	-9692
▁Bio	-9693
athan	-9694
▁physicians	-9695
▁injured	-9696
▁containers	-9697
▁Hu	-9698
duate	-9699
▁officially	-9700
▁Guard	-9701
▁Event	-9702
▁Darwin	-9703
also	-9704
▁trading	-9705
▁improves	-9706
uestion	-9707
▁Charl	-9708
▁surviv	-9709
▁attacked	-9710
ugs	-9711
▁Tenn	-9712
oving	-9713
▁Hot	-9714
▁Twitter	-9715
▁assessments	-9716
▁attended	-9717
▁shoes	-9718
▁utilized	-9719
▁nic	-9720
▁approval	-9721
▁bags	-9722
▁reviewed	-9723
▁Stephen	-9724
▁struck	-9725
▁Marc	-9726
stic	-9727
▁seiz	-9728
▁integrity	-9729
▁binding	-9730
▁striking	-9731
wa	-9732
▁Tay	-9733
ushing	-9734
▁width	-9735
▁seal	-9736
-15	-9737
▁Create	-9738
▁loud	-9739
▁85	-9740
▁developers	-9741
▁spine	-9742
grade	-9743
▁sheets	-9744
▁evaluated	-9745
▁subsequently	-9746
▁displays	-9747
▁Script	-9748
oning	-9749
GE	-9750
▁Luther	-9751
utical	-9752
▁Shakespeare	-9753
▁2011,	-9754
▁numer	-9755
da	-9756
▁absorbed	-9757
▁landing	-9758
▁Iron	-9759
▁definitions	-9760
▁pose	-9761
▁inflation	-9762
ications	-9763
hal	-9764
inates	-9765
▁shoulder	-9766
ctors	-9767
ori	-9768
▁fitness	-9769
▁GDP	-9770
▁likelihood	-9771
▁ninet	-9772
▁vaccination	-9773
▁abol	-9774
ceeding	-9775
▁adolescents	-9776
▁finance	-9777
▁residential	-9778
isticated	-9779
▁Enter	-9780
▁mutations	-9781
▁Cond	-9782
▁ADHD	-9783
olds	-9784
▁adoption	-9785
▁ber	-9786
▁aggreg	-9787
▁fan	-9788
itus	-9789
▁Java	-9790
Fig	-9791
trans	-9792
▁entrance	-9793
▁bell	-9794
▁accidents	-9795
▁10,000	-9796
▁retain	-9797
▁ul	-9798
▁Ah	-9799
▁pale	-9800
▁Missouri	-9801
TA	-9802
▁Jim	-9803
▁orientation	-9804
▁stretch	-9805
arios	-9806
▁cigare	-9807
uro	-9808
▁attributes	-9809
▁tracking	-9810
▁collecting	-9811
▁loop	-9812
arten	-9813
▁consuming	-9814
▁shares	-9815
Pro	-9816
▁phenomena	-9817
▁Case	-9818
▁reh	-9819
▁implementing	-9820
istically	-9821
▁therapeutic	-9822
▁Living	-9823
▁femin	-9824
aping	-9825
▁brothers	-9826
To	-9827
▁apps	-9828
▁Sav	-9829
▁athletes	-9830
engers	-9831
aze	-9832
author	-9833
▁loan	-9834
▁bite	-9835
▁Minnesota	-9836
▁partially	-9837
▁Maryland	-9838
▁antibodies	-9839
▁gray	-9840
▁axis	-9841
bul	-9842
▁Death	-9843
▁receives	-9844
▁shelter	-9845
▁mi	-9846
▁exhibition	-9847
▁Hitler	-9848
▁arc	-9849
▁wage	-9850
▁adaptation	-9851
▁jurisd	-9852
antine	-9853
▁assistant	-9854
▁Buddh	-9855
▁Arm	-9856
▁proud	-9857
acle	-9858
▁sew	-9859
▁recall	-9860
▁adjacent	-9861
▁valley	-9862
▁potassium	-9863
▁parks	-9864
▁assault	-9865
rons	-9866
▁dispers	-9867
otion	-9868
▁protest	-9869
”)	-9870
▁wake	-9871
PR	-9872
▁tower	-9873
▁administrative	-9874
▁CS	-9875
▁Six	-9876
▁busy	-9877
▁Trade	-9878
▁assessed	-9879
▁Lewis	-9880
▁cheese	-9881
iph	-9882
▁export	-9883
▁ON	-9884
list	-9885
inch	-9886
▁Jun	-9887
omal	-9888
▁refugees	-9889
osaur	-9890
▁allergic	-9891
▁183	-9892
▁outline	-9893
ivate	-9894
fly	-9895
▁Flow	-9896
▁dentist	-9897
▁Mental	-9898
▁cave	-9899
▁avoiding	-9900
▁charges	-9901
▁Cit	-9902
compass	-9903
esthetic	-9904
thodox	-9905
▁circular	-9906
▁tolerance	-9907
rust	-9908
▁Econom	-9909
▁Nep	-9910
▁independently	-9911
ctu	-9912
▁16,	-9913
▁posted	-9914
▁”	-9915
▁commod	-9916
nea	-9917
achel	-9918
▁Animal	-9919
isons	-9920
73	-9921
▁fatal	-9922
reens	-9923
found	-9924
▁welcome	-9925
▁awarded	-9926
▁sampling	-9927
▁license	-9928
▁freely	-9929
ylon	-9930
▁fluor	-9931
▁myster	-9932
▁edges	-9933
▁calendar	-9934
CL	-9935
▁1998	-9936
▁campus	-9937
▁somewhere	-9938
▁Daily	-9939
▁Carl	-9940
▁toile	-9941
▁prisoners	-9942
▁anat	-9943
▁kilometers	-9944
▁indicating	-9945
Be	-9946
▁appointment	-9947
▁weekly	-9948
▁Grade	-9949
▁prevented	-9950
▁pleasure	-9951
▁returning	-9952
▁vice	-9953
▁Samuel	-9954
▁Jersey	-9955
raid	-9956
▁drops	-9957
▁convenient	-9958
▁intermedi	-9959
▁boundary	-9960
▁Mand	-9961
▁vag	-9962
ayer	-9963
velength	-9964
▁plasma	-9965
▁Netherlands	-9966
▁Carib	-9967
▁Sleep	-9968
▁Dun	-9969
▁wireless	-9970
step	-9971
adequ	-9972
pert	-9973
▁Benef	-9974
:00	-9975
ulates	-9976
▁predators	-9977
▁missions	-9978
itate	-9979
▁13,	-9980
▁Han	-9981
▁cosm	-9982
▁Ele	-9983
▁intensive	-9984
▁emit	-9985
otten	-9986
fire	-9987
burn	-9988
healthy	-9989
▁password	-9990
orer	-9991
▁Nation	-9992
▁Prince	-9993
▁Patients	-9994
▁fibers	-9995
iy	-9996
▁tag	-9997
▁Governor	-9998
41	-9999
Pl	-10000
▁operational	-10001
umns	-10002
▁stems	-10003
▁appreciate	-10004
▁speakers	-10005
98	-10006
▁Present	-10007
▁Statistics	-10008
▁depr	-10009
iac	-10010
nowledge	-10011
▁treaty	-10012
▁Large	-10013
▁gentle	-10014
thal	-10015
action	-10016
▁pock	-10017
▁Ontario	-10018
▁threshold	-10019
▁occupation	-10020
▁1900	-10021
friendly	-10022
▁ES	-10023
▁deliber	-10024
▁malaria	-10025
estone	-10026
▁milit	-10027
berries	-10028
▁argues	-10029
▁bark	-10030
▁historians	-10031
date	-10032
▁pod	-10033
▁2009,	-10034
oting	-10035
ques	-10036
▁2016.	-10037
enh	-10038
▁beam	-10039
▁fles	-10040
▁Na	-10041
▁flavor	-10042
forced	-10043
▁fault	-10044
idae	-10045
▁Francis	-10046
▁submit	-10047
▁retail	-10048
▁Core	-10049
▁contrary	-10050
▁reviews	-10051
▁humidity	-10052
▁spark	-10053
▁nodes	-10054
▁representatives	-10055
▁gran	-10056
▁neuro	-10057
▁investments	-10058
ipation	-10059
Our	-10060
dess	-10061
▁Sab	-10062
▁highlights	-10063
DR	-10064
▁Davis	-10065
▁thoroughly	-10066
aceutical	-10067
▁hazards	-10068
▁workshop	-10069
orious	-10070
▁acquire	-10071
▁altered	-10072
▁Germans	-10073
▁elabor	-10074
▁Cut	-10075
▁shade	-10076
▁cluster	-10077
▁worn	-10078
▁robots	-10079
▁verse	-10080
aning	-10081
▁speeds	-10082
▁monthly	-10083
▁Cold	-10084
▁trail	-10085
▁Electric	-10086
▁Five	-10087
▁lasting	-10088
inator	-10089
Ref	-10090
▁Satur	-10091
▁prescription	-10092
aver	-10093
ez	-10094
nings	-10095
▁Diabetes	-10096
▁Afghan	-10097
cled	-10098
▁Chall	-10099
iances	-10100
▁concentrated	-10101
300	-10102
▁Hur	-10103
▁Sep	-10104
atin	-10105
burgh	-10106
▁mirror	-10107
▁entreprene	-10108
▁pond	-10109
▁Club	-10110
dominal	-10111
▁bind	-10112
▁placing	-10113
▁decreases	-10114
▁Marx	-10115
gregation	-10116
▁progressive	-10117
▁pest	-10118
▁promising	-10119
▁browser	-10120
anol	-10121
▁borders	-10122
conn	-10123
ogram	-10124
AF	-10125
▁bullying	-10126
▁struggling	-10127
sequently	-10128
▁participating	-10129
▁immunity	-10130
▁submitted	-10131
uine	-10132
▁accomplished	-10133
▁seasonal	-10134
▁cycl	-10135
▁18,	-10136
▁Chemical	-10137
▁broadcast	-10138
azz	-10139
ictoria	-10140
▁drives	-10141
▁affordable	-10142
▁CR	-10143
Ed	-10144
commun	-10145
▁13.	-10146
▁connecting	-10147
uv	-10148
▁tribe	-10149
chnology	-10150
▁Currently	-10151
ja	-10152
See	-10153
▁Behavior	-10154
▁Mes	-10155
▁flooding	-10156
▁unexpected	-10157
▁Has	-10158
▁libraries	-10159
▁Jefferson	-10160
▁sophisticated	-10161
▁dialogue	-10162
▁sail	-10163
▁reservoir	-10164
▁desk	-10165
iscons	-10166
▁2009.	-10167
▁Allah	-10168
▁vine	-10169
▁pink	-10170
▁pursue	-10171
▁diarrhea	-10172
▁cloth	-10173
▁shallow	-10174
▁portray	-10175
▁NG	-10176
▁Hom	-10177
plex	-10178
onin	-10179
▁avoided	-10180
▁arrive	-10181
▁synthesis	-10182
▁diver	-10183
▁arranged	-10184
▁impressive	-10185
▁Path	-10186
Ad	-10187
▁perf	-10188
▁qualified	-10189
▁update	-10190
▁Balt	-10191
▁toxins	-10192
▁prospect	-10193
▁refrig	-10194
▁hide	-10195
▁Psychology	-10196
▁fertilizer	-10197
▁importantly	-10198
▁(10	-10199
arians	-10200
▁extinction	-10201
▁artistic	-10202
▁17,	-10203
isconsin	-10204
▁Discuss	-10205
psy	-10206
▁intelligent	-10207
angel	-10208
▁Tues	-10209
effective	-10210
▁WHO	-10211
emor	-10212
▁pediatric	-10213
▁proport	-10214
▁council	-10215
▁sacrifice	-10216
▁Bush	-10217
▁prone	-10218
▁forever	-10219
pany	-10220
▁tanks	-10221
▁fallen	-10222
▁traveling	-10223
▁2008,	-10224
▁pou	-10225
▁tourism	-10226
III	-10227
▁bin	-10228
▁Oil	-10229
ecessary	-10230
akh	-10231
▁Ten	-10232
▁render	-10233
about	-10234
▁educated	-10235
▁Certain	-10236
▁carries	-10237
▁excited	-10238
▁capability	-10239
▁heal	-10240
yes	-10241
▁2008.	-10242
▁Num	-10243
▁designing	-10244
▁vector	-10245
▁exch	-10246
▁organisation	-10247
formed	-10248
▁rubber	-10249
▁bearing	-10250
thood	-10251
ermat	-10252
▁Enc	-10253
▁teaches	-10254
▁meditation	-10255
▁Hung	-10256
LS	-10257
▁rejected	-10258
▁carbohydrates	-10259
original	-10260
▁STEM	-10261
▁courage	-10262
▁blo	-10263
▁notable	-10264
▁Fa	-10265
iatric	-10266
▁mobility	-10267
▁irregular	-10268
▁hill	-10269
▁Search	-10270
▁Hon	-10271
▁legacy	-10272
▁destination	-10273
▁resolve	-10274
▁Index	-10275
▁3)	-10276
▁routes	-10277
▁hypert	-10278
▁discl	-10279
quarters	-10280
▁therapies	-10281
▁defines	-10282
▁44	-10283
▁manufacturer	-10284
All	-10285
▁tremend	-10286
▁Polish	-10287
▁mapping	-10288
▁boxes	-10289
oa	-10290
▁Indonesia	-10291
▁enlar	-10292
▁Romans	-10293
▁Ak	-10294
▁800	-10295
▁doctrine	-10296
ontin	-10297
▁defects	-10298
▁Sher	-10299
▁distances	-10300
71	-10301
▁Os	-10302
▁comparing	-10303
▁jew	-10304
▁beet	-10305
atories	-10306
▁Protest	-10307
BD	-10308
▁pests	-10309
▁Mathemat	-10310
▁hardly	-10311
▁monument	-10312
case	-10313
▁modeling	-10314
▁expressions	-10315
▁reson	-10316
▁Hop	-10317
▁bills	-10318
▁gaps	-10319
yan	-10320
▁Date	-10321
▁controversial	-10322
ttes	-10323
▁administered	-10324
▁Democratic	-10325
▁publ	-10326
▁earned	-10327
▁indoor	-10328
000.	-10329
▁colored	-10330
▁Thurs	-10331
▁rend	-10332
▁devoted	-10333
▁cameras	-10334
▁heter	-10335
▁enabled	-10336
FC	-10337
▁perspectives	-10338
▁discom	-10339
▁settlers	-10340
▁Along	-10341
▁guns	-10342
▁rats	-10343
▁genus	-10344
▁elig	-10345
▁founder	-10346
▁correlation	-10347
▁confused	-10348
▁injection	-10349
arious	-10350
inance	-10351
▁symb	-10352
vy	-10353
PDF	-10354
ooked	-10355
▁meter	-10356
▁Exec	-10357
▁essence	-10358
▁undergo	-10359
uar	-10360
▁Generally	-10361
▁Anne	-10362
▁Wednes	-10363
▁Corps	-10364
▁loyal	-10365
law	-10366
▁Grant	-10367
chron	-10368
▁drainage	-10369
▁aster	-10370
▁Intellig	-10371
▁Rose	-10372
▁grace	-10373
▁Carbon	-10374
inflamm	-10375
▁Hay	-10376
▁CN	-10377
2-	-10378
▁Nazi	-10379
▁por	-10380
▁Opt	-10381
▁magnesium	-10382
▁obviously	-10383
▁distinguished	-10384
▁parliament	-10385
income	-10386
▁execution	-10387
arer	-10388
▁mini	-10389
omon	-10390
▁mart	-10391
atile	-10392
▁celebration	-10393
▁embedded	-10394
▁progression	-10395
▁pushed	-10396
▁nerves	-10397
generation	-10398
▁PR	-10399
iotic	-10400
actic	-10401
▁Centers	-10402
▁appet	-10403
▁inspiration	-10404
▁transformed	-10405
▁inflammatory	-10406
▁ride	-10407
▁Wisconsin	-10408
▁WW	-10409
▁Emperor	-10410
▁demonstrates	-10411
▁scenarios	-10412
ammad	-10413
spring	-10414
gged	-10415
▁zinc	-10416
▁fluids	-10417
▁illustrated	-10418
ronaut	-10419
▁namely	-10420
atre	-10421
▁wed	-10422
enned	-10423
▁Pap	-10424
▁wages	-10425
▁washing	-10426
▁traditionally	-10427
▁alk	-10428
▁Du	-10429
ressing	-10430
▁nort	-10431
▁misc	-10432
TC	-10433
▁ought	-10434
▁Rub	-10435
vae	-10436
▁Bit	-10437
▁constitutional	-10438
▁utilize	-10439
▁infin	-10440
▁criticism	-10441
▁PA	-10442
▁Until	-10443
▁completion	-10444
▁Sac	-10445
uclear	-10446
▁Additional	-10447
▁Soft	-10448
arded	-10449
▁coral	-10450
▁fate	-10451
iversary	-10452
▁patent	-10453
▁Begin	-10454
Pub	-10455
▁bits	-10456
▁provisions	-10457
▁mira	-10458
istent	-10459
▁Transport	-10460
▁Tro	-10461
▁Cape	-10462
▁Pay	-10463
▁distinctive	-10464
▁Lower	-10465
▁tape	-10466
▁alike	-10467
iative	-10468
▁leak	-10469
▁bladder	-10470
▁allergy	-10471
iking	-10472
▁Example	-10473
▁Sweden	-10474
▁gear	-10475
▁afraid	-10476
▁imperial	-10477
2:	-10478
▁Wars	-10479
▁confront	-10480
▁pathways	-10481
▁hip	-10482
▁yes	-10483
swered	-10484
▁Depending	-10485
▁encourages	-10486
TER	-10487
▁distract	-10488
isual	-10489
▁persistent	-10490
▁regen	-10491
▁deadly	-10492
abilitation	-10493
▁Species	-10494
▁Prime	-10495
▁Cra	-10496
▁Basic	-10497
▁Physics	-10498
▁explored	-10499
▁sle	-10500
▁preservation	-10501
lings	-10502
▁indicators	-10503
iosity	-10504
▁generating	-10505
▁historian	-10506
▁harsh	-10507
▁epidemic	-10508
▁brid	-10509
alo	-10510
teenth	-10511
▁asks	-10512
ennedy	-10513
isit	-10514
74	-10515
▁Bad	-10516
▁dow	-10517
▁torn	-10518
▁surprised	-10519
▁algae	-10520
▁solely	-10521
▁organisations	-10522
▁Tree	-10523
▁rebu	-10524
▁Things	-10525
igm	-10526
▁Sens	-10527
▁reproduction	-10528
insula	-10529
velt	-10530
▁tied	-10531
Bl	-10532
▁Ford	-10533
▁featured	-10534
▁contributes	-10535
▁Caribbean	-10536
▁publications	-10537
▁21,	-10538
▁investigated	-10539
▁continuously	-10540
ynt	-10541
▁enabling	-10542
▁stakeholders	-10543
▁buck	-10544
▁Scottish	-10545
▁wavelength	-10546
▁inequality	-10547
entieth	-10548
▁Usually	-10549
ele	-10550
▁AIDS	-10551
▁gathering	-10552
▁Mos	-10553
isible	-10554
verages	-10555
▁overwhelming	-10556
icides	-10557
▁Tuesday	-10558
▁occurrence	-10559
yard	-10560
ulsion	-10561
▁implies	-10562
▁gains	-10563
▁configuration	-10564
▁anten	-10565
▁Types	-10566
▁spir	-10567
▁inclusion	-10568
sized	-10569
▁distribut	-10570
▁recommends	-10571
▁Earl	-10572
▁golden	-10573
anium	-10574
▁phon	-10575
▁Download	-10576
▁obser	-10577
▁mistake	-10578
▁promotes	-10579
▁employers	-10580
gebra	-10581
▁atomic	-10582
▁attain	-10583
doi	-10584
RL	-10585
▁matrix	-10586
▁artif	-10587
▁toys	-10588
▁defeat	-10589
3),	-10590
emet	-10591
▁HP	-10592
▁frog	-10593
▁extrem	-10594
▁succeeded	-10595
run	-10596
▁Particip	-10597
▁termin	-10598
▁volumes	-10599
▁Linux	-10600
▁governor	-10601
▁opens	-10602
▁hepat	-10603
▁spelling	-10604
▁instant	-10605
asses	-10606
▁poorly	-10607
▁relatives	-10608
▁meteor	-10609
▁Recent	-10610
▁vacuum	-10611
▁influential	-10612
▁steady	-10613
▁columns	-10614
▁suspect	-10615
▁League	-10616
ropriate	-10617
inian	-10618
▁accordance	-10619
▁equations	-10620
▁associations	-10621
ceeds	-10622
▁substr	-10623
▁masses	-10624
▁deleg	-10625
▁mystery	-10626
phones	-10627
▁Guid	-10628
▁Month	-10629
▁thrive	-10630
▁Throughout	-10631
▁jaw	-10632
▁safer	-10633
▁Dougl	-10634
▁timing	-10635
▁lift	-10636
▁cope	-10637
▁catal	-10638
anth	-10639
fold	-10640
▁discomfort	-10641
▁authentic	-10642
▁fertility	-10643
▁Python	-10644
▁extraordinary	-10645
59	-10646
ysical	-10647
▁Wednesday	-10648
That	-10649
▁searching	-10650
▁sel	-10651
arium	-10652
▁2013,	-10653
▁specimens	-10654
▁nurse	-10655
▁shouldn	-10656
▁Comb	-10657
▁thickness	-10658
▁rotation	-10659
▁Az	-10660
▁writings	-10661
▁immigration	-10662
nals	-10663
▁methane	-10664
aft	-10665
osevelt	-10666
▁accompany	-10667
▁priest	-10668
pson	-10669
▁multip	-10670
▁locally	-10671
▁antibiotic	-10672
afe	-10673
▁permitted	-10674
coin	-10675
▁(8	-10676
▁Thursday	-10677
▁Give	-10678
▁ethics	-10679
agger	-10680
▁storms	-10681
▁Ty	-10682
sub	-10683
ergarten	-10684
▁sustained	-10685
▁conducting	-10686
▁cerv	-10687
▁thorough	-10688
orks	-10689
fare	-10690
▁Sex	-10691
▁Tib	-10692
▁acceptance	-10693
▁Imag	-10694
▁30,	-10695
▁Depression	-10696
▁Win	-10697
▁acknowledge	-10698
▁Results	-10699
seud	-10700
▁Opp	-10701
type	-10702
▁(3)	-10703
▁yields	-10704
rophic	-10705
▁talks	-10706
▁classrooms	-10707
▁integral	-10708
▁revolutionary	-10709
▁Barb	-10710
▁Ni	-10711
▁14.	-10712
Le	-10713
▁chron	-10714
▁dominated	-10715
▁mes	-10716
▁Bor	-10717
▁compliance	-10718
▁emission	-10719
▁2007,	-10720
▁von	-10721
▁Taylor	-10722
▁dollar	-10723
stration	-10724
Ps	-10725
Hz	-10726
▁19,	-10727
urated	-10728
▁46	-10729
▁Front	-10730
▁coins	-10731
dimensional	-10732
onomous	-10733
▁hazardous	-10734
▁empower	-10735
▁packaging	-10736
▁hunger	-10737
▁electronics	-10738
▁racism	-10739
▁rocket	-10740
▁Tax	-10741
cult	-10742
▁49	-10743
▁advertising	-10744
▁Body	-10745
rared	-10746
▁nick	-10747
uble	-10748
leton	-10749
▁Show	-10750
▁2015,	-10751
▁enemies	-10752
▁circles	-10753
this	-10754
▁feather	-10755
▁Greg	-10756
person	-10757
▁transactions	-10758
▁answered	-10759
gered	-10760
doors	-10761
▁rhythm	-10762
▁counterpart	-10763
▁Healthy	-10764
you	-10765
anas	-10766
▁1997	-10767
▁uncertainty	-10768
lam	-10769
▁rear	-10770
▁seasons	-10771
ocent	-10772
▁mercury	-10773
▁multipl	-10774
▁dangers	-10775
▁1940	-10776
▁metap	-10777
▁firms	-10778
▁labels	-10779
▁Lind	-10780
phal	-10781
▁patri	-10782
▁necessity	-10783
▁replic	-10784
▁vomiting	-10785
▁Rand	-10786
storm	-10787
▁160	-10788
▁Jean	-10789
▁suspected	-10790
▁irre	-10791
▁counties	-10792
▁Deep	-10793
▁Trump	-10794
heastern	-10795
▁horn	-10796
▁keys	-10797
▁frozen	-10798
▁43	-10799
AB	-10800
▁weapon	-10801
front	-10802
▁Franklin	-10803
▁expend	-10804
▁Lu	-10805
▁22,	-10806
reement	-10807
acon	-10808
auc	-10809
My	-10810
iors	-10811
▁Rus	-10812
▁5:	-10813
▁calculations	-10814
▁Rog	-10815
▁gau	-10816
rise	-10817
▁executed	-10818
enders	-10819
▁inadequ	-10820
▁cataly	-10821
▁Bow	-10822
▁Industrial	-10823
▁tubes	-10824
▁severely	-10825
▁territories	-10826
neg	-10827
cal	-10828
icting	-10829
dated	-10830
▁reserves	-10831
arts	-10832
uting	-10833
ivals	-10834
▁facial	-10835
▁poems	-10836
▁overweight	-10837
emetery	-10838
▁thinks	-10839
▁supplied	-10840
▁Jane	-10841
▁Published	-10842
oved	-10843
▁expedition	-10844
owa	-10845
▁diplom	-10846
▁pries	-10847
▁categor	-10848
▁originated	-10849
▁arrangement	-10850
▁Ray	-10851
▁Urban	-10852
▁markers	-10853
▁Duke	-10854
▁Sa	-10855
hard	-10856
▁Anim	-10857
mn	-10858
▁Prior	-10859
▁emerge	-10860
▁investors	-10861
▁economies	-10862
▁Period	-10863
▁crust	-10864
yt	-10865
develop	-10866
▁Buddha	-10867
hedral	-10868
IST	-10869
riction	-10870
oil	-10871
▁phrases	-10872
▁coinc	-10873
▁Marg	-10874
▁magnet	-10875
▁Belg	-10876
▁Arist	-10877
▁Mit	-10878
▁Fem	-10879
▁Roosevelt	-10880
PD	-10881
▁2017.	-10882
orient	-10883
ternoon	-10884
feeding	-10885
▁payments	-10886
56	-10887
▁inspect	-10888
▁situated	-10889
▁cong	-10890
▁25,	-10891
flies	-10892
▁Ban	-10893
▁voting	-10894
▁2007.	-10895
▁Ib	-10896
▁potatoes	-10897
rels	-10898
▁Republican	-10899
school	-10900
ko	-10901
vals	-10902
........	-10903
▁Miller	-10904
▁genetics	-10905
hester	-10906
agle	-10907
▁Inv	-10908
▁pap	-10909
▁Marsh	-10910
▁1800	-10911
▁sperm	-10912
ML	-10913
▁explaining	-10914
UC	-10915
▁AT	-10916
▁expenses	-10917
▁invited	-10918
▁assumptions	-10919
▁encompass	-10920
▁insu	-10921
▁precision	-10922
▁genuine	-10923
▁brill	-10924
▁stiff	-10925
▁Lt	-10926
▁lunch	-10927
▁stops	-10928
▁Magn	-10929
▁Muh	-10930
owners	-10931
▁marginal	-10932
▁64	-10933
▁declined	-10934
▁nas	-10935
osity	-10936
▁pathogens	-10937
▁institutional	-10938
▁bulk	-10939
▁restored	-10940
▁24,	-10941
▁combust	-10942
▁receptors	-10943
▁liberty	-10944
▁hang	-10945
rell	-10946
▁Pear	-10947
▁Taking	-10948
▁compat	-10949
▁hills	-10950
▁ruling	-10951
.2	-10952
▁swallow	-10953
58	-10954
Co	-10955
essional	-10956
▁ensures	-10957
▁simulation	-10958
uty	-10959
icked	-10960
▁disappear	-10961
▁NS	-10962
▁politicians	-10963
othy	-10964
▁scal	-10965
▁caffe	-10966
▁Fram	-10967
▁expense	-10968
▁Materials	-10969
onent	-10970
▁Plants	-10971
ognition	-10972
▁Fall	-10973
role	-10974
▁enact	-10975
▁gland	-10976
▁exclusively	-10977
▁metres	-10978
▁chapters	-10979
▁filters	-10980
▁Architect	-10981
▁deterior	-10982
▁Always	-10983
▁Es	-10984
▁considerably	-10985
▁presum	-10986
▁tracks	-10987
▁RE	-10988
▁casual	-10989
▁Reserve	-10990
At	-10991
▁Leon	-10992
▁coordination	-10993
▁FOR	-10994
eav	-10995
▁Represent	-10996
orney	-10997
▁Bridge	-10998
GS	-10999
▁1996	-11000
bro	-11001
▁Cro	-11002
▁assumption	-11003
▁hack	-11004
▁subtle	-11005
▁tired	-11006
▁Eval	-11007
▁whilst	-11008
pm	-11009
▁Perform	-11010
▁protects	-11011
ECT	-11012
emed	-11013
▁dehyd	-11014
▁dispar	-11015
▁stimulate	-11016
▁filling	-11017
▁Mountains	-11018
▁attracted	-11019
lear	-11020
▁pride	-11021
▁Monitor	-11022
▁diagnose	-11023
yo	-11024
▁Primary	-11025
▁disposal	-11026
▁abroad	-11027
▁Conc	-11028
range	-11029
▁surre	-11030
iro	-11031
▁ignore	-11032
▁Evolution	-11033
▁unemployment	-11034
▁WH	-11035
igration	-11036
▁2021	-11037
▁ma	-11038
▁stressed	-11039
▁festival	-11040
▁discussing	-11041
▁Teacher	-11042
400	-11043
ikes	-11044
▁palm	-11045
high	-11046
▁incredible	-11047
▁admitted	-11048
▁skull	-11049
▁Bon	-11050
▁precipitation	-11051
▁Stone	-11052
grad	-11053
Se	-11054
onymous	-11055
ountered	-11056
▁referring	-11057
▁census	-11058
▁phases	-11059
▁condem	-11060
▁peripher	-11061
▁belonging	-11062
acher	-11063
▁consensus	-11064
▁impression	-11065
▁fifty	-11066
osphere	-11067
▁Movement	-11068
▁Rod	-11069
▁anch	-11070
▁chip	-11071
inea	-11072
▁genetically	-11073
▁orn	-11074
arth	-11075
▁moments	-11076
▁Requ	-11077
▁illustrate	-11078
who	-11079
▁discoveries	-11080
▁2006,	-11081
▁spell	-11082
▁Choose	-11083
▁prevalent	-11084
security	-11085
▁herbs	-11086
▁incorrect	-11087
▁pathway	-11088
▁incredibly	-11089
igma	-11090
▁Flu	-11091
hr	-11092
uster	-11093
▁telephone	-11094
▁mail	-11095
▁aluminum	-11096
▁commands	-11097
▁yard	-11098
▁Rout	-11099
▁Gir	-11100
▁bugs	-11101
▁Moh	-11102
▁kings	-11103
▁philosophical	-11104
▁picked	-11105
ochond	-11106
UM	-11107
▁EM	-11108
▁tang	-11109
▁conversations	-11110
hu	-11111
iki	-11112
▁encountered	-11113
▁determination	-11114
▁Thank	-11115
upp	-11116
▁boards	-11117
▁2014,	-11118
▁28,	-11119
▁Educational	-11120
▁unity	-11121
▁predominant	-11122
▁Buddhist	-11123
▁Ra	-11124
grim	-11125
▁Archae	-11126
asures	-11127
▁sket	-11128
▁epidem	-11129
▁repeatedly	-11130
▁Philippines	-11131
▁1995	-11132
▁Ger	-11133
▁alien	-11134
▁Love	-11135
▁Imper	-11136
▁frequencies	-11137
ancial	-11138
eared	-11139
▁Ark	-11140
▁analog	-11141
▁Collect	-11142
▁strand	-11143
▁Tri	-11144
▁pitch	-11145
▁newspapers	-11146
▁apple	-11147
▁yeast	-11148
▁catast	-11149
▁applicable	-11150
cts	-11151
De	-11152
▁departments	-11153
▁2.5	-11154
▁lying	-11155
▁digit	-11156
▁galaxy	-11157
▁Draw	-11158
▁limiting	-11159
▁satellites	-11160
▁chains	-11161
▁Arthur	-11162
▁Dor	-11163
eous	-11164
▁IC	-11165
▁viable	-11166
▁conservative	-11167
▁realistic	-11168
▁foster	-11169
▁bands	-11170
▁ignored	-11171
▁FA	-11172
▁explos	-11173
▁reserve	-11174
▁blacks	-11175
iolet	-11176
▁colleges	-11177
▁loans	-11178
▁Was	-11179
▁damaging	-11180
▁senses	-11181
▁Captain	-11182
ishers	-11183
▁recovered	-11184
▁physiological	-11185
▁flies	-11186
▁menu	-11187
1-	-11188
▁ic	-11189
▁nineteenth	-11190
cor	-11191
▁mounted	-11192
▁wra	-11193
wall	-11194
▁texture	-11195
89	-11196
▁soap	-11197
▁OR	-11198
▁determines	-11199
hops	-11200
▁gastro	-11201
▁bom	-11202
▁seeks	-11203
▁Saturday	-11204
▁viewing	-11205
▁scenes	-11206
onald	-11207
▁Overall	-11208
▁accessed	-11209
▁cardiac	-11210
rup	-11211
▁larvae	-11212
▁flesh	-11213
▁sorts	-11214
▁curious	-11215
▁Argent	-11216
iplinary	-11217
▁extraction	-11218
▁Syria	-11219
▁feas	-11220
▁Therapy	-11221
▁100,000	-11222
hour	-11223
▁arbit	-11224
▁bowel	-11225
aki	-11226
arest	-11227
▁dismiss	-11228
▁telescope	-11229
▁Nig	-11230
▁meets	-11231
there	-11232
▁recycled	-11233
▁dece	-11234
▁SM	-11235
▁respective	-11236
▁protocols	-11237
▁quote	-11238
▁degradation	-11239
▁timber	-11240
▁passive	-11241
▁Jup	-11242
▁Compar	-11243
▁beds	-11244
restrial	-11245
▁graphic	-11246
imedia	-11247
▁surveillance	-11248
▁comparable	-11249
iating	-11250
▁transf	-11251
72	-11252
onto	-11253
▁PH	-11254
-200	-11255
▁crash	-11256
▁gums	-11257
ogl	-11258
ogene	-11259
▁compact	-11260
▁EN	-11261
▁geographic	-11262
▁Freder	-11263
enya	-11264
▁deals	-11265
▁Raj	-11266
▁behalf	-11267
▁Political	-11268
▁makers	-11269
fn	-11270
▁precious	-11271
▁disasters	-11272
▁Pow	-11273
▁quad	-11274
erness	-11275
▁conclude	-11276
▁organize	-11277
▁fears	-11278
▁educate	-11279
▁programmes	-11280
▁Census	-11281
▁Freedom	-11282
▁Chap	-11283
ocaust	-11284
▁Job	-11285
▁induced	-11286
oxic	-11287
▁inver	-11288
▁shield	-11289
▁manufactured	-11290
arl	-11291
▁syll	-11292
otyp	-11293
rac	-11294
▁aquatic	-11295
cm	-11296
▁architectural	-11297
▁football	-11298
inflammatory	-11299
▁Had	-11300
▁UC	-11301
ructive	-11302
▁indicator	-11303
▁Analy	-11304
▁abdominal	-11305
▁Nich	-11306
▁devastating	-11307
▁machinery	-11308
bral	-11309
▁skilled	-11310
▁march	-11311
▁aids	-11312
▁Nap	-11313
▁prolonged	-11314
▁substitute	-11315
tte	-11316
▁Communication	-11317
human	-11318
rage	-11319
▁atom	-11320
▁LG	-11321
▁Cultural	-11322
irs	-11323
ochemical	-11324
essee	-11325
▁Related	-11326
uns	-11327
▁2005,	-11328
▁Series	-11329
▁attempting	-11330
▁ric	-11331
▁Relations	-11332
lades	-11333
▁carcin	-11334
makers	-11335
▁portions	-11336
▁Fle	-11337
▁beer	-11338
▁dinner	-11339
arding	-11340
▁Advanced	-11341
▁dign	-11342
▁lig	-11343
aug	-11344
▁Sustainable	-11345
▁Diagn	-11346
▁wealthy	-11347
atching	-11348
▁specialists	-11349
▁shopping	-11350
▁resilience	-11351
eland	-11352
▁relieve	-11353
▁Mission	-11354
▁mainstream	-11355
anna	-11356
▁shortly	-11357
▁Albert	-11358
▁overse	-11359
▁decomp	-11360
egu	-11361
▁prophe	-11362
▁cha	-11363
ordan	-11364
▁battles	-11365
▁cooked	-11366
ausea	-11367
3:	-11368
▁stuck	-11369
rets	-11370
▁Creative	-11371
▁traveled	-11372
▁23,	-11373
inton	-11374
▁grave	-11375
thening	-11376
▁PMID	-11377
▁rises	-11378
▁needle	-11379
▁Effects	-11380
▁SO	-11381
▁hind	-11382
▁Account	-11383
▁Arabic	-11384
▁groundwater	-11385
▁Facts	-11386
asa	-11387
▁Cham	-11388
▁disput	-11389
plan	-11390
▁belt	-11391
govern	-11392
▁documentation	-11393
▁guides	-11394
▁crossing	-11395
▁que	-11396
▁pupp	-11397
EST	-11398
▁shipping	-11399
natural	-11400
▁participated	-11401
monary	-11402
▁afternoon	-11403
▁Utah	-11404
▁preschool	-11405
▁consp	-11406
▁mim	-11407
▁examining	-11408
iley	-11409
olly	-11410
▁interviews	-11411
▁Pict	-11412
▁GP	-11413
▁neighbors	-11414
▁shadow	-11415
▁extends	-11416
▁costly	-11417
▁2-	-11418
▁headaches	-11419
opathy	-11420
▁Issue	-11421
▁singing	-11422
▁pipes	-11423
▁mud	-11424
FS	-11425
▁gaining	-11426
arse	-11427
orie	-11428
▁warmer	-11429
opt	-11430
▁Imm	-11431
▁sau	-11432
▁republic	-11433
▁mutual	-11434
▁motivated	-11435
rying	-11436
▁alphabet	-11437
▁stack	-11438
▁powered	-11439
.5	-11440
ococc	-11441
▁pollutants	-11442
▁Amendment	-11443
▁appetite	-11444
▁181	-11445
abetic	-11446
▁pulled	-11447
▁Pit	-11448
ERS	-11449
▁dual	-11450
Re	-11451
▁anniversary	-11452
sun	-11453
▁Bru	-11454
▁globally	-11455
▁Tips	-11456
▁Louisiana	-11457
▁angry	-11458
osex	-11459
isphere	-11460
▁arrested	-11461
▁flowing	-11462
▁careg	-11463
▁compassion	-11464
▁meanings	-11465
▁automatic	-11466
▁unnecessary	-11467
▁Site	-11468
▁dimension	-11469
▁furniture	-11470
▁datas	-11471
▁promoted	-11472
▁forb	-11473
▁pec	-11474
▁biomass	-11475
illy	-11476
▁Sche	-11477
▁affil	-11478
▁campaigns	-11479
10,	-11480
▁efficacy	-11481
▁beta	-11482
▁collaborative	-11483
4),	-11484
▁quantitative	-11485
abama	-11486
▁Foreign	-11487
▁entity	-11488
▁galaxies	-11489
▁Smart	-11490
▁Summer	-11491
father	-11492
ibli	-11493
ilty	-11494
▁outdoors	-11495
▁cheaper	-11496
▁bor	-11497
▁Market	-11498
▁Hunt	-11499
▁compensation	-11500
TML	-11501
▁Edition	-11502
▁slide	-11503
▁Clark	-11504
▁prostate	-11505
▁Observ	-11506
host	-11507
ographer	-11508
▁Tibet	-11509
▁defeated	-11510
▁vow	-11511
▁residence	-11512
▁voices	-11513
600	-11514
ilton	-11515
▁propos	-11516
▁Nat	-11517
▁interpreted	-11518
▁Defense	-11519
▁guided	-11520
▁religions	-11521
▁practitioners	-11522
▁26,	-11523
▁designers	-11524
▁farmer	-11525
elson	-11526
▁nurses	-11527
▁initiated	-11528
lessly	-11529
empl	-11530
▁Dur	-11531
▁adul	-11532
▁Dub	-11533
▁analyzing	-11534
▁considerations	-11535
▁rescue	-11536
▁verbal	-11537
▁conjunction	-11538
▁cher	-11539
63	-11540
gr	-11541
imeter	-11542
▁resur	-11543
▁Treaty	-11544
instein	-11545
▁Ball	-11546
These	-11547
▁Fisher	-11548
▁dictionary	-11549
lastname	-11550
▁clusters	-11551
agus	-11552
▁Lie	-11553
PP	-11554
ibration	-11555
▁assignments	-11556
▁ingredient	-11557
▁Hispan	-11558
▁tunnel	-11559
▁archaeological	-11560
▁methodology	-11561
▁dishes	-11562
▁empir	-11563
ltry	-11564
▁Mu	-11565
▁vapor	-11566
▁static	-11567
laration	-11568
▁immense	-11569
dis	-11570
apore	-11571
▁pharmac	-11572
▁drawings	-11573
▁inherited	-11574
▁possession	-11575
▁beef	-11576
▁pollen	-11577
orb	-11578
▁Jupiter	-11579
etheless	-11580
olas	-11581
▁announce	-11582
▁bold	-11583
▁fleet	-11584
▁fled	-11585
▁2,000	-11586
oen	-11587
▁Everyone	-11588
▁absent	-11589
▁Pa	-11590
sur	-11591
▁Nort	-11592
▁grants	-11593
non	-11594
▁smallest	-11595
etry	-11596
▁tech	-11597
▁Hawaii	-11598
▁mutation	-11599
▁bay	-11600
▁coin	-11601
▁descriptions	-11602
▁neighbour	-11603
▁Philip	-11604
▁Military	-11605
LC	-11606
▁alb	-11607
▁obsc	-11608
▁Tennessee	-11609
▁pix	-11610
bestos	-11611
▁Credit	-11612
▁responded	-11613
▁Pas	-11614
▁decent	-11615
▁checked	-11616
uana	-11617
▁Maybe	-11618
▁Previous	-11619
▁Bot	-11620
▁Boy	-11621
▁kin	-11622
▁Chen	-11623
acular	-11624
▁Prize	-11625
▁historically	-11626
▁Ethiop	-11627
▁plaque	-11628
lyn	-11629
▁tremendous	-11630
▁Archived	-11631
▁pushing	-11632
▁cavity	-11633
One	-11634
▁Norway	-11635
▁Banglades	-11636
▁Impact	-11637
pton	-11638
▁reads	-11639
▁advised	-11640
▁breathe	-11641
sl	-11642
▁fails	-11643
▁hearts	-11644
▁electrom	-11645
keys	-11646
▁paths	-11647
▁speaks	-11648
▁Independence	-11649
▁Bob	-11650
▁brick	-11651
▁discusses	-11652
▁Team	-11653
▁node	-11654
▁enterprise	-11655
▁fulfill	-11656
▁odd	-11657
▁prosec	-11658
▁contracts	-11659
inced	-11660
activity	-11661
▁snake	-11662
osaurs	-11663
away	-11664
97	-11665
▁Dat	-11666
▁ceremony	-11667
ilateral	-11668
▁caffeine	-11669
▁astronaut	-11670
arma	-11671
white	-11672
▁unto	-11673
▁receptor	-11674
▁Anti	-11675
▁Sound	-11676
▁rings	-11677
attle	-11678
▁retire	-11679
▁angles	-11680
▁obese	-11681
▁Tele	-11682
▁whales	-11683
▁accused	-11684
▁Around	-11685
▁Ages	-11686
▁2016,	-11687
▁27,	-11688
uming	-11689
▁consisted	-11690
oub	-11691
conf	-11692
▁digestion	-11693
mouth	-11694
▁patch	-11695
▁Build	-11696
eld	-11697
▁Stress	-11698
▁Hong	-11699
▁counting	-11700
▁disin	-11701
good	-11702
▁distress	-11703
▁entities	-11704
▁Persian	-11705
▁colours	-11706
▁enters	-11707
▁interrupt	-11708
▁structured	-11709
esy	-11710
▁lith	-11711
▁operators	-11712
▁forty	-11713
▁castle	-11714
Con	-11715
itored	-11716
rology	-11717
ushes	-11718
py	-11719
▁NC	-11720
entucky	-11721
whe	-11722
acre	-11723
▁survivors	-11724
▁polymer	-11725
▁41	-11726
Do	-11727
▁alleged	-11728
aret	-11729
▁closest	-11730
▁Clear	-11731
▁Executive	-11732
▁Planning	-11733
▁acquisition	-11734
izational	-11735
▁belongs	-11736
▁lunar	-11737
▁personally	-11738
▁denied	-11739
▁united	-11740
Us	-11741
risk	-11742
▁Exercise	-11743
look	-11744
▁Includ	-11745
▁imbal	-11746
▁strengths	-11747
asting	-11748
ulative	-11749
▁BBC	-11750
▁persec	-11751
▁47	-11752
▁Confederate	-11753
olith	-11754
▁poisoning	-11755
▁Rap	-11756
exts	-11757
▁Tai	-11758
▁mines	-11759
▁Bird	-11760
▁overt	-11761
▁profits	-11762
▁Radio	-11763
gic	-11764
▁defining	-11765
.-	-11766
▁Publishing	-11767
▁basics	-11768
▁uter	-11769
▁fluctu	-11770
▁Diego	-11771
▁drag	-11772
ESS	-11773
shore	-11774
▁oxide	-11775
arp	-11776
▁Personal	-11777
weet	-11778
▁Memorial	-11779
96	-11780
keley	-11781
iser	-11782
letter	-11783
▁Alabama	-11784
▁gross	-11785
▁pressures	-11786
▁endeav	-11787
▁governance	-11788
▁Afghanistan	-11789
▁chips	-11790
▁cro	-11791
▁cer	-11792
▁regulated	-11793
▁relates	-11794
▁replacing	-11795
▁convention	-11796
▁ions	-11797
▁followers	-11798
▁satisfaction	-11799
▁transparent	-11800
▁substantially	-11801
▁SE	-11802
▁Pil	-11803
▁imposed	-11804
graduate	-11805
▁Resource	-11806
▁chim	-11807
they	-11808
estion	-11809
▁Gas	-11810
▁publicly	-11811
▁mul	-11812
▁dreams	-11813
▁Broad	-11814
▁Gil	-11815
▁promised	-11816
▁Tok	-11817
▁bases	-11818
▁Benefits	-11819
▁Lady	-11820
▁comprehension	-11821
▁volcanic	-11822
▁abd	-11823
▁Indiana	-11824
▁darkness	-11825
▁boats	-11826
link	-11827
▁corruption	-11828
▁Character	-11829
▁episode	-11830
▁fragments	-11831
▁ren	-11832
▁fungi	-11833
▁geometry	-11834
vity	-11835
▁terminal	-11836
▁Castle	-11837
ewater	-11838
▁cod	-11839
WS	-11840
▁yoga	-11841
weed	-11842
▁defect	-11843
aund	-11844
▁photography	-11845
▁Machine	-11846
▁convinced	-11847
access	-11848
▁licensed	-11849
▁Maria	-11850
▁hepatitis	-11851
▁projected	-11852
▁fee	-11853
▁glands	-11854
▁traged	-11855
▁Gro	-11856
▁Collection	-11857
▁carp	-11858
fol	-11859
▁bars	-11860
▁artery	-11861
▁purple	-11862
isa	-11863
▁Declaration	-11864
onge	-11865
▁Chile	-11866
▁staying	-11867
▁Answer	-11868
▁indication	-11869
▁accumulation	-11870
▁magic	-11871
▁tender	-11872
▁Bah	-11873
▁membership	-11874
▁movies	-11875
▁aspir	-11876
induced	-11877
▁checking	-11878
▁tempt	-11879
▁Fri	-11880
▁Sri	-11881
▁Historic	-11882
▁commemor	-11883
▁basket	-11884
▁Strateg	-11885
▁bottles	-11886
▁contexts	-11887
▁Golden	-11888
▁predictions	-11889
▁crowd	-11890
first	-11891
▁Intelligence	-11892
▁Appl	-11893
▁floating	-11894
annel	-11895
▁hypertension	-11896
iasis	-11897
▁ignor	-11898
ilib	-11899
▁offspring	-11900
▁steep	-11901
olecular	-11902
▁Fat	-11903
roleum	-11904
▁Cru	-11905
▁integrate	-11906
▁premature	-11907
▁kidneys	-11908
▁demonstration	-11909
▁Od	-11910
plus	-11911
▁Buddhism	-11912
▁Armen	-11913
held	-11914
▁searc	-11915
appy	-11916
scill	-11917
▁Cert	-11918
▁thrown	-11919
▁Evidence	-11920
▁raises	-11921
▁introducing	-11922
▁certified	-11923
icul	-11924
▁weren	-11925
▁conceptual	-11926
▁corporations	-11927
▁SD	-11928
▁dirt	-11929
▁refriger	-11930
olescent	-11931
▁gifts	-11932
▁volunteer	-11933
▁unclear	-11934
▁highlighted	-11935
▁nucleus	-11936
▁actors	-11937
▁admit	-11938
otechnology	-11939
abs	-11940
angers	-11941
▁Hell	-11942
▁purchasing	-11943
▁scheduled	-11944
▁Eating	-11945
spe	-11946
ulses	-11947
▁grey	-11948
iotics	-11949
IO	-11950
▁counts	-11951
▁hosts	-11952
93	-11953
▁cement	-11954
▁monitored	-11955
iencies	-11956
▁Lesson	-11957
▁builds	-11958
▁Whit	-11959
▁epit	-11960
▁blockchain	-11961
▁intervals	-11962
▁Definition	-11963
venue	-11964
▁Corporation	-11965
▁blame	-11966
▁margin	-11967
eterm	-11968
forward	-11969
▁Getting	-11970
▁evac	-11971
pur	-11972
igs	-11973
assment	-11974
▁Commer	-11975
▁Adams	-11976
organisms	-11977
▁smok	-11978
▁Words	-11979
▁geographical	-11980
▁worksheet	-11981
▁heated	-11982
▁Joh	-11983
▁butt	-11984
▁Pra	-11985
ingham	-11986
heres	-11987
▁Affairs	-11988
▁circuits	-11989
▁headed	-11990
▁Cust	-11991
▁constitu	-11992
▁omega	-11993
▁cannab	-11994
▁vocal	-11995
▁talked	-11996
▁sore	-11997
▁asset	-11998
hot	-11999
rasound	-12000
▁2000,	-12001
ationally	-12002
▁soldier	-12003
▁twentieth	-12004
▁Innov	-12005
▁locate	-12006
▁2006.	-12007
urred	-12008
▁emergence	-12009
▁Fun	-12010
comp	-12011
▁conform	-12012
▁rou	-12013
▁Ay	-12014
▁intu	-12015
▁Together	-12016
▁updates	-12017
▁Images	-12018
▁tribal	-12019
▁brilliant	-12020
▁Lawrence	-12021
▁practiced	-12022
▁Tal	-12023
lation	-12024
▁fraud	-12025
▁Almost	-12026
▁reliability	-12027
▁rows	-12028
iens	-12029
▁dozen	-12030
▁Games	-12031
▁equity	-12032
▁Block	-12033
fficiency	-12034
▁bike	-12035
estinal	-12036
▁agenda	-12037
velation	-12038
▁Rain	-12039
▁wounded	-12040
tics	-12041
▁cyt	-12042
iciency	-12043
0.0	-12044
warf	-12045
▁Poll	-12046
▁Singapore	-12047
ART	-12048
aying	-12049
▁insulation	-12050
▁geography	-12051
▁tear	-12052
uese	-12053
▁biof	-12054
▁seemingly	-12055
▁whites	-12056
▁coding	-12057
▁Aqu	-12058
▁imported	-12059
▁founding	-12060
urally	-12061
▁inherit	-12062
▁operator	-12063
▁lapt	-12064
▁preference	-12065
▁provinces	-12066
▁radioactive	-12067
jamin	-12068
▁deple	-12069
▁Prevent	-12070
▁basin	-12071
▁ED	-12072
▁Brook	-12073
▁releases	-12074
▁Command	-12075
▁bicy	-12076
▁drew	-12077
▁incidents	-12078
▁interval	-12079
▁Rena	-12080
amma	-12081
▁Pi	-12082
lah	-12083
▁Total	-12084
▁arteries	-12085
▁resident	-12086
▁Brad	-12087
ikh	-12088
▁29,	-12089
▁challenged	-12090
bits	-12091
▁Tu	-12092
▁lean	-12093
▁affirm	-12094
▁feat	-12095
▁Si	-12096
▁databases	-12097
▁Les	-12098
▁illustrations	-12099
immune	-12100
▁railroad	-12101
▁Syn	-12102
▁glory	-12103
sets	-12104
▁voters	-12105
▁rebell	-12106
53	-12107
▁enthusi	-12108
version	-12109
orship	-12110
aline	-12111
▁Chemistry	-12112
▁CL	-12113
▁icon	-12114
cr	-12115
▁servers	-12116
five	-12117
screen	-12118
▁caution	-12119
▁symmet	-12120
▁throne	-12121
▁15.	-12122
▁stimulation	-12123
athic	-12124
▁explosion	-12125
▁Lic	-12126
▁Staff	-12127
▁sphere	-12128
▁constitute	-12129
▁foundations	-12130
odge	-12131
▁Stanford	-12132
▁combining	-12133
▁pharmaceutical	-12134
▁trap	-12135
▁sacrific	-12136
▁presenting	-12137
▁Luke	-12138
▁explores	-12139
▁ger	-12140
▁Hope	-12141
giving	-12142
▁slope	-12143
▁mankind	-12144
iffs	-12145
()	-12146
writing	-12147
▁Hind	-12148
▁winning	-12149
▁decreasing	-12150
▁maternal	-12151
▁extending	-12152
▁Upper	-12153
itzerland	-12154
En	-12155
▁pound	-12156
▁Sci	-12157
▁wax	-12158
▁Pediatric	-12159
▁Country	-12160
▁6:	-12161
po	-12162
olis	-12163
▁Diseases	-12164
▁loads	-12165
▁Bapt	-12166
▁Nobel	-12167
▁requests	-12168
▁ink	-12169
▁edited	-12170
imony	-12171
▁Typically	-12172
▁hate	-12173
▁peaceful	-12174
▁Winter	-12175
▁jet	-12176
▁Muhammad	-12177
▁bes	-12178
▁Immun	-12179
▁Capital	-12180
▁wool	-12181
▁promotion	-12182
▁navigation	-12183
ietal	-12184
▁lacking	-12185
▁Mong	-12186
▁inadequate	-12187
▁ties	-12188
▁combinations	-12189
appropriate	-12190
▁McG	-12191
▁worried	-12192
▁Population	-12193
roach	-12194
▁Archives	-12195
▁Alf	-12196
▁practicing	-12197
▁Consequently	-12198
▁presidential	-12199
▁lact	-12200
▁Mechan	-12201
▁suited	-12202
▁virtue	-12203
▁Financial	-12204
▁intermediate	-12205
▁labeled	-12206
▁Patrick	-12207
▁melan	-12208
▁Deb	-12209
▁tale	-12210
▁sugars	-12211
▁screw	-12212
▁lesser	-12213
▁controversy	-12214
▁tackle	-12215
▁desirable	-12216
▁Box	-12217
▁Coal	-12218
▁Agricultural	-12219
▁Trib	-12220
▁177	-12221
▁Tour	-12222
uant	-12223
▁bore	-12224
▁Cass	-12225
▁olive	-12226
▁mosquito	-12227
ighters	-12228
▁Imperial	-12229
▁menstru	-12230
▁exams	-12231
▁customs	-12232
jan	-12233
kh	-12234
▁exert	-12235
▁mixing	-12236
▁Bangladesh	-12237
▁Beyond	-12238
▁CM	-12239
▁unders	-12240
▁Cab	-12241
lav	-12242
hend	-12243
▁Ross	-12244
▁AB	-12245
▁Jordan	-12246
▁veterin	-12247
ropolitan	-12248
▁observing	-12249
▁informal	-12250
arb	-12251
erves	-12252
▁surviving	-12253
▁constraints	-12254
aments	-12255
▁headache	-12256
vance	-12257
▁Iowa	-12258
▁fart	-12259
▁breakdown	-12260
▁completing	-12261
▁Wy	-12262
▁marker	-12263
▁Literature	-12264
▁imagery	-12265
▁disciplines	-12266
angular	-12267
▁socially	-12268
▁passengers	-12269
alin	-12270
▁(197	-12271
▁ozone	-12272
▁bitter	-12273
unciation	-12274
▁intestinal	-12275
▁melting	-12276
▁carrier	-12277
▁terrible	-12278
▁consultation	-12279
▁explanations	-12280
ni	-12281
backs	-12282
▁undertaken	-12283
▁1-	-12284
▁182	-12285
▁triggers	-12286
▁wells	-12287
▁contra	-12288
▁quot	-12289
iscal	-12290
▁compete	-12291
▁Sant	-12292
oths	-12293
▁Prophet	-12294
▁Activity	-12295
bet	-12296
▁Syndrome	-12297
▁Looking	-12298
▁breakfast	-12299
▁inquiry	-12300
▁investigations	-12301
arms	-12302
▁fees	-12303
▁inputs	-12304
▁Turkish	-12305
▁Astronom	-12306
▁Greeks	-12307
cedented	-12308
fat	-12309
▁forgotten	-12310
zens	-12311
arity	-12312
▁Travel	-12313
▁briefly	-12314
▁Past	-12315
▁environmentally	-12316
▁sho	-12317
▁2018.	-12318
▁pigs	-12319
▁wast	-12320
matic	-12321
▁Game	-12322
▁automated	-12323
▁missed	-12324
arbon	-12325
supp	-12326
▁Wolf	-12327
▁Tell	-12328
▁symbolic	-12329
▁occasions	-12330
▁Editor	-12331
▁compression	-12332
incial	-12333
asis	-12334
uma	-12335
▁commander	-12336
▁reforms	-12337
▁rating	-12338
ersion	-12339
▁dated	-12340
▁Renaissance	-12341
▁spite	-12342
▁saturated	-12343
asted	-12344
▁divor	-12345
▁banking	-12346
nty	-12347
▁Eat	-12348
▁Regional	-12349
▁firstname	-12350
mill	-12351
▁worlds	-12352
▁impaired	-12353
▁antioxidants	-12354
▁attending	-12355
ova	-12356
▁titles	-12357
▁graphics	-12358
▁voluntary	-12359
osures	-12360
▁artifacts	-12361
▁legislative	-12362
eu	-12363
▁operates	-12364
▁advocate	-12365
▁eligible	-12366
▁Dak	-12367
▁warrant	-12368
parent	-12369
▁cups	-12370
ijuana	-12371
tein	-12372
▁TB	-12373
was	-12374
▁declar	-12375
▁USDA	-12376
▁Genesis	-12377
▁Hal	-12378
▁4-	-12379
▁slower	-12380
▁trips	-12381
▁Maine	-12382
▁seats	-12383
▁editing	-12384
▁Territ	-12385
▁todd	-12386
istence	-12387
enus	-12388
▁microbes	-12389
▁modes	-12390
So	-12391
▁Anth	-12392
▁norms	-12393
▁Toronto	-12394
▁Loc	-12395
▁readings	-12396
▁Link	-12397
▁Holocaust	-12398
▁Frequ	-12399
▁’	-12400
▁chat	-12401
▁caring	-12402
▁entertainment	-12403
pective	-12404
▁Fortunately	-12405
▁preferences	-12406
itar	-12407
▁elevation	-12408
ollo	-12409
▁closing	-12410
▁lesions	-12411
adays	-12412
▁variability	-12413
▁champ	-12414
▁retreat	-12415
ods	-12416
▁admin	-12417
▁surely	-12418
▁emperor	-12419
rosion	-12420
▁Switzerland	-12421
▁recru	-12422
▁bridges	-12423
▁careers	-12424
▁Newton	-12425
▁58	-12426
▁Protect	-12427
▁extracted	-12428
cription	-12429
▁Democr	-12430
▁modify	-12431
▁Nurs	-12432
▁noble	-12433
▁scattered	-12434
▁ecology	-12435
▁confined	-12436
▁Aboriginal	-12437
▁lining	-12438
ARS	-12439
▁tries	-12440
PM	-12441
▁cows	-12442
▁Austria	-12443
▁unhealthy	-12444
▁modest	-12445
aughters	-12446
▁railway	-12447
▁Dental	-12448
rubs	-12449
▁delayed	-12450
mus	-12451
:10.10	-12452
▁advocates	-12453
erenn	-12454
▁calculation	-12455
rained	-12456
▁Hou	-12457
▁remembered	-12458
▁realm	-12459
▁panic	-12460
▁negatively	-12461
▁segments	-12462
▁proclaim	-12463
▁lateral	-12464
▁systemic	-12465
lux	-12466
▁similarly	-12467
▁ly	-12468
▁neurological	-12469
▁ok	-12470
lementary	-12471
FA	-12472
▁altitude	-12473
▁pulse	-12474
▁deemed	-12475
▁spont	-12476
▁prejud	-12477
▁10.10	-12478
▁assessing	-12479
▁altogether	-12480
▁grat	-12481
▁melt	-12482
ovenant	-12483
UD	-12484
▁unpre	-12485
▁Benjamin	-12486
▁creature	-12487
▁ruler	-12488
▁Easter	-12489
▁sensation	-12490
▁Hans	-12491
▁gang	-12492
▁tomb	-12493
▁Protocol	-12494
▁eliminated	-12495
▁landf	-12496
▁tuber	-12497
▁56	-12498
▁median	-12499
forestation	-12500
▁interference	-12501
▁naval	-12502
▁lenses	-12503
olia	-12504
regn	-12505
▁certification	-12506
▁newborn	-12507
ilibrium	-12508
▁Gi	-12509
▁ty	-12510
▁SA	-12511
▁notably	-12512
▁permits	-12513
▁Simon	-12514
resses	-12515
▁workshops	-12516
▁Orthodox	-12517
▁placement	-12518
▁HTML	-12519
▁Stock	-12520
iously	-12521
▁plastics	-12522
▁reinforce	-12523
edge	-12524
▁gay	-12525
▁dysfunction	-12526
▁Syd	-12527
▁pneumonia	-12528
rosis	-12529
▁evaluating	-12530
▁inability	-12531
▁votes	-12532
uate	-12533
▁intact	-12534
▁extinct	-12535
▁fundament	-12536
▁wires	-12537
▁delight	-12538
asia	-12539
▁travels	-12540
cat	-12541
▁Mosc	-12542
▁Prob	-12543
atherine	-12544
▁silent	-12545
▁currents	-12546
▁concentrate	-12547
▁separately	-12548
eton	-12549
▁MIT	-12550
eman	-12551
▁shifts	-12552
▁nausea	-12553
▁stayed	-12554
▁Soil	-12555
▁crystal	-12556
imity	-12557
▁insufficient	-12558
▁Leaders	-12559
▁Methods	-12560
▁Function	-12561
erto	-12562
dam	-12563
Eng	-12564
opter	-12565
▁sword	-12566
▁pronounced	-12567
▁journals	-12568
▁similarities	-12569
▁relies	-12570
▁subur	-12571
▁fired	-12572
▁priests	-12573
▁Nigeria	-12574
▁pole	-12575
▁agreements	-12576
▁employer	-12577
▁selecting	-12578
▁Anderson	-12579
▁Would	-12580
▁dwell	-12581
01	-12582
▁crossed	-12583
▁dependence	-12584
▁Cuba	-12585
▁Wel	-12586
itives	-12587
irtual	-12588
ulent	-12589
▁lighter	-12590
▁Mathematics	-12591
▁Portuguese	-12592
Read	-12593
▁activists	-12594
▁implant	-12595
names	-12596
▁loaded	-12597
PubMed	-12598
▁triggered	-12599
▁perceive	-12600
▁legitimate	-12601
yers	-12602
▁safegu	-12603
▁strictly	-12604
▁Israeli	-12605
▁depicted	-12606
▁freshwater	-12607
icut	-12608
▁freed	-12609
vo	-12610
▁Torah	-12611
▁thumb	-12612
▁obstacles	-12613
▁withdrawal	-12614
tically	-12615
▁Upon	-12616
▁sor	-12617
▁probe	-12618
▁GPS	-12619
▁Alcohol	-12620
▁edit	-12621
▁coronavirus	-12622
reas	-12623
▁divisions	-12624
oT	-12625
▁truck	-12626
▁1994	-12627
▁2017,	-12628
▁recur	-12629
ierce	-12630
▁banned	-12631
▁Success	-12632
ethyl	-12633
▁fool	-12634
illery	-12635
two	-12636
▁Eventually	-12637
▁bapt	-12638
▁artic	-12639
▁glasses	-12640
▁PS	-12641
▁exclusive	-12642
bled	-12643
obacter	-12644
aran	-12645
▁Authority	-12646
▁radar	-12647
▁EC	-12648
▁Beach	-12649
▁Excel	-12650
▁wetlands	-12651
54	-12652
▁Aer	-12653
▁Malays	-12654
May	-12655
letal	-12656
▁Aristot	-12657
▁bowl	-12658
▁bulbs	-12659
▁harmony	-12660
▁Berkeley	-12661
▁interfere	-12662
kg	-12663
▁unprecedented	-12664
▁2004,	-12665
▁screens	-12666
▁700	-12667
▁unst	-12668
▁inclusive	-12669
▁cultivation	-12670
▁retrie	-12671
▁Anton	-12672
km	-12673
▁uncons	-12674
▁Hun	-12675
▁navigate	-12676
▁bats	-12677
▁Ow	-12678
ocytes	-12679
▁behave	-12680
▁judges	-12681
wind	-12682
▁AF	-12683
bial	-12684
lict	-12685
▁races	-12686
▁inspire	-12687
▁revised	-12688
▁99	-12689
▁citizenship	-12690
▁breeds	-12691
▁Workshe	-12692
GA	-12693
ths	-12694
olutions	-12695
zech	-12696
▁template	-12697
▁Reference	-12698
▁toll	-12699
▁Hug	-12700
▁stir	-12701
▁grocer	-12702
resistant	-12703
▁titled	-12704
▁Accessed	-12705
▁Bishop	-12706
▁Ps	-12707
▁scarce	-12708
▁Regular	-12709
▁continually	-12710
▁indo	-12711
▁jurisdiction	-12712
▁registration	-12713
▁strip	-12714
▁synthes	-12715
▁toilet	-12716
▁combustion	-12717
▁accommodate	-12718
▁Ara	-12719
▁fits	-12720
▁Focus	-12721
57	-12722
▁secular	-12723
▁pyram	-12724
▁lets	-12725
ben	-12726
post	-12727
PL	-12728
800	-12729
olit	-12730
▁Police	-12731
▁Allen	-12732
▁lasted	-12733
▁monetary	-12734
▁5-	-12735
▁individ	-12736
▁modules	-12737
rea	-12738
▁snakes	-12739
▁strikes	-12740
▁proc	-12741
▁Better	-12742
▁10-	-12743
▁weeds	-12744
ucks	-12745
▁erad	-12746
▁generator	-12747
▁praise	-12748
▁grad	-12749
▁explicitly	-12750
62	-12751
▁impairment	-12752
bin	-12753
owed	-12754
▁impacted	-12755
▁gel	-12756
▁billions	-12757
▁Course	-12758
▁teachings	-12759
dig	-12760
bird	-12761
▁Sel	-12762
▁Skills	-12763
▁Testing	-12764
▁Title	-12765
▁burial	-12766
▁Ground	-12767
▁fusion	-12768
▁tet	-12769
energy	-12770
▁autumn	-12771
rade	-12772
▁intens	-12773
eded	-12774
▁certificate	-12775
▁charts	-12776
▁workforce	-12777
▁Parkinson	-12778
ressions	-12779
intestinal	-12780
▁transcript	-12781
▁poultry	-12782
52	-12783
▁Share	-12784
onics	-12785
▁wounds	-12786
▁longest	-12787
▁Ros	-12788
▁brut	-12789
▁trains	-12790
▁alleg	-12791
▁activated	-12792
▁Compan	-12793
Col	-12794
okes	-12795
▁parasites	-12796
▁offset	-12797
▁Douglas	-12798
pher	-12799
▁Esp	-12800
▁(2010	-12801
▁Technical	-12802
▁statue	-12803
▁veins	-12804
arency	-12805
oping	-12806
▁fungus	-12807
▁checks	-12808
▁mush	-12809
▁worms	-12810
▁surroundings	-12811
▁joining	-12812
esthes	-12813
▁positively	-12814
▁illum	-12815
▁warned	-12816
▁chemotherapy	-12817
▁antioxidant	-12818
▁knock	-12819
dered	-12820
▁Southeast	-12821
▁scrap	-12822
▁fossils	-12823
▁lawn	-12824
▁therapist	-12825
▁Beng	-12826
amel	-12827
▁retained	-12828
▁consolid	-12829
▁guilty	-12830
▁tablets	-12831
▁destructive	-12832
▁silicon	-12833
▁descendants	-12834
▁Mas	-12835
▁paste	-12836
▁juven	-12837
▁mast	-12838
▁transported	-12839
▁coating	-12840
▁upset	-12841
▁pointing	-12842
▁Hyp	-12843
▁dispute	-12844
▁ank	-12845
▁identifies	-12846
▁Alliance	-12847
HT	-12848
ashing	-12849
▁desper	-12850
▁collaps	-12851
▁Causes	-12852
▁Ms	-12853
▁oct	-12854
▁2005.	-12855
▁comprised	-12856
▁footprint	-12857
▁autonomous	-12858
▁orth	-12859
▁CF	-12860
roups	-12861
▁achievements	-12862
▁Recently	-12863
▁outstanding	-12864
▁130	-12865
heum	-12866
▁peas	-12867
lies	-12868
▁airpl	-12869
▁Term	-12870
▁mosquitoes	-12871
rock	-12872
▁extensively	-12873
▁vic	-12874
▁2003,	-12875
PC	-12876
rophy	-12877
▁directory	-12878
▁seas	-12879
▁(9	-12880
▁Sin	-12881
▁Moscow	-12882
▁Fif	-12883
wealth	-12884
▁Annual	-12885
▁underm	-12886
▁sake	-12887
▁trapped	-12888
▁eliminating	-12889
ixed	-12890
▁cock	-12891
▁Chronic	-12892
▁Roc	-12893
▁functionality	-12894
▁examines	-12895
▁standardized	-12896
▁rehabilitation	-12897
▁mitochond	-12898
▁Philosophy	-12899
amous	-12900
▁Oak	-12901
▁Moore	-12902
ugar	-12903
-11	-12904
▁Fried	-12905
otional	-12906
MD	-12907
ometric	-12908
fortable	-12909
▁activation	-12910
▁Burn	-12911
itational	-12912
61	-12913
▁legally	-12914
nee	-12915
▁Bed	-12916
stan	-12917
▁inspection	-12918
▁inval	-12919
aga	-12920
▁Protestant	-12921
▁Return	-12922
▁Improve	-12923
▁dissolved	-12924
▁threatening	-12925
▁layout	-12926
▁Conserv	-12927
▁Dick	-12928
irk	-12929
▁considers	-12930
▁Dal	-12931
▁traces	-12932
▁Ukraine	-12933
unes	-12934
▁critics	-12935
▁ana	-12936
third	-12937
▁blocked	-12938
▁Tech	-12939
▁planes	-12940
▁Song	-12941
dy	-12942
▁sink	-12943
▁ore	-12944
▁millenn	-12945
uated	-12946
▁bod	-12947
▁crafts	-12948
▁Skin	-12949
ocide	-12950
▁sends	-12951
▁microbial	-12952
▁warfare	-12953
▁regards	-12954
▁acknowledged	-12955
ellar	-12956
▁dump	-12957
▁afterwards	-12958
▁landscapes	-12959
▁grab	-12960
▁Determ	-12961
▁Initiative	-12962
▁yog	-12963
▁luck	-12964
▁Higher	-12965
▁surgeon	-12966
otive	-12967
▁deployed	-12968
four	-12969
▁stretching	-12970
pers	-12971
▁Award	-12972
▁Economics	-12973
▁generates	-12974
▁conception	-12975
opor	-12976
oriented	-12977
▁diesel	-12978
▁Night	-12979
▁eternal	-12980
▁54	-12981
eps	-12982
▁inevitable	-12983
▁settlements	-12984
pler	-12985
▁gallons	-12986
▁intrig	-12987
ogenesis	-12988
▁Bud	-12989
▁sixth	-12990
▁transit	-12991
▁Sarah	-12992
ryption	-12993
oard	-12994
▁Sydney	-12995
▁16.	-12996
▁ports	-12997
▁outbreaks	-12998
Com	-12999
▁disabled	-13000
len	-13001
▁Biological	-13002
▁patches	-13003
▁Lanc	-13004
▁bip	-13005
▁packed	-13006
ORD	-13007
▁remedy	-13008
▁Poor	-13009
▁Swedish	-13010
▁passages	-13011
▁shells	-13012
▁damp	-13013
marks	-13014
▁binary	-13015
▁EL	-13016
▁Pack	-13017
▁rum	-13018
▁Publ	-13019
▁innovations	-13020
▁prosperity	-13021
rones	-13022
ulture	-13023
▁refined	-13024
▁displace	-13025
▁Imagine	-13026
▁soda	-13027
proof	-13028
▁info	-13029
▁ranks	-13030
▁damages	-13031
▁hoped	-13032
▁evolve	-13033
aman	-13034
▁cous	-13035
▁lux	-13036
▁subjected	-13037
▁stain	-13038
▁Hart	-13039
▁2020.	-13040
▁competing	-13041
▁18.	-13042
▁economically	-13043
▁watched	-13044
▁critically	-13045
imb	-13046
erk	-13047
▁uncommon	-13048
DC	-13049
▁cel	-13050
▁besides	-13051
▁neurot	-13052
▁Nuclear	-13053
87	-13054
esteem	-13055
▁Ts	-13056
idth	-13057
▁bench	-13058
imination	-13059
oz	-13060
▁mechanics	-13061
▁Universe	-13062
▁somehow	-13063
▁ate	-13064
▁coupled	-13065
▁cultivated	-13066
▁Bron	-13067
▁rival	-13068
▁(7	-13069
▁sequencing	-13070
▁Dh	-13071
▁flowering	-13072
▁Haz	-13073
note	-13074
▁Pharm	-13075
▁retention	-13076
▁wolf	-13077
▁Brig	-13078
▁piano	-13079
▁recognised	-13080
▁shooting	-13081
tr	-13082
▁Wright	-13083
▁Pos	-13084
▁toxicity	-13085
▁pour	-13086
▁TR	-13087
bone	-13088
▁outlined	-13089
▁IL	-13090
▁strat	-13091
mates	-13092
▁whale	-13093
▁Region	-13094
aron	-13095
raul	-13096
▁invisible	-13097
▁transaction	-13098
▁inserted	-13099
▁municipal	-13100
▁Industry	-13101
▁Loss	-13102
oglob	-13103
▁Mun	-13104
▁linguistic	-13105
aus	-13106
▁True	-13107
▁grasp	-13108
▁disappeared	-13109
▁jack	-13110
▁factories	-13111
▁microbi	-13112
▁Nev	-13113
▁72	-13114
only	-13115
uction	-13116
▁attribute	-13117
▁myths	-13118
▁downt	-13119
▁Problems	-13120
▁witnessed	-13121
▁Members	-13122
▁silk	-13123
rish	-13124
▁Hamilton	-13125
▁drilling	-13126
50,	-13127
▁Weather	-13128
onduct	-13129
▁quoted	-13130
vas	-13131
▁opio	-13132
▁stro	-13133
▁weed	-13134
▁Cand	-13135
▁liber	-13136
▁Multiple	-13137
▁hungry	-13138
▁tomatoes	-13139
idel	-13140
pin	-13141
▁restaurants	-13142
powered	-13143
▁exploitation	-13144
▁Explain	-13145
▁Der	-13146
usions	-13147
aza	-13148
chi	-13149
▁unsu	-13150
▁Walter	-13151
uin	-13152
lahoma	-13153
rost	-13154
Im	-13155
Pe	-13156
▁1).	-13157
adi	-13158
▁Dog	-13159
▁designer	-13160
▁vulnerability	-13161
▁centres	-13162
ennis	-13163
lan	-13164
ili	-13165
avy	-13166
ambo	-13167
▁promises	-13168
▁watershed	-13169
▁coh	-13170
hematic	-13171
▁isot	-13172
ipse	-13173
▁publishing	-13174
▁Activities	-13175
imore	-13176
▁rolling	-13177
Tube	-13178
▁tears	-13179
▁illustrates	-13180
▁LGBT	-13181
rehend	-13182
▁ram	-13183
▁q	-13184
▁52	-13185
▁floods	-13186
▁recipe	-13187
▁failing	-13188
▁Bos	-13189
▁jun	-13190
▁individually	-13191
▁cum	-13192
ppers	-13193
ulatory	-13194
▁gardening	-13195
▁baseline	-13196
ilies	-13197
plicit	-13198
▁requested	-13199
▁disse	-13200
▁Gand	-13201
▁prediction	-13202
▁prelim	-13203
▁Harry	-13204
▁purely	-13205
▁Basin	-13206
▁Too	-13207
▁Emergency	-13208
▁maintains	-13209
▁unconscious	-13210
▁sufficiently	-13211
ige	-13212
▁bon	-13213
▁frames	-13214
▁plug	-13215
▁amph	-13216
▁odds	-13217
▁hasn	-13218
▁negotiations	-13219
▁berries	-13220
▁primitive	-13221
eech	-13222
▁abdomen	-13223
▁enroll	-13224
▁asbestos	-13225
▁compromise	-13226
htm	-13227
▁0.5	-13228
▁cram	-13229
▁struggles	-13230
▁accordingly	-13231
▁temporal	-13232
▁Software	-13233
ania	-13234
▁cruel	-13235
▁wheels	-13236
▁instructional	-13237
educ	-13238
▁orch	-13239
phen	-13240
▁enrich	-13241
▁Denmark	-13242
▁Connecticut	-13243
cerpt	-13244
0000	-13245
▁plural	-13246
▁parish	-13247
▁monaster	-13248
▁assass	-13249
Ab	-13250
▁CON	-13251
▁solved	-13252
▁dozens	-13253
▁potato	-13254
▁cater	-13255
roscience	-13256
▁ventilation	-13257
ifiers	-13258
▁problematic	-13259
▁MRI	-13260
▁tourists	-13261
▁Apart	-13262
▁Gram	-13263
▁pumps	-13264
▁Could	-13265
▁Czech	-13266
articles	-13267
▁sanct	-13268
▁biblical	-13269
▁formerly	-13270
▁intestine	-13271
▁Weight	-13272
▁Snow	-13273
▁matching	-13274
lihood	-13275
ensing	-13276
▁walked	-13277
▁appreciation	-13278
▁31,	-13279
itime	-13280
▁Proceed	-13281
ignty	-13282
▁unions	-13283
▁Heat	-13284
bound	-13285
▁instructor	-13286
acerb	-13287
threat	-13288
▁consec	-13289
▁Simple	-13290
▁triangle	-13291
▁Complete	-13292
▁traumatic	-13293
wich	-13294
pose	-13295
▁Summary	-13296
▁publish	-13297
▁temples	-13298
▁tutorial	-13299
▁drill	-13300
▁gasoline	-13301
ierra	-13302
alling	-13303
▁Einstein	-13304
▁Extension	-13305
▁diamond	-13306
inar	-13307
▁Nan	-13308
▁monarch	-13309
▁emphasize	-13310
▁ants	-13311
▁Magazine	-13312
▁Notes	-13313
▁preliminary	-13314
▁priorit	-13315
▁Dry	-13316
▁macro	-13317
▁Hait	-13318
▁rash	-13319
▁sour	-13320
▁microscope	-13321
▁oscill	-13322
▁succ	-13323
▁riding	-13324
▁Professional	-13325
▁Dark	-13326
▁astronomers	-13327
▁earthquakes	-13328
▁arrangements	-13329
▁mant	-13330
▁failures	-13331
adows	-13332
Can	-13333
▁terrain	-13334
▁aug	-13335
-17	-13336
sels	-13337
▁rhet	-13338
▁voy	-13339
▁clinic	-13340
▁adjusted	-13341
izoph	-13342
▁friction	-13343
▁suspended	-13344
4-	-13345
ui	-13346
▁prototype	-13347
▁folks	-13348
▁Autom	-13349
▁cervical	-13350
▁investing	-13351
▁connects	-13352
▁infrared	-13353
atics	-13354
▁appliances	-13355
▁Traditional	-13356
▁110	-13357
▁posture	-13358
▁NI	-13359
▁investigating	-13360
▁seizures	-13361
▁51	-13362
▁Communist	-13363
▁Plus	-13364
▁mobil	-13365
▁anxious	-13366
uliar	-13367
mind	-13368
▁questionna	-13369
▁Palestine	-13370
MM	-13371
alue	-13372
▁Europeans	-13373
▁embrace	-13374
▁Problem	-13375
▁compiled	-13376
SE	-13377
▁cortex	-13378
▁Ltd	-13379
month	-13380
▁excluded	-13381
▁dot	-13382
▁permanently	-13383
▁metaphor	-13384
▁satisfied	-13385
▁valued	-13386
ouTube	-13387
▁palace	-13388
▁delicate	-13389
▁untreated	-13390
▁forcing	-13391
▁strings	-13392
▁stocks	-13393
ictorian	-13394
▁Legisl	-13395
▁RF	-13396
▁gently	-13397
Lear	-13398
▁dignity	-13399
artz	-13400
imental	-13401
bes	-13402
▁Run	-13403
▁schemes	-13404
▁trunk	-13405
▁delivering	-13406
▁PRO	-13407
izophren	-13408
▁Oklahoma	-13409
▁recommendation	-13410
▁approaching	-13411
▁Lakes	-13412
92	-13413
▁utilizing	-13414
▁gluten	-13415
don	-13416
▁Salt	-13417
▁2000.	-13418
▁Citiz	-13419
▁spirits	-13420
path	-13421
▁Ever	-13422
▁Prep	-13423
▁uncomfortable	-13424
▁File	-13425
reach	-13426
ocene	-13427
3-	-13428
▁Fox	-13429
▁likes	-13430
pres	-13431
▁civilian	-13432
▁Saturn	-13433
▁acet	-13434
▁wastewater	-13435
arming	-13436
▁dos	-13437
▁Joint	-13438
▁deficit	-13439
▁2001,	-13440
▁variants	-13441
▁perceptions	-13442
▁Partners	-13443
▁Eu	-13444
▁electromagnetic	-13445
ueens	-13446
▁handful	-13447
▁Fest	-13448
▁Apollo	-13449
otine	-13450
▁Live	-13451
▁elite	-13452
▁countless	-13453
ector	-13454
ensions	-13455
▁urgent	-13456
▁resolved	-13457
aux	-13458
esty	-13459
▁Disorder	-13460
▁sits	-13461
ancies	-13462
▁intim	-13463
▁supportive	-13464
test	-13465
▁passenger	-13466
▁modification	-13467
▁rip	-13468
▁draws	-13469
▁descent	-13470
site	-13471
▁seaf	-13472
vol	-13473
ioned	-13474
▁Frederick	-13475
▁substrate	-13476
▁peripheral	-13477
▁energ	-13478
week	-13479
othel	-13480
▁portable	-13481
▁oak	-13482
▁incentives	-13483
▁Pred	-13484
culosis	-13485
▁Camb	-13486
▁Record	-13487
▁Stage	-13488
pit	-13489
▁RA	-13490
▁queen	-13491
▁stopping	-13492
▁attachment	-13493
driven	-13494
▁ammon	-13495
▁frost	-13496
▁remedies	-13497
▁Foot	-13498
▁Graph	-13499
▁traff	-13500
▁oun	-13501
▁harvesting	-13502
▁landed	-13503
▁allev	-13504
▁secured	-13505
dem	-13506
John	-13507
▁editors	-13508
▁organizational	-13509
ante	-13510
▁instinct	-13511
▁empathy	-13512
▁obtaining	-13513
▁sins	-13514
▁Lank	-13515
▁mad	-13516
▁hes	-13517
bitious	-13518
plicity	-13519
▁episodes	-13520
▁Creating	-13521
coma	-13522
▁arsen	-13523
▁nurt	-13524
▁hub	-13525
▁Cov	-13526
acity	-13527
▁Growth	-13528
▁exacerb	-13529
▁Anglo	-13530
Ds	-13531
rative	-13532
▁Sports	-13533
some	-13534
▁bulb	-13535
cha	-13536
uz	-13537
insic	-13538
retion	-13539
▁burns	-13540
▁Dra	-13541
.(	-13542
▁translate	-13543
▁troubles	-13544
▁nasal	-13545
▁Christopher	-13546
▁rigid	-13547
via	-13548
▁lin	-13549
▁metall	-13550
▁lectures	-13551
▁demanding	-13552
▁Ens	-13553
▁Thom	-13554
▁reproduce	-13555
▁140	-13556
▁stamp	-13557
esar	-13558
▁Alexand	-13559
ailand	-13560
▁heading	-13561
log	-13562
uncture	-13563
▁teenagers	-13564
bling	-13565
ricular	-13566
▁DS	-13567
oporosis	-13568
▁inventory	-13569
▁eager	-13570
▁wolves	-13571
▁counterparts	-13572
▁Gib	-13573
▁bureau	-13574
ynthesis	-13575
▁horizon	-13576
tech	-13577
▁drum	-13578
▁Wang	-13579
▁pressing	-13580
▁presentations	-13581
▁Wi	-13582
▁Description	-13583
▁Late	-13584
autions	-13585
▁underwater	-13586
amation	-13587
▁indoors	-13588
▁Alber	-13589
▁66	-13590
▁Lev	-13591
▁induce	-13592
dependent	-13593
▁fans	-13594
With	-13595
▁Jenn	-13596
▁asym	-13597
emen	-13598
axis	-13599
▁wellbeing	-13600
▁Recomm	-13601
▁reconstruct	-13602
▁Cos	-13603
▁grazing	-13604
▁modifications	-13605
▁drying	-13606
depth	-13607
▁signature	-13608
▁priorities	-13609
Table	-13610
ulse	-13611
▁mas	-13612
▁unwanted	-13613
▁variant	-13614
▁potent	-13615
▁NA	-13616
▁lowering	-13617
▁4)	-13618
estab	-13619
ysics	-13620
▁urinary	-13621
▁crystals	-13622
▁Howard	-13623
▁retired	-13624
▁Northwest	-13625
4:	-13626
home	-13627
▁Bitcoin	-13628
stock	-13629
▁cargo	-13630
▁bloom	-13631
ipt	-13632
▁moder	-13633
▁Nile	-13634
▁Price	-13635
▁consistency	-13636
▁strengthening	-13637
▁acidic	-13638
rator	-13639
▁feathers	-13640
▁keyboard	-13641
▁wishes	-13642
▁DE	-13643
▁elaborate	-13644
▁Babylon	-13645
▁balls	-13646
▁companion	-13647
hang	-13648
▁tourist	-13649
▁combines	-13650
erce	-13651
vasive	-13652
▁URL	-13653
▁hoping	-13654
▁tragedy	-13655
▁Critical	-13656
▁ecl	-13657
▁Peru	-13658
sight	-13659
▁allies	-13660
▁Temper	-13661
▁Consult	-13662
▁sexually	-13663
▁litter	-13664
▁birthday	-13665
endix	-13666
By	-13667
▁Brand	-13668
food	-13669
▁homeless	-13670
▁proposals	-13671
▁everybody	-13672
▁recipes	-13673
ository	-13674
▁recruit	-13675
▁nationwide	-13676
onut	-13677
▁trillion	-13678
roximately	-13679
▁specify	-13680
▁clot	-13681
▁goddess	-13682
▁exceptional	-13683
▁Proceedings	-13684
▁Gospel	-13685
ophers	-13686
▁incons	-13687
▁appropriately	-13688
▁offensive	-13689
▁bug	-13690
▁respondents	-13691
▁97	-13692
▁washed	-13693
▁10:	-13694
▁1992	-13695
▁illustration	-13696
▁hob	-13697
achelor	-13698
▁perenn	-13699
▁alignment	-13700
ATE	-13701
▁dolph	-13702
▁conditioning	-13703
▁Content	-13704
PE	-13705
▁arises	-13706
edic	-13707
illes	-13708
▁apples	-13709
hol	-13710
rots	-13711
▁Delhi	-13712
cellular	-13713
▁analytical	-13714
▁shame	-13715
▁flee	-13716
▁2002,	-13717
▁livelihood	-13718
▁Academic	-13719
stud	-13720
▁aggression	-13721
.3	-13722
▁adhes	-13723
▁pursuit	-13724
▁Join	-13725
pha	-13726
▁networking	-13727
▁formally	-13728
second	-13729
aceous	-13730
inging	-13731
▁pipeline	-13732
▁harvested	-13733
▁Organic	-13734
▁mysterious	-13735
▁wre	-13736
▁CC	-13737
abase	-13738
▁Document	-13739
▁learner	-13740
▁Foods	-13741
▁Margaret	-13742
ims	-13743
utenant	-13744
anny	-13745
piece	-13746
ilingual	-13747
▁desires	-13748
▁formats	-13749
▁harness	-13750
AND	-13751
iolence	-13752
▁Federation	-13753
▁USS	-13754
▁Lef	-13755
▁highway	-13756
▁clarity	-13757
▁iod	-13758
▁Animals	-13759
-16	-13760
▁Tob	-13761
▁lion	-13762
▁Curriculum	-13763
▁Ig	-13764
▁Occup	-13765
▁Amb	-13766
▁carved	-13767
▁7:	-13768
vised	-13769
▁Nelson	-13770
count	-13771
▁Marshall	-13772
▁dwarf	-13773
▁sie	-13774
source	-13775
▁Chair	-13776
urities	-13777
tha	-13778
▁sulfur	-13779
▁57	-13780
ocur	-13781
▁infest	-13782
itated	-13783
agrams	-13784
BL	-13785
▁vascular	-13786
▁Chi	-13787
▁arom	-13788
▁parameter	-13789
▁supporters	-13790
▁adventure	-13791
▁microorganisms	-13792
▁deriv	-13793
▁charity	-13794
▁8:	-13795
building	-13796
▁antibody	-13797
▁breakthrough	-13798
▁freezing	-13799
▁peculiar	-13800
▁alternate	-13801
▁sanitation	-13802
▁blade	-13803
leans	-13804
▁reactor	-13805
pack	-13806
▁inferior	-13807
▁Measure	-13808
▁stimuli	-13809
▁Eve	-13810
▁judicial	-13811
▁capitalism	-13812
▁disappoint	-13813
▁Eye	-13814
▁rept	-13815
▁Changes	-13816
som	-13817
alia	-13818
▁wherever	-13819
▁rulers	-13820
prot	-13821
▁Abs	-13822
zes	-13823
odus	-13824
eget	-13825
▁straightforward	-13826
▁singular	-13827
▁Planet	-13828
aunt	-13829
▁utter	-13830
▁Napole	-13831
▁assembled	-13832
cils	-13833
▁Soon	-13834
hou	-13835
▁strongest	-13836
▁puzzle	-13837
adian	-13838
▁Bull	-13839
▁petition	-13840
▁Hi	-13841
▁daughters	-13842
herence	-13843
astically	-13844
Te	-13845
▁empirical	-13846
▁congest	-13847
ardo	-13848
▁shops	-13849
mi	-13850
▁rust	-13851
▁thou	-13852
▁watering	-13853
▁farther	-13854
▁interven	-13855
▁disciples	-13856
▁occasional	-13857
group	-13858
▁tonnes	-13859
▁cruc	-13860
▁bush	-13861
ifiable	-13862
▁Cas	-13863
irie	-13864
▁membranes	-13865
▁Domin	-13866
▁drama	-13867
▁algebra	-13868
▁defence	-13869
ulph	-13870
▁Dakota	-13871
isan	-13872
ivic	-13873
▁Say	-13874
▁comprises	-13875
▁likewise	-13876
overs	-13877
▁68	-13878
▁beverages	-13879
TSD	-13880
▁microw	-13881
houses	-13882
▁Spect	-13883
▁charging	-13884
hew	-13885
▁170	-13886
▁Rot	-13887
▁Parks	-13888
▁masks	-13889
▁53	-13890
▁bol	-13891
▁crude	-13892
▁silence	-13893
▁parental	-13894
lad	-13895
▁Base	-13896
▁touching	-13897
▁Cart	-13898
▁exceptions	-13899
▁documentary	-13900
▁appar	-13901
doc	-13902
▁MO	-13903
▁Calcul	-13904
▁Truth	-13905
▁Thailand	-13906
uning	-13907
▁specimen	-13908
▁reflecting	-13909
expensive	-13910
▁supervision	-13911
▁portrait	-13912
▁electroly	-13913
▁obligations	-13914
uter	-13915
▁letting	-13916
ulas	-13917
▁fitted	-13918
▁ambitious	-13919
▁shelf	-13920
ograms	-13921
51	-13922
▁lasts	-13923
▁bullet	-13924
▁adaptive	-13925
▁Ottoman	-13926
▁HE	-13927
rod	-13928
ilage	-13929
neath	-13930
▁temporarily	-13931
▁climb	-13932
▁Aristotle	-13933
▁abnormalities	-13934
▁producer	-13935
▁prohibited	-13936
-30	-13937
▁2004.	-13938
▁curiosity	-13939
▁museums	-13940
▁pm	-13941
IE	-13942
▁flux	-13943
pop	-13944
▁tent	-13945
▁chromosome	-13946
▁Row	-13947
obia	-13948
▁acre	-13949
▁printer	-13950
▁upt	-13951
▁deny	-13952
▁Concept	-13953
▁pulmonary	-13954
▁smile	-13955
▁nearest	-13956
▁abortion	-13957
ativity	-13958
▁stool	-13959
▁coordinate	-13960
▁Agreement	-13961
▁Sudan	-13962
▁noting	-13963
Or	-13964
news	-13965
▁contacts	-13966
▁bub	-13967
▁cookies	-13968
▁handled	-13969
▁Manufact	-13970
▁equilibrium	-13971
▁interconn	-13972
esterday	-13973
▁mitigate	-13974
▁Stra	-13975
▁hanging	-13976
opsy	-13977
▁1993	-13978
▁Joe	-13979
▁Hold	-13980
▁jewel	-13981
▁Brother	-13982
▁Sad	-13983
▁Safe	-13984
▁americ	-13985
▁ultrasound	-13986
▁trusted	-13987
▁Houston	-13988
▁enhancing	-13989
▁disagree	-13990
▁respected	-13991
obi	-13992
▁stimulus	-13993
inters	-13994
▁Juda	-13995
▁spill	-13996
pub	-13997
▁apost	-13998
▁Guidelines	-13999
▁59	-14000
▁practically	-14001
▁responding	-14002
▁radius	-14003
▁Ta	-14004
▁verify	-14005
▁entrepreneurs	-14006
▁obligation	-14007
ouch	-14008
▁submar	-14009
▁intoler	-14010
▁pleasant	-14011
-14	-14012
▁Tel	-14013
emics	-14014
▁Records	-14015
▁2018,	-14016
▁periodic	-14017
rians	-14018
▁hay	-14019
▁resort	-14020
▁garlic	-14021
▁fright	-14022
ardless	-14023
▁snack	-14024
▁switching	-14025
▁compelling	-14026
▁hotel	-14027
▁mandatory	-14028
▁woods	-14029
▁Chem	-14030
▁1991	-14031
▁medicinal	-14032
▁Cloud	-14033
▁shark	-14034
atis	-14035
imated	-14036
▁adject	-14037
▁entries	-14038
▁excite	-14039
▁propri	-14040
TO	-14041
▁communicating	-14042
▁Square	-14043
▁mol	-14044
▁Gord	-14045
▁targeting	-14046
▁reluct	-14047
gia	-14048
oni	-14049
ridge	-14050
▁anyway	-14051
▁3,000	-14052
walk	-14053
▁dynasty	-14054
Res	-14055
▁colorful	-14056
▁adulthood	-14057
▁spider	-14058
▁Byz	-14059
orse	-14060
▁Subject	-14061
▁Production	-14062
▁Gab	-14063
▁quotes	-14064
▁elephant	-14065
▁Saud	-14066
▁fifteen	-14067
▁salvation	-14068
elta	-14069
▁specially	-14070
iw	-14071
▁authorized	-14072
▁Bart	-14073
▁buffer	-14074
▁turtles	-14075
▁fisheries	-14076
▁erected	-14077
▁Lam	-14078
▁trash	-14079
▁composite	-14080
▁Band	-14081
oubted	-14082
▁marijuana	-14083
style	-14084
▁commissioned	-14085
▁hect	-14086
▁gravitational	-14087
keeping	-14088
▁dye	-14089
lighten	-14090
▁Shel	-14091
▁Orleans	-14092
Sm	-14093
▁limbs	-14094
▁filed	-14095
▁fracture	-14096
▁Alt	-14097
▁Memory	-14098
▁surprisingly	-14099
fting	-14100
▁Few	-14101
fram	-14102
▁Programme	-14103
▁pean	-14104
▁Flore	-14105
▁yards	-14106
▁revision	-14107
ansk	-14108
▁da	-14109
▁momentum	-14110
math	-14111
▁pist	-14112
▁treasure	-14113
bus	-14114
▁righteous	-14115
▁worthy	-14116
▁processor	-14117
▁proximity	-14118
▁infinite	-14119
▁(15	-14120
▁Swiss	-14121
▁Athens	-14122
▁burst	-14123
▁Individuals	-14124
▁pedest	-14125
▁lawyer	-14126
birds	-14127
▁spotted	-14128
▁expressing	-14129
▁patron	-14130
▁treats	-14131
▁Seattle	-14132
▁Silver	-14133
breaking	-14134
esthesia	-14135
▁resting	-14136
▁domains	-14137
▁satisfy	-14138
▁ket	-14139
▁Antarctic	-14140
▁demanded	-14141
▁philosopher	-14142
▁organizing	-14143
bat	-14144
orrh	-14145
▁Olympic	-14146
istle	-14147
▁Ped	-14148
▁Colomb	-14149
▁shower	-14150
▁carn	-14151
▁simulations	-14152
▁Used	-14153
▁headquarters	-14154
▁couples	-14155
▁protests	-14156
▁barely	-14157
▁iv	-14158
▁Signs	-14159
▁maximize	-14160
▁easiest	-14161
▁Pun	-14162
▁wilderness	-14163
inge	-14164
▁pad	-14165
iguous	-14166
▁asleep	-14167
▁Tox	-14168
bot	-14169
▁batt	-14170
▁discount	-14171
▁Baltimore	-14172
▁Isaac	-14173
▁firmly	-14174
vic	-14175
▁differs	-14176
▁(2000	-14177
▁shoulders	-14178
▁gover	-14179
▁fost	-14180
▁beaches	-14181
hn	-14182
▁aesthetic	-14183
welling	-14184
▁reass	-14185
▁cylinder	-14186
▁ministry	-14187
▁Explore	-14188
▁Hud	-14189
▁incorporating	-14190
(1	-14191
▁neighboring	-14192
▁Likewise	-14193
▁profiles	-14194
▁Stay	-14195
▁poses	-14196
▁Manual	-14197
▁recreational	-14198
▁Puerto	-14199
ocate	-14200
▁Infant	-14201
ESCO	-14202
▁Ori	-14203
▁voted	-14204
▁shortage	-14205
▁phosphorus	-14206
ophil	-14207
▁rituals	-14208
▁Taiwan	-14209
▁gradual	-14210
▁Mort	-14211
▁dinosaurs	-14212
▁participant	-14213
▁denom	-14214
ilepsy	-14215
▁sprou	-14216
▁qualitative	-14217
brates	-14218
▁unint	-14219
▁Nearly	-14220
due	-14221
Fi	-14222
▁IBM	-14223
▁(196	-14224
▁Eric	-14225
▁tire	-14226
conscious	-14227
▁thir	-14228
▁anemia	-14229
▁epic	-14230
▁maturity	-14231
▁restaurant	-14232
▁Liver	-14233
raulic	-14234
nowned	-14235
▁fathers	-14236
▁preserving	-14237
▁Roberts	-14238
▁traced	-14239
▁Clinton	-14240
▁Allow	-14241
▁Birth	-14242
olen	-14243
▁corrupt	-14244
▁semic	-14245
▁imperative	-14246
cost	-14247
▁sharks	-14248
▁fantastic	-14249
▁testimony	-14250
▁pseud	-14251
▁emphasized	-14252
▁synchron	-14253
▁meg	-14254
▁glue	-14255
▁gig	-14256
▁claiming	-14257
▁veterans	-14258
▁tactics	-14259
width	-14260
▁elephants	-14261
▁hurricane	-14262
riages	-14263
▁Hyper	-14264
izophrenia	-14265
▁compatible	-14266
▁jar	-14267
▁imped	-14268
▁Oral	-14269
▁(0.	-14270
when	-14271
▁counseling	-14272
▁confusing	-14273
holder	-14274
▁Michel	-14275
pa	-14276
▁cooler	-14277
▁textbook	-14278
▁memorial	-14279
disciplinary	-14280
esthet	-14281
▁sovereignty	-14282
▁nutrit	-14283
▁acted	-14284
mother	-14285
▁tomorrow	-14286
ctica	-14287
▁sweat	-14288
eat	-14289
▁exit	-14290
▁differential	-14291
▁Chris	-14292
▁armies	-14293
▁Everything	-14294
▁hell	-14295
▁cubic	-14296
▁Religion	-14297
▁deaf	-14298
▁predominantly	-14299
▁dealt	-14300
▁reductions	-14301
▁incub	-14302
▁Friends	-14303
gly	-14304
▁timely	-14305
▁Respons	-14306
▁relevance	-14307
▁dens	-14308
▁tales	-14309
uto	-14310
▁Lith	-14311
onder	-14312
uce	-14313
▁trucks	-14314
▁stew	-14315
▁weekend	-14316
▁Range	-14317
▁reefs	-14318
▁holidays	-14319
▁Originally	-14320
▁Rule	-14321
limited	-14322
▁limb	-14323
ti	-14324
laim	-14325
▁Galile	-14326
Why	-14327
▁Ga	-14328
▁Chron	-14329
▁17.	-14330
▁Argentina	-14331
▁autoimmune	-14332
▁exports	-14333
▁Len	-14334
ificant	-14335
▁Simply	-14336
▁simpler	-14337
▁Estab	-14338
▁pulling	-14339
alry	-14340
▁blend	-14341
▁aligned	-14342
elle	-14343
▁dorm	-14344
▁shifting	-14345
▁Dead	-14346
▁pilgrim	-14347
▁Articles	-14348
iatry	-14349
▁na	-14350
process	-14351
▁clues	-14352
iage	-14353
▁definitive	-14354
▁linking	-14355
▁cosmic	-14356
▁novels	-14357
▁Catal	-14358
▁Gender	-14359
▁Columbus	-14360
▁trim	-14361
acial	-14362
uf	-14363
charge	-14364
▁seam	-14365
▁Clinic	-14366
▁humanitarian	-14367
▁exercising	-14368
ringe	-14369
▁terrestrial	-14370
▁parking	-14371
brev	-14372
▁NAT	-14373
▁stays	-14374
▁Interestingly	-14375
▁justify	-14376
analysis	-14377
▁depressed	-14378
▁Adapt	-14379
▁neighborhoods	-14380
▁Nevada	-14381
▁flags	-14382
▁hollow	-14383
orescent	-14384
6),	-14385
▁eco	-14386
OU	-14387
▁metric	-14388
unks	-14389
▁pear	-14390
▁penalty	-14391
▁attorney	-14392
OG	-14393
▁validity	-14394
▁vein	-14395
nowing	-14396
▁Nag	-14397
▁relaxation	-14398
▁bloodstream	-14399
etric	-14400
▁rif	-14401
▁hits	-14402
▁..	-14403
▁petroleum	-14404
ymn	-14405
▁2020,	-14406
▁Pent	-14407
▁Donald	-14408
isol	-14409
alent	-14410
▁scans	-14411
▁backgrounds	-14412
▁Bacter	-14413
▁approached	-14414
▁baking	-14415
▁salary	-14416
▁Seven	-14417
ryst	-14418
ylogen	-14419
▁zo	-14420
market	-14421
▁leather	-14422
mans	-14423
nutrition	-14424
▁pile	-14425
▁stresses	-14426
▁Construction	-14427
▁laugh	-14428
▁Photos	-14429
700	-14430
uru	-14431
▁glow	-14432
▁meta	-14433
▁storing	-14434
▁favorable	-14435
▁numerical	-14436
▁1989	-14437
▁kern	-14438
gree	-14439
▁Tow	-14440
forming	-14441
urate	-14442
▁fractures	-14443
▁11:	-14444
▁2019.	-14445
oubtedly	-14446
▁gauge	-14447
speed	-14448
▁IM	-14449
▁tutor	-14450
▁societal	-14451
▁contaminants	-14452
▁punct	-14453
▁Avenue	-14454
▁geological	-14455
▁Lang	-14456
▁exhibits	-14457
▁astronomy	-14458
▁discourse	-14459
▁declining	-14460
▁tide	-14461
▁Identify	-14462
▁abst	-14463
▁kindergarten	-14464
ragon	-14465
▁preventive	-14466
94	-14467
▁dermat	-14468
mont	-14469
▁theor	-14470
aders	-14471
▁Mercury	-14472
▁tie	-14473
▁commerce	-14474
▁keen	-14475
▁Sierra	-14476
▁Stop	-14477
TE	-14478
▁transparency	-14479
▁lady	-14480
▁Susan	-14481
▁LE	-14482
weg	-14483
lie	-14484
11.	-14485
5),	-14486
rings	-14487
▁shrubs	-14488
▁toy	-14489
▁introduces	-14490
▁citation	-14491
▁abandon	-14492
▁advertise	-14493
▁BCE	-14494
▁arose	-14495
▁9:	-14496
▁veterinarian	-14497
▁glyc	-14498
▁fiscal	-14499
ijing	-14500
▁administrators	-14501
▁Influ	-14502
igo	-14503
▁Plat	-14504
izable	-14505
versely	-14506
Ne	-14507
▁subjective	-14508
minute	-14509
▁stating	-14510
▁administer	-14511
▁Solomon	-14512
elong	-14513
▁Recon	-14514
control	-14515
▁upcoming	-14516
yst	-14517
▁verses	-14518
12.	-14519
▁friendship	-14520
▁runoff	-14521
threatening	-14522
▁Batt	-14523
▁spectacular	-14524
▁recognizing	-14525
▁quit	-14526
▁odor	-14527
▁Comment	-14528
▁continental	-14529
usually	-14530
ho	-14531
▁pocket	-14532
▁5,000	-14533
▁coping	-14534
▁lamp	-14535
▁evolving	-14536
▁McD	-14537
olithic	-14538
▁foliage	-14539
▁guaranteed	-14540
leys	-14541
▁inexpensive	-14542
▁dirty	-14543
ivated	-14544
▁asteroid	-14545
WA	-14546
▁correction	-14547
prises	-14548
lessness	-14549
▁plag	-14550
isite	-14551
▁vend	-14552
prof	-14553
▁concert	-14554
▁Americas	-14555
▁suggestion	-14556
▁intric	-14557
▁acou	-14558
mel	-14559
▁coli	-14560
▁Ethiopia	-14561
▁lightning	-14562
▁Sources	-14563
▁navig	-14564
ounding	-14565
▁Member	-14566
▁signaling	-14567
▁fungal	-14568
▁hierarchy	-14569
▁None	-14570
▁refuse	-14571
▁escaped	-14572
▁clicking	-14573
▁destroying	-14574
▁courtesy	-14575
▁Advis	-14576
▁matches	-14577
eer	-14578
▁ib	-14579
▁20.	-14580
▁craw	-14581
▁fox	-14582
▁esoph	-14583
▁Robinson	-14584
▁Iceland	-14585
▁underneath	-14586
▁seventh	-14587
▁autonomy	-14588
▁Whatever	-14589
▁termed	-14590
▁Bry	-14591
▁talent	-14592
▁Universal	-14593
REE	-14594
ignant	-14595
direct	-14596
▁Born	-14597
▁occupational	-14598
sim	-14599
▁seism	-14600
▁Nepal	-14601
▁Anthony	-14602
ERE	-14603
▁Peninsula	-14604
yg	-14605
▁trait	-14606
▁Acts	-14607
▁Josh	-14608
▁retirement	-14609
▁comply	-14610
▁Brun	-14611
▁Cover	-14612
▁selective	-14613
▁pesticide	-14614
opard	-14615
▁Forum	-14616
ship	-14617
▁iP	-14618
▁Egg	-14619
▁tended	-14620
▁suppress	-14621
enc	-14622
▁Dogs	-14623
▁Thor	-14624
orical	-14625
▁monop	-14626
comput	-14627
▁appearing	-14628
▁picking	-14629
Int	-14630
flower	-14631
▁Important	-14632
▁broadly	-14633
ousing	-14634
▁sticks	-14635
▁Ul	-14636
▁animation	-14637
▁irritation	-14638
▁rewards	-14639
▁grocery	-14640
olics	-14641
▁CEO	-14642
▁brands	-14643
▁elastic	-14644
opa	-14645
▁cigarettes	-14646
▁Finland	-14647
▁compress	-14648
▁nights	-14649
▁boom	-14650
▁serum	-14651
▁marry	-14652
▁ethanol	-14653
▁rendered	-14654
▁Tower	-14655
ometry	-14656
▁rebellion	-14657
Cs	-14658
▁Ecology	-14659
▁reconstruction	-14660
▁Pick	-14661
▁Links	-14662
▁laying	-14663
▁deciding	-14664
▁comparative	-14665
▁enforce	-14666
▁invested	-14667
▁Antarctica	-14668
has	-14669
▁uncon	-14670
▁Tun	-14671
▁Aware	-14672
strong	-14673
▁concludes	-14674
▁fluoride	-14675
▁Phill	-14676
itably	-14677
▁Harris	-14678
▁precautions	-14679
atern	-14680
App	-14681
sea	-14682
▁herbal	-14683
▁Want	-14684
▁2003.	-14685
▁Steve	-14686
▁Molecular	-14687
▁Application	-14688
▁conve	-14689
expl	-14690
84	-14691
ixty	-14692
▁Belgium	-14693
▁counted	-14694
▁Reports	-14695
▁overseas	-14696
▁Illust	-14697
dose	-14698
▁dop	-14699
▁sap	-14700
[...]
