<|unk|>	0
<|beginoftext|>	0
<|endoftext|>	0
's	0
't	0
're	0
've	0
'm	0
'll	0
'd	0
<|user|>	0
<|system|>	0
<|assistant|>	0
<|im_start|>	0
<|im_end|>	0
<|thought|>	0
</|thought|>	0
<|search_query|>	0
</|search_query|>	0
<|search_results|>	0
</|search_results|>	0

	0
<|extra_0|>	0
<|extra_1|>	0
<|extra_2|>	0
<|extra_3|>	0
<|extra_4|>	0
<0x00>	0
<0x01>	0
<0x02>	0
<0x03>	0
<0x04>	0
<0x05>	0
<0x06>	0
<0x07>	0
<0x08>	0
<0x09>	0
<0x0A>	0
<0x0B>	0
<0x0C>	0
<0x0D>	0
<0x0E>	0
<0x0F>	0
<0x10>	0
<0x11>	0
<0x12>	0
<0x13>	0
<0x14>	0
<0x15>	0
<0x16>	0
<0x17>	0
<0x18>	0
<0x19>	0
<0x1A>	0
<0x1B>	0
<0x1C>	0
<0x1D>	0
<0x1E>	0
<0x1F>	0
<0x20>	0
<0x21>	0
<0x22>	0
<0x23>	0
<0x24>	0
<0x25>	0
<0x26>	0
<0x27>	0
<0x28>	0
<0x29>	0
<0x2A>	0
<0x2B>	0
<0x2C>	0
<0x2D>	0
<0x2E>	0
<0x2F>	0
<0x30>	0
<0x31>	0
<0x32>	0
<0x33>	0
<0x34>	0
<0x35>	0
<0x36>	0
<0x37>	0
<0x38>	0
<0x39>	0
<0x3A>	0
<0x3B>	0
<0x3C>	0
<0x3D>	0
<0x3E>	0
<0x3F>	0
<0x40>	0
<0x41>	0
<0x42>	0
<0x43>	0
<0x44>	0
<0x45>	0
<0x46>	0
<0x47>	0
<0x48>	0
<0x49>	0
<0x4A>	0
<0x4B>	0
<0x4C>	0
<0x4D>	0
<0x4E>	0
<0x4F>	0
<0x50>	0
<0x51>	0
<0x52>	0
<0x53>	0
<0x54>	0
<0x55>	0
<0x56>	0
<0x57>	0
<0x58>	0
<0x59>	0
<0x5A>	0
<0x5B>	0
<0x5C>	0
<0x5D>	0
<0x5E>	0
<0x5F>	0
<0x60>	0
<0x61>	0
<0x62>	0
<0x63>	0
<0x64>	0
<0x65>	0
<0x66>	0
<0x67>	0
<0x68>	0
<0x69>	0
<0x6A>	0
<0x6B>	0
<0x6C>	0
<0x6D>	0
<0x6E>	0
<0x6F>	0
<0x70>	0
<0x71>	0
<0x72>	0
<0x73>	0
<0x74>	0
<0x75>	0
<0x76>	0
<0x77>	0
<0x78>	0
<0x79>	0
<0x7A>	0
<0x7B>	0
<0x7C>	0
<0x7D>	0
<0x7E>	0
<0x7F>	0
<0x80>	0
<0x81>	0
<0x82>	0
<0x83>	0
<0x84>	0
<0x85>	0
<0x86>	0
<0x87>	0
<0x88>	0
<0x89>	0
<0x8A>	0
<0x8B>	0
<0x8C>	0
<0x8D>	0
<0x8E>	0
<0x8F>	0
<0x90>	0
<0x91>	0
<0x92>	0
<0x93>	0
<0x94>	0
<0x95>	0
<0x96>	0
<0x97>	0
<0x98>	0
<0x99>	0
<0x9A>	0
<0x9B>	0
<0x9C>	0
<0x9D>	0
<0x9E>	0
<0x9F>	0
<0xA0>	0
<0xA1>	0
<0xA2>	0
<0xA3>	0
<0xA4>	0
<0xA5>	0
<0xA6>	0
<0xA7>	0
<0xA8>	0
<0xA9>	0
<0xAA>	0
<0xAB>	0
<0xAC>	0
<0xAD>	0
<0xAE>	0
<0xAF>	0
<0xB0>	0
<0xB1>	0
<0xB2>	0
<0xB3>	0
<0xB4>	0
<0xB5>	0
<0xB6>	0
<0xB7>	0
<0xB8>	0
<0xB9>	0
<0xBA>	0
<0xBB>	0
<0xBC>	0
<0xBD>	0
<0xBE>	0
<0xBF>	0
<0xC0>	0
<0xC1>	0
<0xC2>	0
<0xC3>	0
<0xC4>	0
<0xC5>	0
<0xC6>	0
<0xC7>	0
<0xC8>	0
<0xC9>	0
<0xCA>	0
<0xCB>	0
<0xCC>	0
<0xCD>	0
<0xCE>	0
<0xCF>	0
<0xD0>	0
<0xD1>	0
<0xD2>	0
<0xD3>	0
<0xD4>	0
<0xD5>	0
<0xD6>	0
<0xD7>	0
<0xD8>	0
<0xD9>	0
<0xDA>	0
<0xDB>	0
<0xDC>	0
<0xDD>	0
<0xDE>	0
<0xDF>	0
<0xE0>	0
<0xE1>	0
<0xE2>	0
<0xE3>	0
<0xE4>	0
<0xE5>	0
<0xE6>	0
<0xE7>	0
<0xE8>	0
<0xE9>	0
<0xEA>	0
<0xEB>	0
<0xEC>	0
<0xED>	0
<0xEE>	0
<0xEF>	0
<0xF0>	0
<0xF1>	0
<0xF2>	0
<0xF3>	0
<0xF4>	0
<0xF5>	0
<0xF6>	0
<0xF7>	0
<0xF8>	0
<0xF9>	0
<0xFA>	0
<0xFB>	0
<0xFC>	0
<0xFD>	0
<0xFE>	0
<0xFF>	0
▁t	-0
▁a	-1
he	-2
in	-3
re	-4
▁the	-5
on	-6
er	-7
▁o	-8
at	-9
▁s	-10
en	-11
▁c	-12
▁w	-13
es	-14
is	-15
nd	-16
it	-17
or	-18
▁p	-19
al	-20
▁b	-21
ed	-22
▁of	-23
an	-24
▁f	-25
ing	-26
▁in	-27
ou	-28
ar	-29
▁m	-30
▁and	-31
▁to	-32
ic	-33
▁d	-34
ion	-35
le	-36
ro	-37
as	-38
▁h	-39
ent	-40
▁th	-41
ct	-42
▁e	-43
il	-44
▁re	-45
▁T	-46
om	-47
ve	-48
▁l	-49
st	-50
▁n	-51
ly	-52
▁be	-53
▁is	-54
se	-55
ol	-56
▁g	-57
▁A	-58
ation	-59
im	-60
id	-61
et	-62
ut	-63
ce	-64
ot	-65
▁S	-66
ur	-67
ra	-68
ch	-69
ow	-70
▁I	-71
▁for	-72
ig	-73
▁u	-74
▁that	-75
▁on	-76
▁C	-77
▁st	-78
ver	-79
▁y	-80
▁The	-81
ir	-82
ul	-83
ay	-84
am	-85
▁as	-86
ith	-87
el	-88
ad	-89
▁pro	-90
her	-91
▁are	-92
▁con	-93
▁an	-94
▁with	-95
▁M	-96
if	-97
▁you	-98
▁wh	-99
▁it	-100
▁or	-101
▁al	-102
▁P	-103
ter	-104
od	-105
▁(	-106
▁1	-107
ment	-108
▁B	-109
ge	-110
th	-111
op	-112
ate	-113
ist	-114
▁W	-115
▁de	-116
ers	-117
ess	-118
ill	-119
▁he	-120
ies	-121
ab	-122
▁H	-123
▁ex	-124
▁su	-125
▁we	-126
ect	-127
▁com	-128
ore	-129
us	-130
ity	-131
est	-132
▁ha	-133
res	-134
ive	-135
ac	-136
um	-137
▁D	-138
rom	-139
ld	-140
▁v	-141
os	-142
ke	-143
▁by	-144
ant	-145
▁E	-146
em	-147
qu	-148
iv	-149
▁F	-150
ain	-151
nt	-152
▁R	-153
▁at	-154
pp	-155
igh	-156
▁can	-157
▁was	-158
ud	-159
▁-	-160
▁from	-161
▁ch	-162
oc	-163
▁r	-164
ort	-165
and	-166
▁ne	-167
▁2	-168
ial	-169
▁se	-170
▁N	-171
▁G	-172
ure	-173
▁L	-174
▁not	-175
un	-176
▁le	-177
ical	-178
art	-179
▁have	-180
ri	-181
og	-182
▁sh	-183
▁en	-184
▁sp	-185
▁this	-186
▁O	-187
pt	-188
ight	-189
▁wor	-190
▁ab	-191
▁In	-192
ich	-193
rou	-194
red	-195
all	-196
ould	-197
ions	-198
00	-199
ther	-200
ost	-201
gh	-202
our	-203
ome	-204
du	-205
▁im	-206
ated	-207
per	-208
ine	-209
▁us	-210
▁pl	-211
ag	-212
out	-213
ard	-214
act	-215
▁their	-216
ff	-217
ell	-218
ide	-219
▁int	-220
pl	-221
▁J	-222
▁U	-223
ans	-224
ear	-225
▁Th	-226
ast	-227
age	-228
ak	-229
ust	-230
▁which	-231
▁your	-232
▁k	-233
▁whe	-234
▁they	-235
ous	-236
iz	-237
ec	-238
▁ad	-239
ood	-240
▁all	-241
ult	-242
▁will	-243
▁cont	-244
ib	-245
▁inc	-246
end	-247
cc	-248
▁dis	-249
ru	-250
▁comp	-251
▁more	-252
ap	-253
▁res	-254
▁“	-255
ong	-256
ip	-257
vel	-258
ations	-259
▁has	-260
ia	-261
ew	-262
ere	-263
▁do	-264
orm	-265
so	-266
ary	-267
ater	-268
ence	-269
able	-270
are	-271
ild	-272
▁man	-273
▁cl	-274
ual	-275
▁other	-276
ks	-277
▁but	-278
▁were	-279
ry	-280
ind	-281
▁per	-282
▁te	-283
▁imp	-284
ents	-285
ance	-286
ep	-287
▁me	-288
ach	-289
▁also	-290
▁one	-291
ose	-292
reat	-293
ign	-294
ake	-295
ress	-296
ass	-297
ase	-298
▁19	-299
av	-300
au	-301
▁St	-302
▁j	-303
▁so	-304
ction	-305
ition	-306
▁out	-307
▁It	-308
ice	-309
▁un	-310
ber	-311
▁app	-312
▁ar	-313
very	-314
one	-315
ime	-316
▁part	-317
▁stud	-318
▁about	-319
▁"	-320
ord	-321
ace	-322
▁ev	-323
▁This	-324
ens	-325
ory	-326
ount	-327
ish	-328
ok	-329
▁who	-330
ire	-331
▁pe	-332
ame	-333
▁inf	-334
).	-335
ack	-336
▁sy	-337
▁his	-338
▁comm	-339
▁them	-340
▁sc	-341
ors	-342
ue	-343
ub	-344
ite	-345
ang	-346
ces	-347
ike	-348
ound	-349
ree	-350
▁pre	-351
olog	-352
now	-353
low	-354
▁bec	-355
▁up	-356
▁Ch	-357
ric	-358
▁qu	-359
▁may	-360
▁than	-361
iff	-362
ie	-363
ile	-364
ays	-365
ople	-366
▁rec	-367
▁some	-368
▁year	-369
▁20	-370
ail	-371
ates	-372
▁been	-373
▁when	-374
▁3	-375
nder	-376
▁there	-377
ings	-378
▁its	-379
ian	-380
mer	-381
▁into	-382
rit	-383
ren	-384
ough	-385
▁go	-386
▁work	-387
▁tra	-388
▁time	-389
▁ag	-390
ph	-391
▁over	-392
▁diff	-393
▁these	-394
▁how	-395
▁people	-396
vers	-397
erv	-398
te	-399
▁ro	-400
ally	-401
rough	-402
ons	-403
lud	-404
▁cons	-405
ause	-406
▁use	-407
ond	-408
▁col	-409
▁tr	-410
ific	-411
ms	-412
▁ra	-413
▁our	-414
tern	-415
▁had	-416
▁bet	-417
ove	-418
▁act	-419
we	-420
ys	-421
alth	-422
▁most	-423
int	-424
▁like	-425
▁under	-426
ities	-427
irst	-428
▁know	-429
▁sa	-430
▁bl	-431
lic	-432
ments	-433
▁acc	-434
lect	-435
row	-436
les	-437
▁des	-438
ning	-439
ject	-440
ious	-441
ll	-442
▁would	-443
..	-444
ook	-445
velop	-446
stem	-447
▁tw	-448
▁new	-449
▁need	-450
ffect	-451
▁rel	-452
▁such	-453
▁if	-454
▁rep	-455
▁child	-456
▁gen	-457
ient	-458
▁hel	-459
▁includ	-460
▁Wh	-461
▁any	-462
ational	-463
ob	-464
cess	-465
ative	-466
ple	-467
hed	-468
▁pr	-469
▁what	-470
ular	-471
▁help	-472
▁ph	-473
ced	-474
▁used	-475
▁produ	-476
yp	-477
ating	-478
▁only	-479
▁Un	-480
ool	-481
ov	-482
▁ind	-483
▁prov	-484
▁no	-485
▁develop	-486
▁am	-487
▁many	-488
▁first	-489
▁through	-490
▁off	-491
▁fe	-492
),	-493
▁spec	-494
ath	-495
fter	-496
▁ac	-497
ise	-498
round	-499
▁di	-500
ark	-501
oss	-502
▁As	-503
▁em	-504
▁reg	-505
ics	-506
▁exp	-507
▁po	-508
uring	-509
uc	-510
eth	-511
▁differe	-512
▁two	-513
hen	-514
▁system	-515
ful	-516
erm	-517
rib	-518
▁He	-519
ts	-520
oth	-521
ne	-522
iss	-523
ink	-524
▁ob	-525
▁201	-526
▁4	-527
rop	-528
ility	-529
old	-530
▁dec	-531
als	-532
▁ass	-533
ased	-534
ible	-535
▁att	-536
▁add	-537
ange	-538
▁sur	-539
ten	-540
▁should	-541
arch	-542
ures	-543
ower	-544
▁well	-545
ife	-546
ween	-547
ert	-548
fore	-549
ble	-550
ract	-551
▁supp	-552
▁fl	-553
▁rem	-554
▁water	-555
▁5	-556
ng	-557
▁inv	-558
ram	-559
aw	-560
▁sub	-561
▁co	-562
own	-563
▁health	-564
▁years	-565
gan	-566
▁between	-567
▁sm	-568
ution	-569
ied	-570
sel	-571
ade	-572
▁high	-573
hes	-574
▁pres	-575
▁could	-576
cy	-577
▁where	-578
its	-579
▁200	-580
ever	-581
ick	-582
▁trans	-583
▁make	-584
wn	-585
▁rese	-586
ily	-587
▁get	-588
ants	-589
▁pers	-590
uch	-591
xt	-592
▁import	-593
▁If	-594
ology	-595
chn	-596
▁bu	-597
form	-598
chool	-599
ience	-600
▁her	-601
▁ear	-602
ural	-603
ident	-604
▁mod	-605
▁We	-606
▁form	-607
▁inter	-608
▁pol	-609
ited	-610
ting	-611
▁num	-612
▁inst	-613
iet	-614
meric	-615
▁exam	-616
ines	-617
▁disc	-618
land	-619
▁Al	-620
ins	-621
▁different	-622
▁How	-623
▁lear	-624
ata	-625
▁effect	-626
ef	-627
▁found	-628
ness	-629
▁An	-630
ict	-631
▁because	-632
▁For	-633
▁exper	-634
ists	-635
▁sim	-636
▁car	-637
▁after	-638
ont	-639
ually	-640
▁long	-641
ism	-642
▁world	-643
▁lar	-644
▁med	-645
▁even	-646
gy	-647
▁very	-648
▁then	-649
▁incre	-650
cept	-651
▁just	-652
▁cent	-653
▁count	-654
ature	-655
▁ed	-656
ft	-657
▁way	-658
oy	-659
▁18	-660
▁det	-661
▁typ	-662
▁resp	-663
▁hum	-664
get	-665
▁inform	-666
▁Americ	-667
urn	-668
aking	-669
▁sign	-670
vent	-671
▁var	-672
ically	-673
▁see	-674
other	-675
▁ke	-676
▁gener	-677
ives	-678
▁ref	-679
ivers	-680
▁those	-681
iew	-682
▁fol	-683
ck	-684
▁pat	-685
▁Re	-686
▁ext	-687
▁every	-688
▁Pro	-689
▁process	-690
▁result	-691
▁said	-692
▁soc	-693
▁pub	-694
▁prog	-695
▁fact	-696
▁call	-697
▁Com	-698
cer	-699
▁children	-700
ases	-701
.”	-702
▁being	-703
▁each	-704
arm	-705
ros	-706
▁gra	-707
ues	-708
▁ca	-709
▁sec	-710
ds	-711
ps	-712
led	-713
▁They	-714
▁loc	-715
iron	-716
▁6	-717
ruct	-718
▁techn	-719
ody	-720
▁requ	-721
▁partic	-722
▁important	-723
▁There	-724
ages	-725
▁life	-726
tle	-727
ork	-728
▁dist	-729
▁commun	-730
▁set	-731
ved	-732
▁mon	-733
▁much	-734
▁def	-735
▁she	-736
▁dep	-737
▁during	-738
▁cre	-739
▁ent	-740
ather	-741
▁fam	-742
ized	-743
cent	-744
▁art	-745
▁students	-746
▁own	-747
▁read	-748
vern	-749
▁lead	-750
ward	-751
▁follow	-752
imes	-753
▁sk	-754
▁level	-755
ices	-756
▁my	-757
▁food	-758
▁information	-759
▁study	-760
▁aut	-761
gg	-762
▁right	-763
▁same	-764
▁does	-765
▁data	-766
▁grow	-767
ize	-768
▁Ar	-769
▁made	-770
▁proble	-771
▁But	-772
▁person	-773
any	-774
▁find	-775
ection	-776
▁good	-777
hip	-778
▁cur	-779
io	-780
▁school	-781
▁av	-782
0.	-783
▁str	-784
▁min	-785
▁ins	-786
▁end	-787
▁both	-788
▁back	-789
onom	-790
ted	-791
ale	-792
▁che	-793
ality	-794
▁using	-795
The	-796
▁show	-797
und	-798
▁expl	-799
▁pop	-800
viron	-801
▁hist	-802
▁comple	-803
▁cor	-804
▁before	-805
▁Sp	-806
.,	-807
▁grou	-808
▁Ind	-809
▁test	-810
▁gl	-811
▁small	-812
ivid	-813
read	-814
stand	-815
▁main	-816
iel	-817
ially	-818
▁treat	-819
▁bo	-820
inal	-821
ined	-822
▁val	-823
▁again	-824
▁often	-825
ock	-826
▁Sc	-827
ince	-828
▁br	-829
▁sol	-830
▁less	-831
▁prot	-832
omen	-833
▁New	-834
ars	-835
der	-836
ix	-837
nce	-838
▁while	-839
▁poss	-840
▁state	-841
▁dise	-842
rol	-843
ty	-844
ergy	-845
▁day	-846
▁take	-847
ien	-848
imate	-849
▁(1	-850
▁research	-851
ished	-852
▁lit	-853
▁7	-854
ute	-855
ax	-856
▁occ	-857
▁What	-858
akes	-859
▁ec	-860
▁number	-861
▁now	-862
▁serv	-863
▁And	-864
ral	-865
▁power	-866
▁ris	-867
▁organ	-868
ex	-869
oh	-870
▁body	-871
▁mem	-872
▁fun	-873
▁him	-874
ier	-875
vironment	-876
ulation	-877
20	-878
000	-879
ides	-880
▁vis	-881
▁activ	-882
dition	-883
▁char	-884
▁cell	-885
irect	-886
iqu	-887
iety	-888
▁hand	-889
ury	-890
▁human	-891
▁design	-892
▁around	-893
▁class	-894
▁These	-895
up	-896
▁When	-897
▁redu	-898
▁bel	-899
▁support	-900
iving	-901
▁down	-902
air	-903
▁three	-904
ves	-905
iversity	-906
▁8	-907
ered	-908
com	-909
hers	-910
▁common	-911
ters	-912
-1	-913
ital	-914
▁must	-915
▁conf	-916
ah	-917
▁start	-918
ger	-919
▁look	-920
▁est	-921
ium	-922
uss	-923
ven	-924
▁Is	-925
aj	-926
▁cle	-927
▁point	-928
▁elect	-929
▁great	-930
rent	-931
▁plan	-932
▁govern	-933
day	-934
ving	-935
acter	-936
,”	-937
▁10	-938
ains	-939
▁did	-940
▁ser	-941
▁To	-942
ave	-943
▁large	-944
ross	-945
▁example	-946
▁report	-947
▁care	-948
▁land	-949
▁writ	-950
self	-951
▁9	-952
cl	-953
ouse	-954
itions	-955
▁contin	-956
▁op	-957
the	-958
ional	-959
ron	-960
rain	-961
ull	-962
gen	-963
▁Se	-964
ared	-965
▁allow	-966
▁including	-967
outh	-968
anc	-969
▁const	-970
orn	-971
▁equ	-972
▁adv	-973
▁understand	-974
▁met	-975
ash	-976
▁educ	-977
way	-978
▁though	-979
▁ret	-980
▁dr	-981
▁build	-982
▁called	-983
...	-984
▁cour	-985
▁pract	-986
aterial	-987
ner	-988
▁known	-989
▁som	-990
ividual	-991
iven	-992
▁beh	-993
iver	-994
▁still	-995
▁De	-996
▁At	-997
▁public	-998
me	-999
els	-1000
ired	-1001
ids	-1002
▁eas	-1003
▁quest	-1004
ential	-1005
iod	-1006
oms	-1007
▁gu	-1008
ries	-1009
▁place	-1010
ider	-1011
oci	-1012
osed	-1013
▁ide	-1014
de	-1015
▁Res	-1016
▁However	-1017
ected	-1018
▁think	-1019
ization	-1020
ets	-1021
▁might	-1022
▁appro	-1023
inc	-1024
itive	-1025
▁gre	-1026
▁mat	-1027
erest	-1028
▁Ad	-1029
lish	-1030
▁tem	-1031
▁few	-1032
▁present	-1033
raph	-1034
▁caus	-1035
▁Eng	-1036
▁chang	-1037
▁stand	-1038
ank	-1039
ination	-1040
▁environment	-1041
eng	-1042
▁within	-1043
▁individual	-1044
▁dem	-1045
ources	-1046
▁change	-1047
▁energy	-1048
ration	-1049
▁pur	-1050
ption	-1051
bers	-1052
ording	-1053
▁product	-1054
▁Con	-1055
▁want	-1056
oun	-1057
▁without	-1058
ived	-1059
▁development	-1060
▁sym	-1061
ffic	-1062
angu	-1063
▁phys	-1064
ense	-1065
▁material	-1066
ertain	-1067
▁light	-1068
▁Ex	-1069
."	-1070
▁iss	-1071
▁imm	-1072
▁impro	-1073
ethod	-1074
ior	-1075
▁199	-1076
ason	-1077
▁cap	-1078
▁play	-1079
agn	-1080
▁University	-1081
▁prof	-1082
▁learn	-1083
▁project	-1084
line	-1085
▁pot	-1086
▁air	-1087
▁spe	-1088
▁Ph	-1089
▁ident	-1090
▁disease	-1091
,000	-1092
▁ben	-1093
▁Sh	-1094
▁American	-1095
▁pos	-1096
man	-1097
▁don	-1098
arent	-1099
▁direct	-1100
▁eng	-1101
▁sl	-1102
▁ve	-1103
less	-1104
iness	-1105
▁sit	-1106
sp	-1107
▁bre	-1108
▁area	-1109
alk	-1110
▁social	-1111
eral	-1112
▁anal	-1113
▁pass	-1114
illion	-1115
▁meas	-1116
ability	-1117
▁another	-1118
ton	-1119
bs	-1120
ental	-1121
gin	-1122
▁women	-1123
ield	-1124
▁best	-1125
ological	-1126
orth	-1127
▁ant	-1128
ians	-1129
▁belie	-1130
ajor	-1131
▁include	-1132
▁blood	-1133
▁et	-1134
▁home	-1135
ified	-1136
▁cult	-1137
ering	-1138
▁bas	-1139
▁mus	-1140
▁mark	-1141
erc	-1142
▁law	-1143
▁interest	-1144
▁risk	-1145
rodu	-1146
ained	-1147
ify	-1148
▁pain	-1149
▁desc	-1150
ris	-1151
atural	-1152
ug	-1153
atic	-1154
▁Cl	-1155
▁On	-1156
▁rest	-1157
▁Be	-1158
▁opp	-1159
▁control	-1160
ccess	-1161
▁become	-1162
ently	-1163
▁low	-1164
▁econom	-1165
▁proper	-1166
az	-1167
ining	-1168
▁sever	-1169
ats	-1170
▁par	-1171
▁old	-1172
▁better	-1173
▁early	-1174
▁method	-1175
▁Le	-1176
▁war	-1177
▁move	-1178
ource	-1179
▁ess	-1180
ern	-1181
esp	-1182
▁anim	-1183
▁government	-1184
arc	-1185
▁program	-1186
▁So	-1187
▁leg	-1188
hor	-1189
ways	-1190
ision	-1191
▁mil	-1192
lished	-1193
▁against	-1194
ills	-1195
ik	-1196
▁second	-1197
▁Pl	-1198
▁real	-1199
▁tre	-1200
▁keep	-1201
▁last	-1202
ients	-1203
▁fore	-1204
▁here	-1205
▁.	-1206
▁oper	-1207
rist	-1208
▁order	-1209
▁history	-1210
here	-1211
▁too	-1212
▁cause	-1213
str	-1214
ware	-1215
▁means	-1216
▁infl	-1217
▁ele	-1218
▁15	-1219
▁provide	-1220
▁occur	-1221
▁major	-1222
rap	-1223
▁top	-1224
▁avail	-1225
▁perform	-1226
▁ter	-1227
ories	-1228
ission	-1229
ention	-1230
view	-1231
▁particular	-1232
▁group	-1233
tt	-1234
▁Col	-1235
▁family	-1236
▁indu	-1237
ples	-1238
▁dev	-1239
ards	-1240
icle	-1241
▁learning	-1242
▁United	-1243
▁Can	-1244
▁possible	-1245
▁current	-1246
amp	-1247
▁period	-1248
▁langu	-1249
▁invol	-1250
▁addition	-1251
ograph	-1252
▁unt	-1253
▁several	-1254
▁say	-1255
▁hig	-1256
use	-1257
▁fin	-1258
▁mean	-1259
▁saf	-1260
▁near	-1261
▁species	-1262
▁orig	-1263
▁percent	-1264
▁able	-1265
par	-1266
▁benef	-1267
ote	-1268
irc	-1269
oid	-1270
▁plant	-1271
▁signific	-1272
▁happ	-1273
▁Comm	-1274
▁men	-1275
▁God	-1276
▁prom	-1277
▁affect	-1278
▁bus	-1279
ogn	-1280
idence	-1281
▁cal	-1282
ina	-1283
▁All	-1284
▁non	-1285
▁cost	-1286
▁open	-1287
▁since	-1288
▁feel	-1289
▁lim	-1290
▁things	-1291
urop	-1292
▁el	-1293
▁scient	-1294
sy	-1295
ator	-1296
▁among	-1297
▁mar	-1298
ane	-1299
▁areas	-1300
ilar	-1301
▁says	-1302
osp	-1303
▁others	-1304
▁treatment	-1305
ret	-1306
▁One	-1307
▁country	-1308
ole	-1309
▁En	-1310
though	-1311
▁Te	-1312
▁based	-1313
2.	-1314
ended	-1315
ends	-1316
▁available	-1317
▁following	-1318
▁17	-1319
▁four	-1320
▁head	-1321
▁prevent	-1322
ots	-1323
elf	-1324
ling	-1325
▁times	-1326
▁cond	-1327
aper	-1328
▁name	-1329
▁fre	-1330
▁del	-1331
▁prop	-1332
ames	-1333
▁fac	-1334
ocus	-1335
▁States	-1336
1.	-1337
cing	-1338
ably	-1339
▁wee	-1340
ances	-1341
▁case	-1342
▁access	-1343
▁Or	-1344
urther	-1345
une	-1346
▁certain	-1347
ploy	-1348
▁struct	-1349
▁come	-1350
▁free	-1351
ox	-1352
▁Some	-1353
▁age	-1354
▁lo	-1355
▁problem	-1356
▁month	-1357
,"	-1358
sc	-1359
▁With	-1360
▁lab	-1361
▁object	-1362
▁conn	-1363
ised	-1364
▁list	-1365
▁view	-1366
oint	-1367
▁post	-1368
▁bi	-1369
olution	-1370
urope	-1371
▁rece	-1372
▁type	-1373
▁run	-1374
▁natural	-1375
▁put	-1376
ression	-1377
▁press	-1378
be	-1379
▁problems	-1380
▁intern	-1381
▁creat	-1382
br	-1383
ww	-1384
▁success	-1385
ided	-1386
ones	-1387
▁levels	-1388
▁Cent	-1389
eg	-1390
▁gr	-1391
to	-1392
▁bro	-1393
▁local	-1394
ggest	-1395
▁little	-1396
▁hard	-1397
ope	-1398
▁amount	-1399
icult	-1400
▁National	-1401
▁associ	-1402
▁impact	-1403
▁significant	-1404
▁bir	-1405
▁Af	-1406
▁mult	-1407
ring	-1408
▁vol	-1409
▁book	-1410
▁cells	-1411
▁flow	-1412
▁12	-1413
work	-1414
resent	-1415
▁let	-1416
por	-1417
▁far	-1418
▁due	-1419
▁young	-1420
ething	-1421
▁Christ	-1422
▁making	-1423
▁vir	-1424
▁suggest	-1425
▁Fr	-1426
atory	-1427
▁later	-1428
▁Europe	-1429
oks	-1430
ledge	-1431
▁until	-1432
▁focus	-1433
▁short	-1434
uture	-1435
ortun	-1436
▁cho	-1437
ately	-1438
▁turn	-1439
▁given	-1440
▁sw	-1441
ither	-1442
▁invest	-1443
ured	-1444
ication	-1445
▁comput	-1446
stit	-1447
ged	-1448
▁behav	-1449
▁Bl	-1450
▁determ	-1451
▁Wor	-1452
▁US	-1453
▁polit	-1454
omm	-1455
yd	-1456
▁function	-1457
▁education	-1458
▁16	-1459
▁seem	-1460
aken	-1461
▁likely	-1462
▁days	-1463
▁heart	-1464
▁rad	-1465
over	-1466
aps	-1467
ead	-1468
▁systems	-1469
▁By	-1470
▁circ	-1471
10	-1472
▁along	-1473
▁comb	-1474
not	-1475
hem	-1476
▁obs	-1477
cle	-1478
▁language	-1479
agement	-1480
pect	-1481
▁fil	-1482
▁increase	-1483
▁consider	-1484
▁something	-1485
face	-1486
oph	-1487
▁Med	-1488
▁technology	-1489
▁results	-1490
▁community	-1491
▁appear	-1492
ending	-1493
orts	-1494
ried	-1495
▁usually	-1496
▁teac	-1497
▁death	-1498
▁course	-1499
▁always	-1500
vious	-1501
▁temper	-1502
▁dra	-1503
ohn	-1504
▁consum	-1505
▁rele	-1506
▁sing	-1507
ecially	-1508
▁difficult	-1509
▁specific	-1510
aster	-1511
▁Ear	-1512
ape	-1513
▁past	-1514
▁clear	-1515
▁author	-1516
▁words	-1517
▁similar	-1518
▁enc	-1519
▁create	-1520
pr	-1521
▁character	-1522
3.	-1523
▁experience	-1524
▁conditions	-1525
etic	-1526
▁give	-1527
▁effective	-1528
ember	-1529
▁works	-1530
▁ey	-1531
▁parent	-1532
▁space	-1533
▁exist	-1534
▁cr	-1535
▁That	-1536
asing	-1537
▁needs	-1538
▁population	-1539
▁today	-1540
ned	-1541
ators	-1542
ptoms	-1543
▁century	-1544
▁record	-1545
▁ill	-1546
▁why	-1547
ours	-1548
▁line	-1549
▁million	-1550
ym	-1551
idd	-1552
▁crit	-1553
▁describ	-1554
▁various	-1555
▁(2	-1556
▁future	-1557
isc	-1558
aining	-1559
▁brain	-1560
af	-1561
▁profess	-1562
▁Afric	-1563
especially	-1564
▁higher	-1565
obal	-1566
▁discuss	-1567
▁er	-1568
▁countries	-1569
▁Brit	-1570
▁special	-1571
▁necess	-1572
▁dam	-1573
▁across	-1574
iation	-1575
▁cancer	-1576
1,	-1577
mit	-1578
ler	-1579
ored	-1580
ysis	-1581
min	-1582
ribut	-1583
▁above	-1584
▁next	-1585
▁begin	-1586
ruction	-1587
of	-1588
▁changes	-1589
rug	-1590
▁toget	-1591
▁together	-1592
▁applic	-1593
▁strong	-1594
▁however	-1595
4.	-1596
app	-1597
▁least	-1598
▁try	-1599
▁While	-1600
put	-1601
▁mov	-1602
▁side	-1603
▁business	-1604
▁require	-1605
▁ask	-1606
▁improve	-1607
reen	-1608
ique	-1609
ateg	-1610
most	-1611
▁Im	-1612
▁respons	-1613
▁working	-1614
▁estab	-1615
▁kind	-1616
▁plants	-1617
ilities	-1618
▁researc	-1619
▁complete	-1620
ray	-1621
▁effects	-1622
▁mot	-1623
ode	-1624
atch	-1625
▁never	-1626
▁patients	-1627
▁left	-1628
selves	-1629
▁John	-1630
▁away	-1631
aves	-1632
▁tool	-1633
▁cy	-1634
▁sens	-1635
▁Gen	-1636
▁ways	-1637
▁colle	-1638
▁Dr	-1639
sw	-1640
5.	-1641
amm	-1642
▁term	-1643
▁especially	-1644
oney	-1645
omes	-1646
▁Ab	-1647
▁enough	-1648
▁tru	-1649
▁chem	-1650
aces	-1651
▁key	-1652
acy	-1653
▁1.	-1654
▁After	-1655
ales	-1656
▁team	-1657
▁general	-1658
▁prim	-1659
ilt	-1660
▁full	-1661
▁net	-1662
▁influ	-1663
▁studies	-1664
▁subject	-1665
oot	-1666
nal	-1667
duct	-1668
▁War	-1669
▁Germ	-1670
▁having	-1671
50	-1672
let	-1673
ument	-1674
aching	-1675
thing	-1676
▁types	-1677
ires	-1678
▁relations	-1679
alf	-1680
lement	-1681
▁cases	-1682
ush	-1683
iting	-1684
port	-1685
aring	-1686
▁Go	-1687
▁going	-1688
chie	-1689
▁role	-1690
ley	-1691
▁norm	-1692
▁account	-1693
▁knowledge	-1694
▁whether	-1695
▁Am	-1696
side	-1697
oman	-1698
▁opt	-1699
▁step	-1700
▁lower	-1701
▁198	-1702
▁became	-1703
ges	-1704
acc	-1705
ipp	-1706
▁z	-1707
▁self	-1708
▁physical	-1709
▁symptoms	-1710
▁Ne	-1711
▁represent	-1712
▁World	-1713
▁concer	-1714
▁protect	-1715
▁mind	-1716
NA	-1717
▁English	-1718
aim	-1719
istic	-1720
▁further	-1721
ae	-1722
▁pred	-1723
ued	-1724
▁house	-1725
ann	-1726
▁polic	-1727
ready	-1728
▁makes	-1729
▁reason	-1730
▁sum	-1731
▁production	-1732
ency	-1733
▁city	-1734
ification	-1735
▁ground	-1736
▁Car	-1737
▁Stud	-1738
▁science	-1739
ables	-1740
▁big	-1741
▁wr	-1742
apt	-1743
▁live	-1744
▁mic	-1745
▁Health	-1746
itor	-1747
atures	-1748
▁(19	-1749
▁Tr	-1750
▁chall	-1751
▁paper	-1752
ery	-1753
▁She	-1754
▁Mar	-1755
▁question	-1756
▁ens	-1757
▁range	-1758
ott	-1759
▁fund	-1760
ung	-1761
sych	-1762
▁dig	-1763
ites	-1764
eds	-1765
▁text	-1766
6.	-1767
▁toward	-1768
▁value	-1769
by	-1770
▁growth	-1771
▁model	-1772
cul	-1773
▁activity	-1774
▁sure	-1775
▁indic	-1776
▁employ	-1777
edi	-1778
▁seen	-1779
ird	-1780
▁Intern	-1781
iol	-1782
verage	-1783
▁nut	-1784
ibility	-1785
lo	-1786
aut	-1787
bon	-1788
▁eff	-1789
▁already	-1790
urch	-1791
▁quality	-1792
iple	-1793
▁Ge	-1794
▁30	-1795
▁Resear	-1796
2,	-1797
▁potential	-1798
▁activities	-1799
▁below	-1800
for	-1801
uation	-1802
▁groups	-1803
8.	-1804
ream	-1805
▁loss	-1806
▁fall	-1807
▁really	-1808
▁Pr	-1809
▁Do	-1810
▁done	-1811
▁lot	-1812
▁story	-1813
▁offic	-1814
▁word	-1815
erence	-1816
▁particip	-1817
▁stat	-1818
mber	-1819
▁developed	-1820
osis	-1821
augh	-1822
▁close	-1823
▁products	-1824
rel	-1825
ee	-1826
▁wind	-1827
▁rather	-1828
oura	-1829
etimes	-1830
▁achie	-1831
▁resources	-1832
▁field	-1833
7.	-1834
fact	-1835
▁recogn	-1836
▁according	-1837
ands	-1838
iam	-1839
9.	-1840
▁mass	-1841
▁neg	-1842
ils	-1843
▁either	-1844
3,	-1845
esc	-1846
▁Cal	-1847
ival	-1848
unt	-1849
overed	-1850
▁14	-1851
▁deg	-1852
▁abs	-1853
▁prob	-1854
▁indust	-1855
▁bat	-1856
▁single	-1857
▁phot	-1858
▁skills	-1859
▁May	-1860
▁South	-1861
▁source	-1862
▁reduce	-1863
idered	-1864
▁event	-1865
▁national	-1866
▁tradition	-1867
▁observ	-1868
▁ur	-1869
▁concept	-1870
▁Acc	-1871
▁rate	-1872
ison	-1873
ask	-1874
▁surface	-1875
▁climate	-1876
wh	-1877
amin	-1878
▁North	-1879
▁flu	-1880
▁introdu	-1881
yl	-1882
▁article	-1883
▁building	-1884
▁init	-1885
▁drug	-1886
▁medical	-1887
▁five	-1888
▁once	-1889
ER	-1890
yn	-1891
▁researchers	-1892
▁fr	-1893
▁taken	-1894
▁issues	-1895
▁site	-1896
leep	-1897
val	-1898
▁red	-1899
▁whole	-1900
▁collect	-1901
eter	-1902
▁questions	-1903
rams	-1904
▁recomm	-1905
▁dom	-1906
ivil	-1907
urity	-1908
rict	-1909
▁evidence	-1910
▁fail	-1911
▁cut	-1912
▁tot	-1913
▁address	-1914
▁considered	-1915
▁ann	-1916
▁America	-1917
ule	-1918
ivity	-1919
▁Ass	-1920
▁size	-1921
▁upon	-1922
▁2.	-1923
fficient	-1924
▁frequ	-1925
rect	-1926
▁white	-1927
▁meet	-1928
▁Cont	-1929
▁members	-1930
▁associated	-1931
fer	-1932
▁Man	-1933
ublic	-1934
▁detail	-1935
▁sent	-1936
5,	-1937
▁skin	-1938
▁ver	-1939
▁pressure	-1940
30	-1941
▁doct	-1942
▁sun	-1943
▁Rep	-1944
▁created	-1945
▁nature	-1946
▁market	-1947
▁wide	-1948
ips	-1949
reme	-1950
▁relig	-1951
▁fri	-1952
▁came	-1953
roll	-1954
▁increased	-1955
▁political	-1956
plic	-1957
▁themselves	-1958
▁tell	-1959
▁sal	-1960
▁living	-1961
▁11	-1962
ights	-1963
▁states	-1964
illed	-1965
epend	-1966
▁pay	-1967
▁hold	-1968
▁lay	-1969
▁sound	-1970
▁practice	-1971
▁cannot	-1972
▁stress	-1973
▁dest	-1974
▁understanding	-1975
▁Soc	-1976
▁histor	-1977
▁return	-1978
ensive	-1979
▁animals	-1980
▁actually	-1981
▁Many	-1982
ober	-1983
▁Act	-1984
▁required	-1985
▁No	-1986
ournal	-1987
▁simple	-1988
▁related	-1989
iding	-1990
aced	-1991
reg	-1992
▁opportun	-1993
▁week	-1994
ibr	-1995
▁engine	-1996
▁197	-1997
▁relationship	-1998
itud	-1999
▁Aust	-2000
org	-2001
sequ	-2002
▁adult	-2003
utions	-2004
▁materials	-2005
▁purp	-2006
▁ability	-2007
ening	-2008
▁healthy	-2009
▁needed	-2010
▁black	-2011
ety	-2012
▁entire	-2013
▁His	-2014
enn	-2015
like	-2016
▁analysis	-2017
▁global	-2018
▁complex	-2019
▁thought	-2020
▁maint	-2021
▁Pe	-2022
▁economic	-2023
▁Hist	-2024
▁published	-2025
▁quick	-2026
▁Dep	-2027
▁arg	-2028
▁condition	-2029
▁parts	-2030
▁factors	-2031
▁famil	-2032
▁modern	-2033
▁student	-2034
▁diet	-2035
▁answ	-2036
sh	-2037
".	-2038
▁prote	-2039
▁Gu	-2040
▁comes	-2041
201	-2042
▁port	-2043
▁doc	-2044
▁dog	-2045
aging	-2046
▁writing	-2047
▁experien	-2048
▁idea	-2049
oon	-2050
▁fat	-2051
▁Fl	-2052
▁almost	-2053
eb	-2054
▁itself	-2055
▁provides	-2056
ging	-2057
4,	-2058
hing	-2059
ai	-2060
-2	-2061
▁oil	-2062
artment	-2063
ump	-2064
▁avoid	-2065
▁services	-2066
▁exerc	-2067
▁htt	-2068
acks	-2069
▁assess	-2070
▁fish	-2071
ney	-2072
▁vers	-2073
oses	-2074
ened	-2075
aged	-2076
chan	-2077
hib	-2078
AS	-2079
▁management	-2080
▁Earth	-2081
▁mor	-2082
▁money	-2083
itary	-2084
lying	-2085
▁Em	-2086
▁react	-2087
▁rights	-2088
gest	-2089
vere	-2090
▁coll	-2091
▁cat	-2092
▁Co	-2093
▁months	-2094
▁measure	-2095
▁weight	-2096
▁necessary	-2097
rad	-2098
▁arch	-2099
go	-2100
erve	-2101
):	-2102
ores	-2103
▁suff	-2104
▁approach	-2105
▁State	-2106
▁path	-2107
▁gas	-2108
▁half	-2109
ences	-2110
mon	-2111
▁produce	-2112
▁super	-2113
uel	-2114
▁parents	-2115
ystem	-2116
▁100	-2117
▁sam	-2118
bo	-2119
▁bar	-2120
▁medic	-2121
urs	-2122
olic	-2123
▁Most	-2124
▁soil	-2125
▁More	-2126
eding	-2127
▁priv	-2128
▁liter	-2129
usion	-2130
▁took	-2131
ply	-2132
▁arr	-2133
▁began	-2134
▁link	-2135
izing	-2136
▁conduct	-2137
based	-2138
▁personal	-2139
▁soft	-2140
▁ever	-2141
▁Su	-2142
▁job	-2143
6,	-2144
onse	-2145
▁princ	-2146
▁emer	-2147
abor	-2148
nces	-2149
▁computer	-2150
emic	-2151
rown	-2152
▁tar	-2153
▁individuals	-2154
▁chemical	-2155
irm	-2156
▁Research	-2157
▁green	-2158
iddle	-2159
8,	-2160
ume	-2161
▁cop	-2162
▁stop	-2163
▁throughout	-2164
▁separ	-2165
▁Although	-2166
▁region	-2167
▁color	-2168
▁pattern	-2169
▁popular	-2170
ma	-2171
▁yet	-2172
▁British	-2173
▁repl	-2174
ese	-2175
iction	-2176
▁reading	-2177
ections	-2178
▁ge	-2179
▁Jew	-2180
9,	-2181
igure	-2182
utes	-2183
▁regard	-2184
7,	-2185
▁shows	-2186
▁increasing	-2187
pid	-2188
my	-2189
▁society	-2190
abit	-2191
▁claim	-2192
ze	-2193
▁taking	-2194
▁Here	-2195
▁196	-2196
ID	-2197
ript	-2198
▁therap	-2199
▁farm	-2200
▁action	-2201
oll	-2202
▁anc	-2203
empt	-2204
▁bur	-2205
▁rul	-2206
▁temperature	-2207
▁company	-2208
▁sense	-2209
erous	-2210
▁content	-2211
▁fire	-2212
inter	-2213
▁online	-2214
▁total	-2215
▁recent	-2216
▁interact	-2217
Th	-2218
hold	-2219
▁structure	-2220
yle	-2221
▁longer	-2222
▁ut	-2223
anced	-2224
▁clean	-2225
▁previous	-2226
.)	-2227
apan	-2228
▁terms	-2229
▁la	-2230
ising	-2231
▁deb	-2232
▁industry	-2233
▁built	-2234
▁training	-2235
estern	-2236
itation	-2237
▁service	-2238
ively	-2239
ES	-2240
ches	-2241
▁Canad	-2242
iment	-2243
▁six	-2244
▁sleep	-2245
▁matter	-2246
icles	-2247
het	-2248
uck	-2249
▁position	-2250
▁diagn	-2251
▁Par	-2252
▁50	-2253
▁hours	-2254
▁travel	-2255
▁talk	-2256
pro	-2257
▁inj	-2258
▁According	-2259
▁Per	-2260
▁Me	-2261
reng	-2262
▁sat	-2263
▁13	-2264
▁rev	-2265
▁caused	-2266
astic	-2267
▁behavior	-2268
▁heat	-2269
▁surv	-2270
▁schools	-2271
▁heav	-2272
▁environmental	-2273
▁causes	-2274
▁meaning	-2275
▁Pre	-2276
ns	-2277
▁mach	-2278
▁School	-2279
▁break	-2280
lt	-2281
▁conc	-2282
▁Other	-2283
▁disord	-2284
▁Instit	-2285
▁benefits	-2286
▁Sec	-2287
11	-2288
AT	-2289
▁vari	-2290
fully	-2291
▁ce	-2292
aily	-2293
ulations	-2294
▁thing	-2295
▁II	-2296
▁contact	-2297
▁lives	-2298
▁sex	-2299
minist	-2300
▁provided	-2301
▁etc	-2302
▁check	-2303
▁positive	-2304
▁easy	-2305
▁App	-2306
▁shown	-2307
▁CO	-2308
▁spread	-2309
▁contain	-2310
▁Int	-2311
vey	-2312
lex	-2313
▁bring	-2314
▁Will	-2315
▁true	-2316
istance	-2317
▁ste	-2318
▁194	-2319
ows	-2320
▁prec	-2321
AR	-2322
ricult	-2323
ropri	-2324
aff	-2325
▁India	-2326
▁safe	-2327
▁designed	-2328
▁accept	-2329
inary	-2330
ene	-2331
▁fru	-2332
istics	-2333
▁includes	-2334
hood	-2335
▁methods	-2336
▁regular	-2337
▁Comp	-2338
ronic	-2339
▁wild	-2340
mb	-2341
▁average	-2342
▁Japan	-2343
▁bacter	-2344
▁3.	-2345
ufact	-2346
asc	-2347
▁vide	-2348
▁fem	-2349
ster	-2350
rought	-2351
▁Pres	-2352
ederal	-2353
▁standard	-2354
▁deep	-2355
ched	-2356
▁From	-2357
lands	-2358
ister	-2359
▁viol	-2360
▁relative	-2361
▁earth	-2362
▁led	-2363
▁music	-2364
aving	-2365
gar	-2366
▁greater	-2367
imately	-2368
▁lif	-2369
▁Of	-2370
▁review	-2371
▁carbon	-2372
▁mechan	-2373
ades	-2374
▁subst	-2375
▁...	-2376
▁response	-2377
▁variety	-2378
▁love	-2379
▁simply	-2380
rast	-2381
abet	-2382
▁original	-2383
▁slow	-2384
▁movement	-2385
ners	-2386
▁Ed	-2387
▁believe	-2388
▁eat	-2389
▁sometimes	-2390
▁0	-2391
rior	-2392
atives	-2393
▁target	-2394
▁issue	-2395
▁poll	-2396
▁Us	-2397
▁origin	-2398
▁exc	-2399
▁culture	-2400
▁helps	-2401
▁reported	-2402
▁--	-2403
aries	-2404
verse	-2405
▁psych	-2406
▁face	-2407
▁written	-2408
eration	-2409
▁scientists	-2410
▁compan	-2411
ength	-2412
▁Not	-2413
▁threat	-2414
▁respect	-2415
▁streng	-2416
▁involved	-2417
▁Min	-2418
▁damage	-2419
osition	-2420
amed	-2421
▁uses	-2422
▁doing	-2423
▁programs	-2424
aling	-2425
dom	-2426
▁events	-2427
rench	-2428
▁Part	-2429
▁demon	-2430
arily	-2431
▁remov	-2432
▁Science	-2433
▁encoura	-2434
▁sources	-2435
▁identify	-2436
▁micro	-2437
ials	-2438
▁normal	-2439
▁Rec	-2440
▁Cons	-2441
know	-2442
duc	-2443
In	-2444
▁,	-2445
▁compet	-2446
▁outside	-2447
▁compon	-2448
▁foods	-2449
▁image	-2450
▁tax	-2451
▁bal	-2452
▁emot	-2453
▁particularly	-2454
ucle	-2455
▁Austral	-2456
ban	-2457
ender	-2458
new	-2459
▁integ	-2460
▁poor	-2461
aches	-2462
elling	-2463
▁forms	-2464
▁lack	-2465
▁camp	-2466
▁i	-2467
▁pict	-2468
light	-2469
▁essential	-2470
hel	-2471
oor	-2472
▁electric	-2473
▁Har	-2474
▁ple	-2475
uge	-2476
▁Ag	-2477
rand	-2478
▁cust	-2479
▁ensure	-2480
▁produced	-2481
▁attention	-2482
▁generally	-2483
ctions	-2484
rie	-2485
▁basic	-2486
idge	-2487
ises	-2488
▁challeng	-2489
▁forest	-2490
▁developing	-2491
▁growing	-2492
▁emb	-2493
ops	-2494
▁late	-2495
▁feet	-2496
▁refer	-2497
▁virus	-2498
▁extreme	-2499
ief	-2500
▁page	-2501
:1	-2502
▁implement	-2503
▁Jan	-2504
▁share	-2505
umb	-2506
▁force	-2507
▁Gl	-2508
▁aff	-2509
oles	-2510
▁serious	-2511
▁displ	-2512
▁webs	-2513
▁lat	-2514
▁China	-2515
room	-2516
▁attempt	-2517
ached	-2518
▁teachers	-2519
▁consist	-2520
▁harm	-2521
▁ox	-2522
rated	-2523
▁Count	-2524
▁First	-2525
son	-2526
ervation	-2527
▁network	-2528
▁El	-2529
▁Now	-2530
▁numbers	-2531
▁appl	-2532
▁25	-2533
▁sust	-2534
▁coun	-2535
▁defin	-2536
▁log	-2537
▁ap	-2538
▁Bec	-2539
▁squ	-2540
▁manufact	-2541
▁select	-2542
osure	-2543
▁included	-2544
▁correct	-2545
▁animal	-2546
bor	-2547
ems	-2548
▁draw	-2549
▁attack	-2550
▁patient	-2551
▁visit	-2552
▁doesn	-2553
osing	-2554
▁Bo	-2555
ming	-2556
▁ideas	-2557
▁independ	-2558
▁ir	-2559
▁aware	-2560
issions	-2561
▁probably	-2562
▁wood	-2563
ads	-2564
▁hyd	-2565
▁During	-2566
▁magn	-2567
isions	-2568
ography	-2569
fect	-2570
▁series	-2571
▁continue	-2572
ana	-2573
--	-2574
▁safety	-2575
▁Aug	-2576
▁takes	-2577
▁dou	-2578
▁night	-2579
▁print	-2580
IS	-2581
▁Ac	-2582
▁Our	-2583
▁kids	-2584
imin	-2585
▁mess	-2586
▁therefore	-2587
eed	-2588
▁prep	-2589
▁getting	-2590
▁Ju	-2591
IN	-2592
raft	-2593
ribution	-2594
irit	-2595
▁express	-2596
▁Sm	-2597
uth	-2598
▁financ	-2599
set	-2600
▁media	-2601
▁international	-2602
▁vacc	-2603
▁policy	-2604
ties	-2605
▁colon	-2606
▁easily	-2607
▁Art	-2608
▁performance	-2609
imum	-2610
▁concent	-2611
cies	-2612
ground	-2613
▁veget	-2614
▁Educ	-2615
▁daily	-2616
▁theory	-2617
▁someone	-2618
▁Child	-2619
▁thus	-2620
▁earl	-2621
▁fa	-2622
oly	-2623
▁investig	-2624
▁cover	-2625
▁My	-2626
▁looking	-2627
▁difference	-2628
▁mother	-2629
vention	-2630
▁0.	-2631
▁commit	-2632
▁primary	-2633
ha	-2634
iot	-2635
▁sea	-2636
▁cit	-2637
▁started	-2638
▁Tw	-2639
uary	-2640
rs	-2641
▁leaders	-2642
▁estim	-2643
▁instead	-2644
ension	-2645
iency	-2646
▁quite	-2647
▁bab	-2648
▁European	-2649
▁added	-2650
▁wall	-2651
asons	-2652
ius	-2653
▁cross	-2654
haps	-2655
▁sil	-2656
▁allows	-2657
ino	-2658
▁ago	-2659
▁traditional	-2660
ror	-2661
▁diseases	-2662
▁ful	-2663
▁mental	-2664
▁Center	-2665
itude	-2666
rew	-2667
▁div	-2668
▁appropri	-2669
▁town	-2670
▁dang	-2671
▁achieve	-2672
▁books	-2673
overy	-2674
▁instit	-2675
▁communities	-2676
▁decre	-2677
▁eth	-2678
▁Indian	-2679
erg	-2680
▁civil	-2681
▁warm	-2682
▁determine	-2683
▁capt	-2684
ancy	-2685
▁tur	-2686
▁thous	-2687
▁tree	-2688
▁eval	-2689
erson	-2690
▁compared	-2691
▁sold	-2692
▁fav	-2693
▁vit	-2694
ington	-2695
▁progress	-2696
ying	-2697
▁reflect	-2698
We	-2699
▁tools	-2700
na	-2701
0,	-2702
▁offer	-2703
▁scientific	-2704
▁hy	-2705
▁multiple	-2706
▁points	-2707
▁tend	-2708
▁inside	-2709
▁Tra	-2710
▁tiss	-2711
▁Sch	-2712
▁nation	-2713
▁Even	-2714
▁held	-2715
▁sou	-2716
▁reve	-2717
▁French	-2718
▁established	-2719
inks	-2720
▁Reg	-2721
▁companies	-2722
cell	-2723
▁rout	-2724
▁quickly	-2725
▁larger	-2726
rate	-2727
▁humans	-2728
▁Since	-2729
▁third	-2730
▁military	-2731
where	-2732
▁feed	-2733
cil	-2734
▁eye	-2735
▁unique	-2736
▁answer	-2737
▁Calif	-2738
▁immedi	-2739
ims	-2740
▁trees	-2741
19	-2742
ls	-2743
pril	-2744
anks	-2745
ille	-2746
▁highly	-2747
ounds	-2748
▁directly	-2749
▁altern	-2750
ellow	-2751
elt	-2752
▁additional	-2753
▁speak	-2754
▁infection	-2755
▁demonstr	-2756
▁Institute	-2757
▁March	-2758
▁West	-2759
▁acid	-2760
▁front	-2761
▁critical	-2762
ift	-2763
▁Oct	-2764
▁dry	-2765
▁document	-2766
▁Char	-2767
abetes	-2768
▁birth	-2769
12	-2770
Wh	-2771
▁essay	-2772
▁negative	-2773
undred	-2774
▁although	-2775
▁Jes	-2776
term	-2777
iers	-2778
▁severe	-2779
▁Her	-2780
▁proced	-2781
▁analy	-2782
▁(200	-2783
▁Africa	-2784
▁Department	-2785
▁active	-2786
▁clin	-2787
▁soon	-2788
▁behind	-2789
▁write	-2790
▁aspect	-2791
▁gard	-2792
▁exercise	-2793
iques	-2794
▁extra	-2795
www	-2796
att	-2797
▁central	-2798
useum	-2799
▁drink	-2800
▁security	-2801
▁bit	-2802
nov	-2803
▁Ant	-2804
▁solar	-2805
ornia	-2806
▁Lear	-2807
arr	-2808
▁40	-2809
▁tri	-2810
▁families	-2811
▁towards	-2812
▁Russ	-2813
▁leading	-2814
▁German	-2815
olar	-2816
▁host	-2817
▁aud	-2818
▁broad	-2819
▁har	-2820
joy	-2821
ulate	-2822
▁foot	-2823
▁bad	-2824
▁prior	-2825
▁hor	-2826
vant	-2827
▁purpose	-2828
▁Br	-2829
aly	-2830
▁labor	-2831
itis	-2832
▁values	-2833
▁obt	-2834
▁Ret	-2835
cean	-2836
▁History	-2837
gency	-2838
thern	-2839
AN	-2840
▁quant	-2841
▁useful	-2842
pe	-2843
oes	-2844
▁supply	-2845
▁fram	-2846
▁stay	-2847
omet	-2848
▁beginning	-2849
▁International	-2850
▁Read	-2851
▁walk	-2852
▁went	-2853
▁African	-2854
▁shall	-2855
▁hot	-2856
▁doctor	-2857
▁accur	-2858
▁teaching	-2859
▁June	-2860
den	-2861
ON	-2862
▁Sept	-2863
yond	-2864
▁custom	-2865
▁expect	-2866
▁1,	-2867
▁Cor	-2868
▁seems	-2869
▁24	-2870
isms	-2871
OR	-2872
▁protein	-2873
▁Inc	-2874
▁situation	-2875
yr	-2876
ilos	-2877
▁California	-2878
▁stra	-2879
▁Sw	-2880
▁whose	-2881
uries	-2882
fl	-2883
▁decl	-2884
▁August	-2885
▁http	-2886
-3	-2887
▁Mus	-2888
▁habit	-2889
▁hands	-2890
▁limited	-2891
mar	-2892
▁features	-2893
▁transport	-2894
▁4.	-2895
▁Because	-2896
▁video	-2897
▁capital	-2898
▁contribut	-2899
▁Mon	-2900
formation	-2901
hern	-2902
▁ones	-2903
▁base	-2904
▁fight	-2905
▁Bar	-2906
It	-2907
▁Why	-2908
▁card	-2909
lection	-2910
▁influence	-2911
▁Gree	-2912
▁mount	-2913
▁elements	-2914
▁thinking	-2915
▁strateg	-2916
rition	-2917
▁Dav	-2918
▁pack	-2919
▁Then	-2920
▁workers	-2921
▁software	-2922
▁search	-2923
▁length	-2924
▁x	-2925
▁April	-2926
▁section	-2927
-19	-2928
ching	-2929
▁financial	-2930
▁ancient	-2931
▁lost	-2932
oming	-2933
rogen	-2934
▁exact	-2935
uman	-2936
oring	-2937
cial	-2938
▁minutes	-2939
bol	-2940
▁contains	-2941
▁mom	-2942
▁dark	-2943
hens	-2944
▁block	-2945
▁requires	-2946
▁mill	-2947
▁Sim	-2948
iter	-2949
uk	-2950
iber	-2951
▁fast	-2952
▁rates	-2953
▁interp	-2954
hest	-2955
ext	-2956
▁ang	-2957
▁unc	-2958
▁waste	-2959
▁hundred	-2960
gn	-2961
▁stri	-2962
inct	-2963
▁application	-2964
ription	-2965
pper	-2966
▁nucle	-2967
IC	-2968
fort	-2969
▁jo	-2970
▁protection	-2971
istry	-2972
”.	-2973
▁received	-2974
▁William	-2975
▁news	-2976
ologies	-2977
▁July	-2978
ields	-2979
▁demand	-2980
▁described	-2981
▁importance	-2982
▁jud	-2983
rote	-2984
▁private	-2985
▁weeks	-2986
▁except	-2987
▁brought	-2988
▁devices	-2989
▁disp	-2990
wise	-2991
▁Fin	-2992
▁else	-2993
coh	-2994
▁adults	-2995
▁River	-2996
▁Wash	-2997
▁veh	-2998
▁carry	-2999
▁largest	-3000
▁enjoy	-3001
▁sn	-3002
▁images	-3003
▁administ	-3004
▁Also	-3005
▁ult	-3006
▁capac	-3007
izations	-3008
▁costs	-3009
▁processes	-3010
▁solution	-3011
▁Jesus	-3012
▁nearly	-3013
▁Serv	-3014
▁wa	-3015
▁ord	-3016
▁got	-3017
orthern	-3018
▁stru	-3019
▁decision	-3020
▁lines	-3021
ipment	-3022
▁Mc	-3023
▁agricult	-3024
▁leaves	-3025
cks	-3026
▁north	-3027
▁fit	-3028
▁Press	-3029
▁sustain	-3030
▁adop	-3031
▁bacteria	-3032
▁speed	-3033
rael	-3034
▁cred	-3035
estic	-3036
▁places	-3037
▁becomes	-3038
imal	-3039
ulated	-3040
▁goal	-3041
▁agree	-3042
▁game	-3043
▁communication	-3044
▁located	-3045
▁table	-3046
vest	-3047
▁ep	-3048
▁tests	-3049
mission	-3050
odies	-3051
▁mole	-3052
▁remain	-3053
uous	-3054
used	-3055
▁mention	-3056
▁England	-3057
▁memory	-3058
▁season	-3059
▁respond	-3060
▁website	-3061
▁techniques	-3062
▁projects	-3063
▁appropriate	-3064
idents	-3065
▁reach	-3066
▁establish	-3067
▁Associ	-3068
▁rare	-3069
▁Americans	-3070
rag	-3071
▁eyes	-3072
▁President	-3073
▁Christian	-3074
equ	-3075
▁adj	-3076
▁told	-3077
▁remains	-3078
bit	-3079
▁Let	-3080
▁born	-3081
▁surround	-3082
▁typically	-3083
▁laws	-3084
entially	-3085
▁transl	-3086
▁mix	-3087
▁adapt	-3088
▁efforts	-3089
sect	-3090
ibrary	-3091
▁testing	-3092
EN	-3093
iles	-3094
▁Over	-3095
▁rapid	-3096
see	-3097
▁sites	-3098
year	-3099
▁behavi	-3100
▁deal	-3101
▁religious	-3102
▁Techn	-3103
▁friends	-3104
▁south	-3105
▁basis	-3106
▁vict	-3107
▁:	-3108
▁Trans	-3109
▁egg	-3110
ipl	-3111
▁summer	-3112
▁crop	-3113
come	-3114
▁property	-3115
izes	-3116
▁Day	-3117
▁cool	-3118
▁People	-3119
▁creating	-3120
▁advant	-3121
▁Ec	-3122
inese	-3123
▁gives	-3124
▁beaut	-3125
itect	-3126
▁cultural	-3127
▁Canada	-3128
ford	-3129
▁himself	-3130
▁accom	-3131
▁Govern	-3132
ondon	-3133
▁install	-3134
ham	-3135
▁father	-3136
ceed	-3137
iece	-3138
oke	-3139
▁Another	-3140
▁died	-3141
oud	-3142
▁Dis	-3143
atur	-3144
king	-3145
med	-3146
ony	-3147
▁applications	-3148
▁Prog	-3149
▁High	-3150
16	-3151
▁command	-3152
▁Just	-3153
▁king	-3154
▁Are	-3155
▁eating	-3156
▁cold	-3157
▁der	-3158
ype	-3159
▁breat	-3160
▁citiz	-3161
▁stage	-3162
▁dead	-3163
▁construction	-3164
aul	-3165
▁cam	-3166
▁Red	-3167
▁final	-3168
▁fuel	-3169
▁teacher	-3170
resh	-3171
▁Inst	-3172
AC	-3173
▁anti	-3174
▁Great	-3175
head	-3176
▁saw	-3177
▁Cong	-3178
▁Use	-3179
itable	-3180
▁September	-3181
▁miles	-3182
arian	-3183
▁teeth	-3184
80	-3185
cember	-3186
▁sugar	-3187
▁examples	-3188
▁Education	-3189
ogen	-3190
uments	-3191
▁center	-3192
▁sequ	-3193
▁monitor	-3194
▁Church	-3195
This	-3196
aid	-3197
▁son	-3198
iar	-3199
cles	-3200
▁Sur	-3201
▁room	-3202
▁anything	-3203
▁therapy	-3204
▁pan	-3205
▁expected	-3206
ding	-3207
▁IS	-3208
▁Each	-3209
ED	-3210
▁Mod	-3211
▁trade	-3212
▁affected	-3213
▁Israel	-3214
▁Pol	-3215
▁depend	-3216
▁January	-3217
▁reasons	-3218
▁cele	-3219
▁cou	-3220
life	-3221
▁autom	-3222
▁hope	-3223
▁nothing	-3224
▁digital	-3225
▁everything	-3226
▁Park	-3227
▁21	-3228
illing	-3229
ellig	-3230
▁calcul	-3231
▁followed	-3232
ama	-3233
▁practices	-3234
▁responsible	-3235
▁middle	-3236
▁benefit	-3237
▁hous	-3238
▁coast	-3239
cohol	-3240
▁code	-3241
▁October	-3242
▁gradu	-3243
▁und	-3244
▁Feb	-3245
rim	-3246
▁device	-3247
▁imag	-3248
bur	-3249
back	-3250
▁recently	-3251
strial	-3252
▁cru	-3253
▁Pat	-3254
ira	-3255
▁older	-3256
▁bott	-3257
▁beyond	-3258
▁forces	-3259
eal	-3260
ovember	-3261
▁Develop	-3262
▁hyp	-3263
▁objects	-3264
▁receive	-3265
▁mid	-3266
-0	-3267
▁connect	-3268
▁pen	-3269
aught	-3270
apter	-3271
▁Commun	-3272
▁equipment	-3273
▁Washington	-3274
▁Journal	-3275
▁web	-3276
▁economy	-3277
▁screen	-3278
▁spirit	-3279
mosp	-3280
▁Once	-3281
ari	-3282
▁fear	-3283
▁bul	-3284
40	-3285
▁communic	-3286
▁controll	-3287
water	-3288
▁ice	-3289
▁professional	-3290
▁choose	-3291
▁rock	-3292
▁conflic	-3293
▁legal	-3294
▁consequ	-3295
▁City	-3296
▁ten	-3297
▁models	-3298
▁providing	-3299
▁yourself	-3300
ico	-3301
▁exposure	-3302
▁asked	-3303
ran	-3304
▁Prof	-3305
▁enh	-3306
ribute	-3307
▁opportunity	-3308
ev	-3309
▁Chinese	-3310
▁diabetes	-3311
▁smaller	-3312
▁date	-3313
▁Bi	-3314
▁overall	-3315
ought	-3316
wor	-3317
▁System	-3318
iples	-3319
▁tit	-3320
ula	-3321
▁recommend	-3322
▁weather	-3323
▁occurs	-3324
▁insp	-3325
▁sett	-3326
▁strength	-3327
▁cra	-3328
▁constit	-3329
▁currently	-3330
load	-3331
▁organization	-3332
uff	-3333
▁federal	-3334
▁alone	-3335
isl	-3336
IT	-3337
▁Arch	-3338
▁shape	-3339
▁rain	-3340
▁rise	-3341
▁instru	-3342
▁pregn	-3343
▁location	-3344
▁degree	-3345
▁Water	-3346
oe	-3347
▁completely	-3348
ospital	-3349
▁wrote	-3350
▁differences	-3351
▁scale	-3352
▁trying	-3353
rees	-3354
▁won	-3355
▁rob	-3356
ests	-3357
▁everyone	-3358
15	-3359
vert	-3360
▁predict	-3361
airs	-3362
▁measures	-3363
▁swe	-3364
▁visual	-3365
ech	-3366
▁via	-3367
▁London	-3368
omb	-3369
PA	-3370
▁earlier	-3371
▁beg	-3372
▁woman	-3373
time	-3374
▁drugs	-3375
▁constant	-3376
con	-3377
▁successful	-3378
▁joint	-3379
tery	-3380
▁purch	-3381
25	-3382
enge	-3383
▁effort	-3384
▁rules	-3385
▁billion	-3386
▁standards	-3387
▁commonly	-3388
anish	-3389
sec	-3390
▁ball	-3391
ensity	-3392
▁County	-3393
▁December	-3394
▁East	-3395
▁collection	-3396
▁Black	-3397
amic	-3398
▁Cur	-3399
▁pet	-3400
▁former	-3401
▁virt	-3402
▁birds	-3403
60	-3404
book	-3405
men	-3406
▁Law	-3407
▁approx	-3408
▁interesting	-3409
▁goes	-3410
▁DNA	-3411
▁Mex	-3412
rick	-3413
▁winter	-3414
▁allowed	-3415
▁193	-3416
▁maintain	-3417
▁reduced	-3418
▁named	-3419
▁leave	-3420
ica	-3421
▁occup	-3422
▁isn	-3423
▁exec	-3424
mitted	-3425
▁placed	-3426
wide	-3427
aur	-3428
▁categ	-3429
▁perfect	-3430
ocr	-3431
▁General	-3432
▁genetic	-3433
uit	-3434
co	-3435
▁See	-3436
▁acqu	-3437
rieved	-3438
▁max	-3439
▁users	-3440
▁historical	-3441
▁Don	-3442
▁applied	-3443
▁electr	-3444
▁sch	-3445
▁fruit	-3446
iest	-3447
▁Under	-3448
ara	-3449
▁hon	-3450
▁file	-3451
▁Cour	-3452
▁November	-3453
▁steps	-3454
lin	-3455
itch	-3456
ingu	-3457
▁user	-3458
▁poly	-3459
▁member	-3460
▁planet	-3461
oday	-3462
▁identified	-3463
▁destro	-3464
▁commerc	-3465
▁neigh	-3466
▁enter	-3467
▁mob	-3468
▁sect	-3469
▁discovered	-3470
▁continued	-3471
▁eight	-3472
▁powerful	-3473
▁track	-3474
irection	-3475
bre	-3476
ocks	-3477
▁context	-3478
▁immune	-3479
iable	-3480
rig	-3481
▁coming	-3482
▁Thus	-3483
reet	-3484
▁rich	-3485
▁church	-3486
▁compar	-3487
▁mis	-3488
▁display	-3489
ibly	-3490
▁majority	-3491
▁presence	-3492
▁tox	-3493
▁den	-3494
▁rule	-3495
▁formed	-3496
▁Roman	-3497
ste	-3498
alt	-3499
▁road	-3500
▁gold	-3501
▁showed	-3502
ruary	-3503
ords	-3504
▁properties	-3505
▁Their	-3506
▁San	-3507
ss	-3508
▁signs	-3509
▁195	-3510
▁machine	-3511
aled	-3512
edom	-3513
▁guid	-3514
oration	-3515
enty	-3516
▁philos	-3517
▁pow	-3518
▁fair	-3519
▁limit	-3520
▁60	-3521
▁gave	-3522
▁status	-3523
▁bra	-3524
▁acad	-3525
rab	-3526
edia	-3527
ament	-3528
▁Conf	-3529
▁Aut	-3530
▁Coun	-3531
▁(201	-3532
cious	-3533
▁wond	-3534
▁asse	-3535
▁version	-3536
▁assign	-3537
▁miss	-3538
aters	-3539
▁teach	-3540
bl	-3541
que	-3542
hemat	-3543
▁choice	-3544
13	-3545
▁capacity	-3546
▁rat	-3547
▁perhaps	-3548
▁factor	-3549
▁nutri	-3550
▁situ	-3551
▁mouth	-3552
▁increases	-3553
▁cities	-3554
▁dat	-3555
▁symbol	-3556
▁mig	-3557
▁patterns	-3558
known	-3559
▁House	-3560
▁cry	-3561
ocol	-3562
▁gir	-3563
▁atmosp	-3564
▁strugg	-3565
▁hair	-3566
▁note	-3567
▁stim	-3568
▁emp	-3569
▁Ro	-3570
▁belief	-3571
▁illust	-3572
▁fully	-3573
ogle	-3574
▁remember	-3575
▁cook	-3576
▁Prot	-3577
▁antib	-3578
phas	-3579
aint	-3580
▁relatively	-3581
▁changed	-3582
▁anx	-3583
▁didn	-3584
▁actions	-3585
▁court	-3586
gery	-3587
▁efficient	-3588
▁baby	-3589
▁Che	-3590
18	-3591
off	-3592
▁illness	-3593
▁5.	-3594
▁Spec	-3595
▁unit	-3596
▁promot	-3597
▁incor	-3598
▁Rel	-3599
gypt	-3600
▁peace	-3601
unch	-3602
udd	-3603
craft	-3604
▁moment	-3605
▁tou	-3606
orge	-3607
aste	-3608
▁task	-3609
▁tissue	-3610
▁worth	-3611
ees	-3612
▁Public	-3613
▁female	-3614
▁emissions	-3615
▁mut	-3616
▁assist	-3617
▁evolution	-3618
▁Germany	-3619
14	-3620
▁Australia	-3621
iring	-3622
related	-3623
encies	-3624
emy	-3625
▁appears	-3626
▁functions	-3627
▁ast	-3628
▁Society	-3629
can	-3630
▁Children	-3631
▁components	-3632
▁root	-3633
ternal	-3634
▁effic	-3635
▁Union	-3636
▁challenges	-3637
▁construct	-3638
▁moving	-3639
▁price	-3640
▁vill	-3641
AL	-3642
▁Jewish	-3643
▁stories	-3644
▁pp	-3645
▁existing	-3646
▁forward	-3647
St	-3648
▁Environment	-3649
▁Lat	-3650
▁names	-3651
▁staff	-3652
more	-3653
▁alcohol	-3654
era	-3655
▁piece	-3656
▁star	-3657
▁architect	-3658
▁offers	-3659
lor	-3660
odes	-3661
▁fresh	-3662
▁TH	-3663
resp	-3664
▁element	-3665
rief	-3666
▁distance	-3667
▁convers	-3668
▁worked	-3669
▁repe	-3670
▁observed	-3671
aign	-3672
iences	-3673
▁Every	-3674
▁France	-3675
▁findings	-3676
▁style	-3677
iful	-3678
▁aim	-3679
▁Phil	-3680
ero	-3681
▁educational	-3682
▁expand	-3683
ey	-3684
▁tele	-3685
▁instance	-3686
▁susp	-3687
▁transfer	-3688
rupt	-3689
....	-3690
rehens	-3691
▁Inter	-3692
",	-3693
▁giving	-3694
▁consumption	-3695
ession	-3696
▁Pal	-3697
▁guide	-3698
▁balance	-3699
▁Medic	-3700
▁equal	-3701
▁opportunities	-3702
▁initi	-3703
▁qual	-3704
▁innov	-3705
▁evalu	-3706
▁contract	-3707
▁reports	-3708
▁Green	-3709
▁Retrieved	-3710
▁experim	-3711
▁ing	-3712
▁February	-3713
▁direction	-3714
ky	-3715
abilities	-3716
ux	-3717
▁picture	-3718
rome	-3719
▁foreign	-3720
▁Av	-3721
force	-3722
▁thousands	-3723
▁weak	-3724
▁river	-3725
▁absor	-3726
▁Ang	-3727
house	-3728
▁collabor	-3729
▁iron	-3730
▁mal	-3731
▁explain	-3732
iny	-3733
EC	-3734
▁resistance	-3735
▁box	-3736
▁map	-3737
▁significantly	-3738
▁huge	-3739
▁garden	-3740
ygen	-3741
▁vo	-3742
care	-3743
▁strategies	-3744
17	-3745
▁income	-3746
▁regions	-3747
▁options	-3748
inated	-3749
22	-3750
▁believed	-3751
▁blue	-3752
▁defined	-3753
hors	-3754
▁Mic	-3755
▁detect	-3756
▁suggests	-3757
▁Association	-3758
ald	-3759
▁Des	-3760
hy	-3761
▁running	-3762
icip	-3763
▁friend	-3764
▁planning	-3765
▁spect	-3766
▁assum	-3767
▁vision	-3768
▁Bra	-3769
▁chance	-3770
▁Egypt	-3771
omas	-3772
asion	-3773
▁passed	-3774
igen	-3775
▁mission	-3776
bed	-3777
▁Dec	-3778
▁wrong	-3779
”,	-3780
▁famous	-3781
amb	-3782
▁Mat	-3783
-4	-3784
▁details	-3785
▁clinical	-3786
▁Today	-3787
▁carried	-3788
▁gain	-3789
▁survey	-3790
ifically	-3791
▁citizens	-3792
rec	-3793
▁James	-3794
▁fix	-3795
▁experiences	-3796
▁Congress	-3797
▁instruct	-3798
▁treated	-3799
▁disorder	-3800
apers	-3801
▁office	-3802
▁Students	-3803
▁divid	-3804
▁plans	-3805
▁Therefore	-3806
▁watch	-3807
▁UN	-3808
▁phen	-3809
▁bound	-3810
▁util	-3811
3)	-3812
orage	-3813
▁excess	-3814
▁native	-3815
pped	-3816
▁insect	-3817
▁extremely	-3818
▁suppl	-3819
▁plastic	-3820
▁separate	-3821
▁Rev	-3822
▁items	-3823
▁Mor	-3824
▁attract	-3825
isation	-3826
▁apply	-3827
▁Work	-3828
▁figure	-3829
pris	-3830
▁muscle	-3831
▁exhib	-3832
▁breast	-3833
▁Rem	-3834
▁presented	-3835
▁eventually	-3836
Ch	-3837
▁highest	-3838
▁topic	-3839
▁Colle	-3840
▁classroom	-3841
▁glass	-3842
▁Lord	-3843
▁David	-3844
uls	-3845
▁structures	-3846
▁explore	-3847
▁feature	-3848
▁Mich	-3849
▁bone	-3850
▁seven	-3851
▁generation	-3852
▁novel	-3853
nes	-3854
▁Mary	-3855
▁organizations	-3856
▁mo	-3857
▁Western	-3858
▁liqu	-3859
▁decades	-3860
▁Internet	-3861
▁favor	-3862
▁commercial	-3863
▁Ob	-3864
▁celebr	-3865
▁sac	-3866
▁Social	-3867
oma	-3868
▁fert	-3869
▁requirements	-3870
▁spring	-3871
▁heavy	-3872
▁goals	-3873
▁happen	-3874
▁immediately	-3875
▁male	-3876
▁technologies	-3877
DA	-3878
▁22	-3879
▁milk	-3880
▁rot	-3881
▁urban	-3882
ares	-3883
asks	-3884
▁board	-3885
▁industrial	-3886
▁pick	-3887
iance	-3888
ographic	-3889
▁Human	-3890
wards	-3891
▁easier	-3892
▁journal	-3893
lim	-3894
▁depression	-3895
part	-3896
▁Plan	-3897
▁medicine	-3898
▁truth	-3899
▁reality	-3900
▁learned	-3901
▁save	-3902
eces	-3903
▁bed	-3904
▁Food	-3905
▁conducted	-3906
▁emphas	-3907
ophy	-3908
▁Bu	-3909
pan	-3910
70	-3911
▁HI	-3912
ube	-3913
▁bank	-3914
▁perspect	-3915
▁hom	-3916
▁Net	-3917
OS	-3918
▁intellig	-3919
▁dyn	-3920
change	-3921
enth	-3922
II	-3923
▁faith	-3924
ken	-3925
▁mer	-3926
▁Bel	-3927
▁Sub	-3928
▁Found	-3929
che	-3930
▁Di	-3931
EM	-3932
▁vary	-3933
▁cycle	-3934
iant	-3935
ologist	-3936
zz	-3937
▁Using	-3938
▁slight	-3939
▁sample	-3940
▁Japanese	-3941
▁introduced	-3942
▁Sam	-3943
▁neu	-3944
▁contrast	-3945
uing	-3946
ulum	-3947
▁approximately	-3948
▁Program	-3949
▁kid	-3950
▁speech	-3951
▁performed	-3952
90	-3953
▁challenge	-3954
▁actual	-3955
▁agg	-3956
plications	-3957
▁serve	-3958
▁bodies	-3959
▁distribution	-3960
▁release	-3961
▁remove	-3962
▁experiment	-3963
▁alternative	-3964
▁fig	-3965
▁letter	-3966
cast	-3967
▁recommended	-3968
ida	-3969
▁legisl	-3970
▁becoming	-3971
▁electricity	-3972
▁opin	-3973
▁cand	-3974
erate	-3975
▁temperatures	-3976
bal	-3977
▁metal	-3978
▁ves	-3979
▁destroy	-3980
21	-3981
▁aspects	-3982
▁sexual	-3983
▁populations	-3984
imens	-3985
▁resource	-3986
▁decisions	-3987
▁literature	-3988
▁graph	-3989
iate	-3990
▁Further	-3991
▁gene	-3992
▁nutrition	-3993
▁household	-3994
▁Two	-3995
▁Gra	-3996
ET	-3997
▁president	-3998
▁assessment	-3999
▁moved	-4000
tical	-4001
▁records	-4002
▁stream	-4003
▁Organ	-4004
▁estimated	-4005
▁Web	-4006
othes	-4007
gal	-4008
▁plat	-4009
SA	-4010
▁connected	-4011
ager	-4012
▁Tur	-4013
▁disorders	-4014
▁ign	-4015
▁nuclear	-4016
▁frequently	-4017
antic	-4018
▁widely	-4019
ulf	-4020
▁organic	-4021
▁fields	-4022
roph	-4023
▁oxygen	-4024
tee	-4025
▁reference	-4026
▁released	-4027
▁Council	-4028
▁Phys	-4029
▁film	-4030
▁party	-4031
▁combination	-4032
▁dogs	-4033
▁causing	-4034
▁Air	-4035
▁Paul	-4036
porary	-4037
▁chronic	-4038
▁mag	-4039
▁desp	-4040
▁23	-4041
uses	-4042
▁independent	-4043
ructure	-4044
ously	-4045
▁trust	-4046
▁buy	-4047
▁vitamin	-4048
▁participants	-4049
▁numerous	-4050
▁Som	-4051
▁notes	-4052
▁violence	-4053
▁doub	-4054
▁killed	-4055
▁solutions	-4056
▁operations	-4057
▁186	-4058
▁Test	-4059
▁characteristics	-4060
▁failure	-4061
▁layer	-4062
▁risks	-4063
▁store	-4064
▁changing	-4065
▁College	-4066
▁esc	-4067
▁compl	-4068
▁drive	-4069
▁homes	-4070
clus	-4071
rant	-4072
▁Greek	-4073
▁statement	-4074
▁Rober	-4075
▁190	-4076
order	-4077
▁univers	-4078
▁policies	-4079
unction	-4080
▁thr	-4081
raction	-4082
met	-4083
▁inflamm	-4084
icial	-4085
▁buildings	-4086
▁clearly	-4087
▁George	-4088
2)	-4089
▁prefer	-4090
char	-4091
ologists	-4092
▁setting	-4093
AM	-4094
▁Development	-4095
ortion	-4096
▁isol	-4097
▁flood	-4098
▁gets	-4099
elines	-4100
ped	-4101
▁divers	-4102
raw	-4103
▁college	-4104
erences	-4105
▁trig	-4106
▁reducing	-4107
▁lived	-4108
▁bottom	-4109
iders	-4110
▁Government	-4111
ressive	-4112
▁drop	-4113
do	-4114
▁Both	-4115
▁wanted	-4116
▁Mark	-4117
▁starting	-4118
▁resulting	-4119
ognitive	-4120
▁discussion	-4121
▁Republic	-4122
▁authors	-4123
▁appe	-4124
▁Fore	-4125
▁initial	-4126
▁internal	-4127
▁shap	-4128
▁email	-4129
rog	-4130
▁ready	-4131
▁Hel	-4132
▁Tex	-4133
cular	-4134
▁burn	-4135
cont	-4136
ilit	-4137
iveness	-4138
▁technique	-4139
▁Its	-4140
▁connection	-4141
▁covered	-4142
▁Like	-4143
rm	-4144
▁80	-4145
olved	-4146
▁partners	-4147
▁minor	-4148
PS	-4149
▁battle	-4150
▁campaign	-4151
ij	-4152
▁horm	-4153
▁infections	-4154
▁prepar	-4155
▁Dem	-4156
ingly	-4157
▁anxiety	-4158
▁dri	-4159
hetic	-4160
▁noted	-4161
▁tour	-4162
ollow	-4163
▁Off	-4164
▁anyone	-4165
urance	-4166
▁involves	-4167
anging	-4168
tered	-4169
▁ocean	-4170
▁ded	-4171
▁hear	-4172
▁exactly	-4173
roup	-4174
essor	-4175
▁seed	-4176
▁Sy	-4177
▁thick	-4178
▁distinct	-4179
▁arm	-4180
▁turned	-4181
▁Mal	-4182
▁Museum	-4183
▁creation	-4184
rosc	-4185
atically	-4186
works	-4187
▁happens	-4188
▁ST	-4189
▁vessel	-4190
▁mostly	-4191
▁injury	-4192
▁Ev	-4193
▁genes	-4194
rest	-4195
▁NAS	-4196
▁territ	-4197
▁relationships	-4198
▁removed	-4199
▁load	-4200
▁tim	-4201
▁trend	-4202
▁sand	-4203
▁Spanish	-4204
▁sav	-4205
▁reprodu	-4206
▁upper	-4207
onds	-4208
▁feeling	-4209
key	-4210
▁tooth	-4211
▁surgery	-4212
▁replace	-4213
-5	-4214
▁Mr	-4215
▁2010	-4216
▁counter	-4217
▁2,	-4218
▁radio	-4219
▁degrees	-4220
ias	-4221
▁games	-4222
amental	-4223
▁volume	-4224
▁circum	-4225
olid	-4226
▁referred	-4227
▁cris	-4228
erved	-4229
▁La	-4230
▁Project	-4231
ieties	-4232
▁freedom	-4233
▁Court	-4234
▁advanced	-4235
▁background	-4236
▁expression	-4237
▁pi	-4238
▁pal	-4239
▁finding	-4240
▁principles	-4241
▁storage	-4242
▁adjust	-4243
▁trib	-4244
▁encourage	-4245
▁confirm	-4246
▁conv	-4247
▁message	-4248
▁About	-4249
▁output	-4250
▁trou	-4251
▁dangerous	-4252
▁classes	-4253
ocal	-4254
▁nor	-4255
▁properly	-4256
▁Second	-4257
ception	-4258
rows	-4259
▁Def	-4260
uration	-4261
▁mentioned	-4262
▁scen	-4263
ii	-4264
▁Rich	-4265
▁win	-4266
▁fine	-4267
▁experts	-4268
▁annual	-4269
▁physic	-4270
▁seeds	-4271
osystem	-4272
▁incorpor	-4273
▁radiation	-4274
▁upd	-4275
▁vul	-4276
▁whom	-4277
▁Cath	-4278
▁Bas	-4279
▁option	-4280
och	-4281
▁academic	-4282
▁Sun	-4283
▁core	-4284
200	-4285
▁meeting	-4286
▁leads	-4287
▁emotional	-4288
▁dram	-4289
▁helped	-4290
▁experienced	-4291
78	-4292
▁determined	-4293
▁diss	-4294
▁advantage	-4295
▁religion	-4296
▁comprehens	-4297
▁conflict	-4298
ault	-4299
▁regarding	-4300
ndrome	-4301
▁White	-4302
▁unf	-4303
ST	-4304
anch	-4305
ping	-4306
▁involve	-4307
▁units	-4308
▁die	-4309
▁race	-4310
▁belong	-4311
▁Hen	-4312
▁god	-4313
▁pric	-4314
ressed	-4315
▁synt	-4316
▁elimin	-4317
orial	-4318
ortunately	-4319
ios	-4320
▁excell	-4321
▁Bro	-4322
▁landsc	-4323
▁Step	-4324
▁processing	-4325
▁Mount	-4326
▁profession	-4327
▁transform	-4328
▁alg	-4329
▁math	-4330
▁reb	-4331
▁tum	-4332
▁exposed	-4333
riculum	-4334
▁inh	-4335
▁solid	-4336
▁grade	-4337
▁defic	-4338
▁previously	-4339
oyal	-4340
▁jour	-4341
▁relevant	-4342
▁depending	-4343
ander	-4344
▁Port	-4345
▁click	-4346
rum	-4347
▁reaction	-4348
What	-4349
▁Ben	-4350
lick	-4351
▁2011	-4352
▁linked	-4353
▁6.	-4354
▁Met	-4355
▁promote	-4356
▁gender	-4357
▁input	-4358
▁describe	-4359
▁effectively	-4360
▁grass	-4361
▁expert	-4362
▁heard	-4363
▁2012	-4364
▁influen	-4365
▁manufacture	-4366
▁spot	-4367
▁motor	-4368
▁Jews	-4369
▁please	-4370
▁sem	-4371
▁pollution	-4372
▁interpret	-4373
▁lung	-4374
▁kept	-4375
▁coal	-4376
RE	-4377
▁island	-4378
ishing	-4379
▁grant	-4380
▁round	-4381
riage	-4382
▁mist	-4383
4)	-4384
ategy	-4385
urt	-4386
▁Je	-4387
▁helping	-4388
▁Cle	-4389
▁amounts	-4390
▁sort	-4391
▁Ber	-4392
▁conservation	-4393
▁beautiful	-4394
cers	-4395
mark	-4396
▁concerns	-4397
▁wealth	-4398
▁served	-4399
▁Treat	-4400
▁mathemat	-4401
▁meat	-4402
▁prepared	-4403
▁concepts	-4404
▁Asia	-4405
▁presc	-4406
▁Island	-4407
▁operation	-4408
stitution	-4409
▁vot	-4410
▁strategy	-4411
▁definition	-4412
▁(199	-4413
▁Data	-4414
▁saying	-4415
▁NASA	-4416
▁phase	-4417
▁mel	-4418
▁hearing	-4419
ributed	-4420
ya	-4421
▁decided	-4422
▁comfort	-4423
▁Mars	-4424
▁meant	-4425
▁Get	-4426
ago	-4427
umn	-4428
itz	-4429
▁Ser	-4430
iverse	-4431
▁engineering	-4432
▁Isl	-4433
▁pun	-4434
oking	-4435
▁interested	-4436
▁eggs	-4437
ria	-4438
uted	-4439
▁aid	-4440
▁improved	-4441
place	-4442
▁consult	-4443
onic	-4444
▁kill	-4445
▁hour	-4446
mat	-4447
▁26	-4448
▁official	-4449
za	-4450
rete	-4451
▁cast	-4452
▁Old	-4453
ta	-4454
▁manage	-4455
▁efficiency	-4456
▁Central	-4457
▁bud	-4458
▁Mexico	-4459
▁Post	-4460
▁90	-4461
▁Thomas	-4462
▁Fre	-4463
▁calc	-4464
ams	-4465
▁square	-4466
zing	-4467
▁Texas	-4468
▁Ref	-4469
▁Class	-4470
▁pages	-4471
▁Sal	-4472
▁Make	-4473
▁impl	-4474
▁articles	-4475
ek	-4476
▁Service	-4477
▁Elect	-4478
▁datab	-4479
▁diagnosis	-4480
23	-4481
▁spent	-4482
▁concern	-4483
▁10.	-4484
▁discover	-4485
ded	-4486
▁Mac	-4487
▁southern	-4488
▁obvious	-4489
▁ship	-4490
▁atmosphere	-4491
▁northern	-4492
▁invent	-4493
▁farmers	-4494
ifying	-4495
▁28	-4496
▁Scient	-4497
clusion	-4498
▁lib	-4499
▁volunt	-4500
aughter	-4501
ball	-4502
▁manner	-4503
▁Mart	-4504
▁languages	-4505
bi	-4506
▁conclud	-4507
▁pip	-4508
▁procedure	-4509
lease	-4510
itors	-4511
▁awareness	-4512
standing	-4513
▁mainly	-4514
irgin	-4515
▁cere	-4516
▁motiv	-4517
▁conver	-4518
▁reached	-4519
▁vegetables	-4520
▁completed	-4521
▁seek	-4522
▁owners	-4523
▁institutions	-4524
▁Jer	-4525
▁chemicals	-4526
▁Dist	-4527
-8	-4528
▁pret	-4529
board	-4530
wood	-4531
alled	-4532
▁signal	-4533
▁Miss	-4534
iling	-4535
▁professor	-4536
▁platform	-4537
▁revolution	-4538
uable	-4539
alle	-4540
▁clos	-4541
tes	-4542
▁west	-4543
▁AD	-4544
nic	-4545
vision	-4546
▁hospital	-4547
kin	-4548
▁secret	-4549
isher	-4550
▁hop	-4551
▁Sen	-4552
▁Op	-4553
▁70	-4554
▁corresp	-4555
well	-4556
▁Learning	-4557
berg	-4558
▁proposed	-4559
▁lesson	-4560
onomic	-4561
rates	-4562
▁samples	-4563
▁looks	-4564
acing	-4565
▁song	-4566
rence	-4567
1)	-4568
▁recorded	-4569
▁sustainable	-4570
▁formation	-4571
▁reduction	-4572
▁supported	-4573
ishes	-4574
▁Lou	-4575
▁continues	-4576
▁appoint	-4577
▁Acad	-4578
ormal	-4579
▁Addition	-4580
▁contribute	-4581
▁pieces	-4582
comes	-4583
▁yellow	-4584
▁frequency	-4585
▁vaccine	-4586
astern	-4587
▁practical	-4588
▁Britain	-4589
5)	-4590
▁purposes	-4591
▁Up	-4592
▁Through	-4593
▁Civil	-4594
▁Supp	-4595
ules	-4596
▁mort	-4597
▁shared	-4598
osite	-4599
▁Direct	-4600
▁nav	-4601
▁allowing	-4602
▁ban	-4603
▁Energy	-4604
otic	-4605
▁extensive	-4606
▁authority	-4607
▁Arab	-4608
▁notice	-4609
rep	-4610
▁Hol	-4611
24	-4612
▁dro	-4613
▁youth	-4614
▁charge	-4615
▁intended	-4616
acific	-4617
▁https	-4618
▁sufficient	-4619
▁Medical	-4620
akers	-4621
▁Cam	-4622
CC	-4623
▁flex	-4624
▁station	-4625
ounced	-4626
acters	-4627
▁vulner	-4628
▁2013	-4629
▁Any	-4630
▁height	-4631
▁hit	-4632
▁begins	-4633
▁27	-4634
▁situations	-4635
pat	-4636
▁storm	-4637
▁toxic	-4638
▁Out	-4639
umin	-4640
▁brother	-4641
▁Life	-4642
aker	-4643
▁facts	-4644
▁finally	-4645
OT	-4646
▁drinking	-4647
rations	-4648
▁phenomen	-4649
▁master	-4650
su	-4651
AD	-4652
▁pul	-4653
▁Dise	-4654
▁News	-4655
▁treatments	-4656
▁fib	-4657
▁Space	-4658
eline	-4659
▁sector	-4660
▁combined	-4661
▁focused	-4662
▁primarily	-4663
▁electrical	-4664
-6	-4665
ears	-4666
▁Women	-4667
▁liquid	-4668
▁ideal	-4669
▁jobs	-4670
eters	-4671
▁2009	-4672
▁straight	-4673
▁offered	-4674
▁189	-4675
▁credit	-4676
▁renew	-4677
▁Disc	-4678
lig	-4679
▁tasks	-4680
▁certainly	-4681
▁Where	-4682
▁park	-4683
▁indicate	-4684
▁technical	-4685
ixt	-4686
▁extent	-4687
▁morning	-4688
istan	-4689
▁army	-4690
▁Such	-4691
▁forced	-4692
▁lic	-4693
EL	-4694
▁remained	-4695
▁kinds	-4696
▁fort	-4697
▁subjects	-4698
olute	-4699
▁largely	-4700
▁existence	-4701
▁brief	-4702
arrow	-4703
▁Instead	-4704
▁Mil	-4705
▁wonder	-4706
RI	-4707
▁Ir	-4708
▁wet	-4709
▁foss	-4710
ags	-4711
ague	-4712
ulating	-4713
▁taught	-4714
▁identity	-4715
▁Information	-4716
rier	-4717
▁east	-4718
▁coord	-4719
▁Franc	-4720
▁Army	-4721
▁crucial	-4722
▁ecosystem	-4723
▁consequences	-4724
▁vital	-4725
▁occurred	-4726
▁advance	-4727
AP	-4728
▁Technology	-4729
▁showing	-4730
▁collected	-4731
▁doll	-4732
iated	-4733
rapy	-4734
▁keeping	-4735
5).	-4736
aturally	-4737
▁Bay	-4738
espite	-4739
▁muscles	-4740
▁specifically	-4741
▁Latin	-4742
▁bird	-4743
▁nutrients	-4744
▁Before	-4745
▁waters	-4746
▁spend	-4747
▁shar	-4748
▁hyper	-4749
▁lov	-4750
▁Medicine	-4751
▁centuries	-4752
▁perman	-4753
roke	-4754
vis	-4755
▁operating	-4756
▁Exam	-4757
▁digest	-4758
inger	-4759
▁recy	-4760
▁settle	-4761
▁metab	-4762
▁syn	-4763
▁gar	-4764
▁particles	-4765
des	-4766
▁Robert	-4767
▁Atl	-4768
▁career	-4769
ses	-4770
▁Commission	-4771
eria	-4772
leg	-4773
▁Mass	-4774
▁AN	-4775
▁attacks	-4776
icated	-4777
▁bright	-4778
▁characters	-4779
▁Bur	-4780
▁salt	-4781
oper	-4782
▁Well	-4783
▁Book	-4784
▁faster	-4785
▁roll	-4786
eep	-4787
gl	-4788
▁quar	-4789
▁Jud	-4790
▁letters	-4791
▁2008	-4792
ework	-4793
▁advice	-4794
▁responsibility	-4795
▁(18	-4796
▁felt	-4797
▁kn	-4798
ossible	-4799
inent	-4800
going	-4801
▁double	-4802
nel	-4803
omin	-4804
▁emergency	-4805
▁surrounding	-4806
▁impacts	-4807
▁vehicle	-4808
atric	-4809
▁stone	-4810
osen	-4811
rian	-4812
▁Bet	-4813
▁bill	-4814
▁leader	-4815
▁flowers	-4816
ancing	-4817
26	-4818
ado	-4819
▁external	-4820
▁Budd	-4821
▁raised	-4822
▁despite	-4823
roid	-4824
olars	-4825
gra	-4826
▁topics	-4827
▁moist	-4828
▁Sl	-4829
▁Cop	-4830
ipped	-4831
▁resist	-4832
▁nations	-4833
▁Those	-4834
tion	-4835
▁goods	-4836
▁Stand	-4837
▁diam	-4838
▁vast	-4839
▁domestic	-4840
rich	-4841
▁wife	-4842
ras	-4843
▁measured	-4844
▁oral	-4845
7).	-4846
▁liver	-4847
▁detailed	-4848
itness	-4849
▁clim	-4850
▁Common	-4851
rastructure	-4852
▁affects	-4853
▁excellent	-4854
▁nerv	-4855
▁explains	-4856
▁Fam	-4857
▁periods	-4858
oo	-4859
▁tro	-4860
▁perspective	-4861
▁Fe	-4862
▁sche	-4863
▁sounds	-4864
▁voice	-4865
inn	-4866
▁monitoring	-4867
▁2014	-4868
▁refers	-4869
▁Flor	-4870
inding	-4871
▁comment	-4872
▁cert	-4873
▁Expl	-4874
▁grand	-4875
▁component	-4876
west	-4877
▁proteins	-4878
▁familiar	-4879
▁Studies	-4880
▁suggested	-4881
▁tested	-4882
▁immig	-4883
field	-4884
verty	-4885
▁divided	-4886
▁Sou	-4887
oughly	-4888
▁Nor	-4889
▁motion	-4890
osc	-4891
▁Histor	-4892
othing	-4893
oxide	-4894
▁7.	-4895
▁onto	-4896
▁poverty	-4897
▁haz	-4898
▁Jose	-4899
RO	-4900
▁aren	-4901
▁typical	-4902
▁otherwise	-4903
▁fundamental	-4904
▁domin	-4905
li	-4906
▁ju	-4907
enses	-4908
gment	-4909
anges	-4910
▁spl	-4911
unk	-4912
▁vent	-4913
▁cognitive	-4914
point	-4915
▁Psych	-4916
▁satis	-4917
igenous	-4918
▁agricultural	-4919
▁accurate	-4920
▁maximum	-4921
roc	-4922
▁Land	-4923
▁played	-4924
▁explan	-4925
down	-4926
▁sin	-4927
▁nit	-4928
hi	-4929
BC	-4930
▁kil	-4931
▁mere	-4932
▁facilities	-4933
ael	-4934
▁fif	-4935
▁biological	-4936
▁controlled	-4937
▁stars	-4938
▁send	-4939
▁interests	-4940
▁valid	-4941
iced	-4942
▁blog	-4943
osa	-4944
▁slightly	-4945
▁crisis	-4946
▁thin	-4947
▁Smith	-4948
ificial	-4949
▁Ste	-4950
athy	-4951
ails	-4952
▁greatest	-4953
▁smart	-4954
6).	-4955
▁explained	-4956
▁crops	-4957
▁investment	-4958
▁phone	-4959
▁helpful	-4960
▁girls	-4961
▁flat	-4962
▁km	-4963
rot	-4964
▁trial	-4965
▁Wind	-4966
▁rail	-4967
▁increasingly	-4968
▁35	-4969
▁Bible	-4970
▁links	-4971
▁Mem	-4972
▁Sum	-4973
▁(3	-4974
▁depends	-4975
28	-4976
▁lose	-4977
▁police	-4978
▁potentially	-4979
▁fluid	-4980
▁immun	-4981
▁THE	-4982
▁depth	-4983
▁Foundation	-4984
band	-4985
▁substant	-4986
cript	-4987
▁apparent	-4988
▁western	-4989
win	-4990
name	-4991
▁subsequ	-4992
▁follows	-4993
▁Middle	-4994
▁neut	-4995
omy	-4996
▁harvest	-4997
▁happened	-4998
▁studied	-4999
▁Pacific	-5000
aks	-5001
▁surpris	-5002
▁Despite	-5003
▁floor	-5004
▁paint	-5005
stood	-5006
▁interview	-5007
▁fruits	-5008
▁tips	-5009
resents	-5010
▁Google	-5011
ensus	-5012
ION	-5013
▁obtained	-5014
▁grown	-5015
▁introduction	-5016
▁Russian	-5017
▁pil	-5018
▁instrument	-5019
▁Lake	-5020
▁format	-5021
▁BC	-5022
▁consists	-5023
▁snow	-5024
ht	-5025
▁request	-5026
▁roots	-5027
▁sen	-5028
▁persons	-5029
▁bow	-5030
▁wel	-5031
▁chann	-5032
▁CD	-5033
▁pray	-5034
▁Charles	-5035
▁governments	-5036
▁thoughts	-5037
▁abuse	-5038
▁pregnancy	-5039
▁disapp	-5040
▁convent	-5041
▁continuous	-5042
col	-5043
▁instruction	-5044
▁dial	-5045
▁Professor	-5046
▁Tem	-5047
▁playing	-5048
▁officials	-5049
▁containing	-5050
▁Sea	-5051
BN	-5052
lar	-5053
▁looked	-5054
utive	-5055
▁Henry	-5056
▁deliver	-5057
If	-5058
▁hundreds	-5059
oviet	-5060
▁habitat	-5061
▁protected	-5062
▁rural	-5063
▁stem	-5064
zy	-5065
ville	-5066
▁Inf	-5067
▁cardi	-5068
burg	-5069
▁concerned	-5070
mp	-5071
▁argument	-5072
▁Mont	-5073
7)	-5074
right	-5075
▁stock	-5076
▁curriculum	-5077
▁Ham	-5078
celer	-5079
yright	-5080
van	-5081
▁concentration	-5082
▁recognized	-5083
asure	-5084
itage	-5085
▁feelings	-5086
▁therm	-5087
▁prices	-5088
▁medium	-5089
▁decrease	-5090
75	-5091
which	-5092
▁Figure	-5093
▁weap	-5094
▁Russia	-5095
▁returned	-5096
▁Del	-5097
chers	-5098
▁represents	-5099
▁outcomes	-5100
▁train	-5101
▁Saf	-5102
▁Nav	-5103
▁elev	-5104
▁188	-5105
▁suffering	-5106
▁lik	-5107
▁Good	-5108
▁principle	-5109
▁walls	-5110
▁valuable	-5111
▁neighbor	-5112
▁firm	-5113
6)	-5114
▁approaches	-5115
▁Carol	-5116
hips	-5117
▁title	-5118
atever	-5119
what	-5120
▁Engine	-5121
▁tried	-5122
DF	-5123
▁closely	-5124
▁chief	-5125
▁justice	-5126
▁portion	-5127
▁Catholic	-5128
▁Pub	-5129
▁appeared	-5130
▁rapidly	-5131
MS	-5132
stronom	-5133
▁residents	-5134
▁assemb	-5135
▁latest	-5136
▁du	-5137
active	-5138
▁Environmental	-5139
▁director	-5140
▁wear	-5141
▁gun	-5142
▁dut	-5143
▁Ox	-5144
▁employees	-5145
29	-5146
▁deaths	-5147
▁Wild	-5148
abil	-5149
▁rand	-5150
’.	-5151
▁appearance	-5152
▁pu	-5153
irt	-5154
▁prison	-5155
▁fle	-5156
▁visible	-5157
▁syndrome	-5158
CO	-5159
▁conscious	-5160
fall	-5161
▁Id	-5162
▁selected	-5163
▁accompl	-5164
▁rein	-5165
▁satell	-5166
▁claims	-5167
▁2000	-5168
▁views	-5169
▁medications	-5170
▁extract	-5171
ascular	-5172
tenance	-5173
▁correspond	-5174
▁procedures	-5175
rolog	-5176
US	-5177
▁files	-5178
▁minimum	-5179
ellect	-5180
▁pig	-5181
▁reform	-5182
▁contem	-5183
▁internet	-5184
▁Bre	-5185
ulin	-5186
icks	-5187
▁sed	-5188
▁191	-5189
▁inflammation	-5190
▁enhance	-5191
▁sides	-5192
indu	-5193
▁leaving	-5194
▁discussed	-5195
▁Only	-5196
▁param	-5197
▁paid	-5198
▁spiritual	-5199
▁random	-5200
ooth	-5201
▁frag	-5202
▁san	-5203
▁driving	-5204
umber	-5205
▁Nature	-5206
▁regularly	-5207
▁laun	-5208
▁Control	-5209
▁diversity	-5210
▁adding	-5211
▁Power	-5212
▁circumst	-5213
▁infected	-5214
▁behaviour	-5215
▁Att	-5216
▁mobile	-5217
▁distingu	-5218
racy	-5219
mic	-5220
▁alt	-5221
▁stret	-5222
TS	-5223
▁expensive	-5224
▁moral	-5225
lers	-5226
▁movements	-5227
▁naturally	-5228
▁Soviet	-5229
▁inches	-5230
▁stated	-5231
▁Prov	-5232
▁wire	-5233
▁purs	-5234
▁band	-5235
▁soldiers	-5236
▁Emp	-5237
▁knew	-5238
▁recovery	-5239
▁infrastructure	-5240
▁horse	-5241
▁couple	-5242
▁advoc	-5243
▁IN	-5244
▁ages	-5245
▁push	-5246
bing	-5247
▁29	-5248
anes	-5249
ING	-5250
▁Review	-5251
▁Alex	-5252
▁lessons	-5253
▁sick	-5254
▁pump	-5255
irginia	-5256
▁recognize	-5257
▁secure	-5258
anguage	-5259
▁funding	-5260
ario	-5261
▁Louis	-5262
▁Exper	-5263
state	-5264
▁Div	-5265
As	-5266
orith	-5267
▁intelligence	-5268
▁sets	-5269
ga	-5270
▁Group	-5271
free	-5272
▁substance	-5273
alse	-5274
irus	-5275
▁shel	-5276
▁discovery	-5277
oster	-5278
▁businesses	-5279
▁rub	-5280
▁Company	-5281
100	-5282
▁Rights	-5283
▁millions	-5284
iled	-5285
▁PC	-5286
cling	-5287
▁Add	-5288
▁colors	-5289
▁Ap	-5290
bert	-5291
▁narr	-5292
▁agriculture	-5293
▁od	-5294
▁absolute	-5295
ston	-5296
▁Who	-5297
▁Bat	-5298
ny	-5299
rants	-5300
▁prevention	-5301
stream	-5302
▁exchange	-5303
uke	-5304
ota	-5305
▁capable	-5306
▁suffer	-5307
mas	-5308
▁Finally	-5309
▁Have	-5310
esity	-5311
2).	-5312
▁raise	-5313
▁ingred	-5314
▁hunt	-5315
olf	-5316
▁corpor	-5317
▁documents	-5318
▁Phot	-5319
oral	-5320
inet	-5321
▁sensitive	-5322
▁Library	-5323
▁AI	-5324
▁Note	-5325
45	-5326
▁Long	-5327
▁leadership	-5328
▁stages	-5329
▁lifest	-5330
▁myth	-5331
▁precise	-5332
▁secondary	-5333
▁ble	-5334
▁mit	-5335
▁poet	-5336
la	-5337
▁facilit	-5338
▁Follow	-5339
uest	-5340
▁chapter	-5341
alysis	-5342
road	-5343
▁pref	-5344
4).	-5345
▁Management	-5346
▁adequ	-5347
▁Ter	-5348
agers	-5349
ava	-5350
long	-5351
osal	-5352
▁Care	-5353
▁vehicles	-5354
▁healthcare	-5355
▁prem	-5356
▁selection	-5357
plicated	-5358
▁pure	-5359
▁apart	-5360
▁incl	-5361
▁unlike	-5362
▁wave	-5363
▁massive	-5364
ka	-5365
▁describes	-5366
▁allerg	-5367
▁experiments	-5368
ocratic	-5369
▁talking	-5370
▁Though	-5371
with	-5372
▁Please	-5373
▁wors	-5374
▁Federal	-5375
▁entirely	-5376
▁normally	-5377
▁impossible	-5378
▁Micro	-5379
33	-5380
▁creative	-5381
▁calls	-5382
▁gall	-5383
▁manufacturing	-5384
▁3,	-5385
▁Take	-5386
▁Rad	-5387
▁intake	-5388
▁recon	-5389
There	-5390
being	-5391
▁Design	-5392
▁opinion	-5393
▁parties	-5394
▁producing	-5395
▁Mo	-5396
dden	-5397
500	-5398
▁narrow	-5399
▁survival	-5400
cules	-5401
▁Writ	-5402
▁revealed	-5403
▁Florida	-5404
▁nurs	-5405
liam	-5406
▁dental	-5407
idden	-5408
▁phr	-5409
pping	-5410
▁Pers	-5411
ffee	-5412
▁era	-5413
▁suitable	-5414
▁Ess	-5415
ypes	-5416
▁minim	-5417
▁traffic	-5418
olve	-5419
▁antibiot	-5420
▁Whe	-5421
▁steel	-5422
▁trad	-5423
▁tun	-5424
▁library	-5425
▁adopted	-5426
▁closed	-5427
▁figures	-5428
▁label	-5429
asp	-5430
▁brown	-5431
▁interf	-5432
▁touch	-5433
▁Early	-5434
▁fertil	-5435
▁cars	-5436
▁diverse	-5437
aser	-5438
▁Global	-5439
▁Ann	-5440
asive	-5441
▁Ca	-5442
▁Det	-5443
▁accepted	-5444
▁generate	-5445
iology	-5446
▁possess	-5447
vironments	-5448
abric	-5449
▁database	-5450
ona	-5451
▁recip	-5452
▁comprehensive	-5453
▁computers	-5454
▁understood	-5455
▁worldwide	-5456
alian	-5457
teries	-5458
▁originally	-5459
▁transition	-5460
olester	-5461
othe	-5462
▁formal	-5463
▁possibly	-5464
ca	-5465
▁improving	-5466
1).	-5467
▁Exp	-5468
▁networks	-5469
isp	-5470
▁decline	-5471
▁inject	-5472
▁stick	-5473
ibilities	-5474
omach	-5475
▁routine	-5476
CS	-5477
▁prepare	-5478
27	-5479
▁index	-5480
▁toler	-5481
▁listed	-5482
▁amb	-5483
▁landscape	-5484
▁speaking	-5485
▁Diff	-5486
▁plays	-5487
ato	-5488
▁chain	-5489
▁supplement	-5490
▁fill	-5491
▁Ext	-5492
▁flight	-5493
▁readers	-5494
▁sudden	-5495
▁dream	-5496
▁pictures	-5497
▁Office	-5498
▁achieved	-5499
▁regional	-5500
▁Sym	-5501
▁possibility	-5502
▁Labor	-5503
ki	-5504
anged	-5505
▁district	-5506
pass	-5507
▁arms	-5508
▁tal	-5509
osph	-5510
▁ISBN	-5511
▁plate	-5512
▁budget	-5513
▁forests	-5514
ilding	-5515
▁guidelines	-5516
▁village	-5517
▁worse	-5518
▁opened	-5519
▁restrict	-5520
▁moon	-5521
▁185	-5522
▁houses	-5523
aph	-5524
▁acts	-5525
▁candid	-5526
agues	-5527
▁aw	-5528
▁mamm	-5529
▁latter	-5530
flow	-5531
▁Frank	-5532
▁nan	-5533
lements	-5534
▁gather	-5535
▁Natural	-5536
▁warming	-5537
▁suc	-5538
▁bones	-5539
▁imper	-5540
abits	-5541
▁Fact	-5542
▁answers	-5543
rors	-5544
▁Peter	-5545
ropical	-5546
▁engage	-5547
olesterol	-5548
erals	-5549
▁medication	-5550
orter	-5551
▁administration	-5552
▁repeated	-5553
liament	-5554
▁stored	-5555
▁Joseph	-5556
▁aircraft	-5557
ifies	-5558
mun	-5559
obe	-5560
▁sports	-5561
▁Constitution	-5562
war	-5563
exp	-5564
▁dust	-5565
pet	-5566
imer	-5567
rans	-5568
▁harmful	-5569
▁Form	-5570
▁cultiv	-5571
▁solve	-5572
▁pretty	-5573
▁mountain	-5574
▁Commit	-5575
▁2015	-5576
▁leaf	-5577
▁apprec	-5578
ctic	-5579
▁window	-5580
▁journey	-5581
aria	-5582
mary	-5583
normal	-5584
▁abund	-5585
▁2020	-5586
▁fell	-5587
▁marriage	-5588
3).	-5589
▁tow	-5590
35	-5591
▁starts	-5592
apping	-5593
▁wildlife	-5594
▁universe	-5595
▁Gold	-5596
oted	-5597
▁ax	-5598
▁aqu	-5599
▁equival	-5600
▁tail	-5601
▁doctors	-5602
▁generated	-5603
▁unless	-5604
▁afford	-5605
▁cloud	-5606
▁professionals	-5607
▁Paris	-5608
▁Dan	-5609
prise	-5610
ester	-5611
▁scholars	-5612
▁mac	-5613
▁remaining	-5614
▁ancest	-5615
▁injuries	-5616
ada	-5617
▁USA	-5618
▁sequence	-5619
▁af	-5620
▁struggle	-5621
ye	-5622
▁Stat	-5623
▁algorith	-5624
▁survive	-5625
▁creates	-5626
▁beneficial	-5627
▁error	-5628
▁Columb	-5629
▁Canadian	-5630
▁choices	-5631
▁remote	-5632
organ	-5633
iform	-5634
▁accounts	-5635
▁expressed	-5636
▁tells	-5637
▁agreement	-5638
▁chart	-5639
inations	-5640
rem	-5641
▁Clin	-5642
▁Lab	-5643
born	-5644
▁maintenance	-5645
add	-5646
▁twice	-5647
ogue	-5648
anda	-5649
▁filled	-5650
▁catch	-5651
▁Free	-5652
hemical	-5653
ua	-5654
▁edge	-5655
▁transmission	-5656
▁Home	-5657
▁happy	-5658
▁45	-5659
gent	-5660
▁Time	-5661
alley	-5662
rid	-5663
▁intellect	-5664
▁discipl	-5665
▁environments	-5666
ala	-5667
▁Sk	-5668
▁battery	-5669
▁acceler	-5670
▁tiny	-5671
▁Last	-5672
ait	-5673
▁Tor	-5674
▁waves	-5675
▁obtain	-5676
▁OF	-5677
▁surf	-5678
throp	-5679
ects	-5680
▁sell	-5681
▁187	-5682
▁electronic	-5683
▁depos	-5684
ansion	-5685
▁courses	-5686
▁Ill	-5687
▁marine	-5688
▁consistent	-5689
▁assistance	-5690
ican	-5691
▁mur	-5692
▁sweet	-5693
▁decade	-5694
▁indeed	-5695
▁extended	-5696
▁bio	-5697
ums	-5698
inder	-5699
▁Sometimes	-5700
▁childhood	-5701
▁Among	-5702
ashion	-5703
▁Cult	-5704
icians	-5705
▁museum	-5706
▁composition	-5707
▁lands	-5708
▁optim	-5709
38	-5710
’,	-5711
▁framework	-5712
▁Australian	-5713
▁Street	-5714
▁opening	-5715
▁enable	-5716
▁unknown	-5717
▁studying	-5718
▁Report	-5719
▁circumstances	-5720
▁derived	-5721
▁door	-5722
nam	-5723
▁agencies	-5724
▁skill	-5725
▁500	-5726
IL	-5727
▁Nations	-5728
▁seeing	-5729
▁reject	-5730
▁intervention	-5731
orrow	-5732
▁Disease	-5733
▁End	-5734
▁Cre	-5735
▁shell	-5736
▁produces	-5737
eper	-5738
▁outl	-5739
▁aer	-5740
▁perce	-5741
▁wants	-5742
▁foundation	-5743
-9	-5744
▁successfully	-5745
▁molecules	-5746
▁failed	-5747
▁photos	-5748
▁yield	-5749
▁locations	-5750
HO	-5751
▁troops	-5752
▁pull	-5753
▁kit	-5754
▁slowly	-5755
▁copy	-5756
▁Cat	-5757
cel	-5758
▁broken	-5759
arant	-5760
TM	-5761
hist	-5762
.’	-5763
▁8.	-5764
▁truly	-5765
▁Study	-5766
▁Mill	-5767
spec	-5768
▁mechanism	-5769
▁Haw	-5770
▁responses	-5771
▁wid	-5772
▁density	-5773
hma	-5774
▁lots	-5775
▁boost	-5776
▁audience	-5777
▁gal	-5778
▁opposite	-5779
▁traum	-5780
▁Sol	-5781
▁sentence	-5782
▁doubt	-5783
▁Hall	-5784
▁grav	-5785
icide	-5786
▁colour	-5787
▁critic	-5788
▁thor	-5789
▁fixed	-5790
▁Learn	-5791
lets	-5792
UR	-5793
▁stomach	-5794
▁2016	-5795
ocracy	-5796
tage	-5797
▁interaction	-5798
itative	-5799
▁papers	-5800
▁ratio	-5801
▁multi	-5802
▁signals	-5803
zen	-5804
▁download	-5805
▁decide	-5806
oung	-5807
▁bear	-5808
▁authorities	-5809
▁300	-5810
9)	-5811
ena	-5812
body	-5813
▁fossil	-5814
erent	-5815
▁greatly	-5816
ini	-5817
▁sky	-5818
▁sod	-5819
ivery	-5820
▁insects	-5821
▁indicates	-5822
inity	-5823
inction	-5824
▁institution	-5825
▁Rob	-5826
last	-5827
▁Southern	-5828
▁IP	-5829
▁laboratory	-5830
▁marked	-5831
▁uns	-5832
▁respir	-5833
EP	-5834
▁AS	-5835
▁simpl	-5836
▁mixed	-5837
▁cart	-5838
▁emotions	-5839
▁witness	-5840
▁description	-5841
▁Pract	-5842
▁permanent	-5843
wing	-5844
▁difficulty	-5845
▁unp	-5846
▁vessels	-5847
▁ultimately	-5848
▁protocol	-5849
CT	-5850
▁fasc	-5851
▁cultures	-5852
itudes	-5853
▁Ma	-5854
▁Check	-5855
▁consumers	-5856
▁replaced	-5857
▁acids	-5858
▁represented	-5859
▁wish	-5860
▁raw	-5861
▁doi	-5862
▁managed	-5863
struct	-5864
▁carefully	-5865
▁princip	-5866
oned	-5867
ribed	-5868
no	-5869
▁gluc	-5870
▁newsp	-5871
zil	-5872
▁organized	-5873
▁Bank	-5874
▁lifestyle	-5875
▁philosophy	-5876
yles	-5877
▁Rome	-5878
▁reader	-5879
luding	-5880
▁comparison	-5881
▁conventional	-5882
9).	-5883
▁highlight	-5884
▁immediate	-5885
▁volunte	-5886
▁Mad	-5887
▁Wood	-5888
gans	-5889
▁debate	-5890
Americ	-5891
▁www	-5892
▁flav	-5893
▁thousand	-5894
▁corn	-5895
▁walking	-5896
rine	-5897
▁sight	-5898
▁hus	-5899
kes	-5900
stein	-5901
▁acknow	-5902
ifications	-5903
▁implementation	-5904
▁constitution	-5905
ache	-5906
▁inhib	-5907
▁Oh	-5908
▁remark	-5909
▁cutting	-5910
▁preval	-5911
▁fly	-5912
▁2007	-5913
▁calcium	-5914
▁daughter	-5915
▁voc	-5916
▁dedicated	-5917
▁1990	-5918
▁biggest	-5919
▁ethnic	-5920
▁shift	-5921
48	-5922
reed	-5923
▁writer	-5924
▁Camp	-5925
abul	-5926
▁accum	-5927
igation	-5928
▁Richard	-5929
▁nine	-5930
▁Eth	-5931
inking	-5932
agon	-5933
▁supporting	-5934
▁necessarily	-5935
sis	-5936
hand	-5937
using	-5938
▁university	-5939
▁attend	-5940
▁unable	-5941
▁reserv	-5942
▁desire	-5943
▁hero	-5944
▁alle	-5945
▁Ocean	-5946
ictionary	-5947
bour	-5948
▁arrived	-5949
▁pup	-5950
▁noise	-5951
▁destroyed	-5952
usal	-5953
▁younger	-5954
umes	-5955
▁mild	-5956
▁circuit	-5957
sey	-5958
▁handle	-5959
antly	-5960
icago	-5961
ints	-5962
▁chosen	-5963
▁smoking	-5964
▁regul	-5965
▁machines	-5966
▁limits	-5967
izer	-5968
▁dent	-5969
▁cholesterol	-5970
▁fiber	-5971
▁fabric	-5972
ront	-5973
▁Dig	-5974
▁thy	-5975
▁fighting	-5976
bridge	-5977
zed	-5978
▁Color	-5979
▁pron	-5980
inate	-5981
▁regulations	-5982
▁closer	-5983
▁evaluation	-5984
▁Committee	-5985
▁Creat	-5986
▁persist	-5987
▁fewer	-5988
▁communicate	-5989
▁purchase	-5990
▁nerve	-5991
aped	-5992
▁din	-5993
▁Climate	-5994
▁breathing	-5995
▁habits	-5996
▁stands	-5997
cher	-5998
▁gone	-5999
ocy	-6000
▁coffee	-6001
▁Michael	-6002
reland	-6003
phone	-6004
▁Find	-6005
▁brand	-6006
rating	-6007
▁Administ	-6008
▁Cap	-6009
tering	-6010
▁electron	-6011
▁PM	-6012
▁Forest	-6013
ella	-6014
▁inner	-6015
elled	-6016
▁listen	-6017
▁Moreover	-6018
eck	-6019
▁magnetic	-6020
▁architecture	-6021
itan	-6022
▁epid	-6023
▁Sign	-6024
▁ends	-6025
hop	-6026
▁Fort	-6027
level	-6028
▁Plant	-6029
▁supports	-6030
▁underlying	-6031
▁founded	-6032
▁feeding	-6033
▁exists	-6034
▁Revolution	-6035
▁improvement	-6036
▁Top	-6037
▁photograph	-6038
▁Cancer	-6039
rd	-6040
inson	-6041
▁join	-6042
▁whereas	-6043
▁Northern	-6044
▁concrete	-6045
▁Native	-6046
▁married	-6047
irty	-6048
▁overl	-6049
▁Mag	-6050
riers	-6051
▁Gal	-6052
ml	-6053
▁sharing	-6054
ipping	-6055
fe	-6056
▁Pan	-6057
▁neck	-6058
▁paralle	-6059
▁Similar	-6060
▁colleagues	-6061
▁Unf	-6062
▁Furthermore	-6063
▁false	-6064
▁Str	-6065
rimination	-6066
▁ourselves	-6067
▁camera	-6068
stone	-6069
▁variable	-6070
▁standing	-6071
▁relax	-6072
▁Italy	-6073
▁occasion	-6074
▁hydrogen	-6075
▁Penn	-6076
▁conclusion	-6077
▁Times	-6078
▁unus	-6079
hesis	-6080
stract	-6081
gu	-6082
▁Does	-6083
▁behaviors	-6084
▁housing	-6085
ita	-6086
-7	-6087
▁agency	-6088
ora	-6089
▁Ireland	-6090
How	-6091
▁drawing	-6092
▁recognition	-6093
▁membr	-6094
ribe	-6095
▁psychological	-6096
▁Royal	-6097
▁border	-6098
ctive	-6099
36	-6100
ett	-6101
▁mechanisms	-6102
then	-6103
▁trials	-6104
▁Scot	-6105
▁fract	-6106
▁programming	-6107
rus	-6108
▁clust	-6109
▁twenty	-6110
▁organisms	-6111
under	-6112
An	-6113
▁percentage	-6114
▁eld	-6115
▁cos	-6116
▁roof	-6117
heast	-6118
▁regist	-6119
▁Agricult	-6120
orous	-6121
▁bread	-6122
▁cm	-6123
fish	-6124
▁supplies	-6125
▁artificial	-6126
▁obesity	-6127
▁tea	-6128
azing	-6129
▁1:	-6130
han	-6131
▁Scott	-6132
▁territory	-6133
▁shut	-6134
8).	-6135
▁Current	-6136
▁compounds	-6137
omic	-6138
orses	-6139
▁instructions	-6140
ictor	-6141
▁vulnerable	-6142
▁contamin	-6143
▁Spain	-6144
▁confidence	-6145
LE	-6146
▁Brown	-6147
▁zone	-6148
ifest	-6149
een	-6150
▁carb	-6151
▁List	-6152
▁Non	-6153
▁pool	-6154
icon	-6155
▁eastern	-6156
▁transportation	-6157
rovers	-6158
▁hypothes	-6159
aud	-6160
▁attached	-6161
ctor	-6162
word	-6163
▁Additionally	-6164
▁36	-6165
▁shop	-6166
isters	-6167
▁equivalent	-6168
▁chrom	-6169
▁turns	-6170
▁Sing	-6171
itt	-6172
▁contained	-6173
▁demonstrated	-6174
utch	-6175
▁politics	-6176
▁lies	-6177
▁4,	-6178
ading	-6179
▁202	-6180
▁Access	-6181
▁Look	-6182
▁Carolina	-6183
▁stable	-6184
▁Sever	-6185
▁resolution	-6186
▁crow	-6187
8)	-6188
▁taste	-6189
top	-6190
Al	-6191
▁Gard	-6192
▁veter	-6193
▁vote	-6194
▁resulted	-6195
▁Click	-6196
▁delay	-6197
▁refuge	-6198
▁participate	-6199
ritis	-6200
irds	-6201
▁insurance	-6202
▁pair	-6203
▁horiz	-6204
▁subs	-6205
▁tall	-6206
▁guarant	-6207
▁rising	-6208
▁ath	-6209
▁functional	-6210
▁accident	-6211
▁powers	-6212
▁instruments	-6213
▁grew	-6214
▁feedback	-6215
▁relation	-6216
▁prompt	-6217
▁whatever	-6218
▁reactions	-6219
▁trained	-6220
DP	-6221
▁Effect	-6222
erior	-6223
▁fever	-6224
▁prev	-6225
▁dioxide	-6226
abled	-6227
▁layers	-6228
▁employment	-6229
onia	-6230
▁willing	-6231
▁observations	-6232
teen	-6233
bra	-6234
▁row	-6235
▁zero	-6236
anta	-6237
▁ahead	-6238
▁Main	-6239
▁customers	-6240
▁virtual	-6241
hav	-6242
▁Nut	-6243
▁2017	-6244
ola	-6245
▁distur	-6246
▁estimates	-6247
▁Conn	-6248
▁Board	-6249
▁crime	-6250
▁tank	-6251
LA	-6252
▁knows	-6253
▁competition	-6254
▁Prop	-6255
▁partner	-6256
▁Sciences	-6257
▁ment	-6258
▁capture	-6259
▁Empire	-6260
avery	-6261
▁Comput	-6262
▁Adv	-6263
▁presentation	-6264
▁joined	-6265
▁examine	-6266
▁recept	-6267
exam	-6268
▁beliefs	-6269
▁server	-6270
▁frequent	-6271
▁independence	-6272
▁prove	-6273
pread	-6274
▁debt	-6275
▁legs	-6276
▁Pop	-6277
▁Chicago	-6278
▁Unfortunately	-6279
▁diagnosed	-6280
▁entry	-6281
▁Table	-6282
▁connections	-6283
▁stroke	-6284
99	-6285
▁demonstrate	-6286
▁supposed	-6287
▁Back	-6288
▁gap	-6289
▁greenhouse	-6290
▁Brazil	-6291
▁meth	-6292
opy	-6293
cycl	-6294
called	-6295
▁III	-6296
▁Three	-6297
▁maintaining	-6298
▁Sil	-6299
▁generations	-6300
▁Academy	-6301
▁maps	-6302
▁Dar	-6303
▁Equ	-6304
▁department	-6305
▁Bab	-6306
▁Language	-6307
ione	-6308
▁ships	-6309
▁issued	-6310
hered	-6311
▁mice	-6312
ugh	-6313
▁objective	-6314
▁Teac	-6315
▁pra	-6316
▁delivery	-6317
▁outbre	-6318
▁shot	-6319
▁Cy	-6320
▁nearby	-6321
▁defe	-6322
▁Age	-6323
ults	-6324
tra	-6325
how	-6326
▁flo	-6327
asters	-6328
▁interactions	-6329
▁comments	-6330
▁administr	-6331
▁Open	-6332
oding	-6333
▁cats	-6334
struction	-6335
▁teen	-6336
▁fu	-6337
idespread	-6338
ymph	-6339
Is	-6340
▁funds	-6341
ups	-6342
▁Bus	-6343
roduction	-6344
ih	-6345
eless	-6346
▁mm	-6347
weight	-6348
▁explo	-6349
▁mining	-6350
▁sole	-6351
icious	-6352
▁poison	-6353
▁define	-6354
tic	-6355
▁substances	-6356
▁tissues	-6357
▁EU	-6358
▁launched	-6359
itivity	-6360
▁Chapter	-6361
▁mos	-6362
▁Special	-6363
BS	-6364
▁ru	-6365
▁mode	-6366
anches	-6367
▁drain	-6368
▁hur	-6369
aked	-6370
▁Start	-6371
▁scene	-6372
▁mand	-6373
ishment	-6374
inating	-6375
▁scan	-6376
▁stimul	-6377
▁positions	-6378
▁vs	-6379
▁Hy	-6380
plant	-6381
▁184	-6382
esis	-6383
xts	-6384
▁Eastern	-6385
▁Georg	-6386
▁Article	-6387
▁spending	-6388
▁Big	-6389
eenth	-6390
omp	-6391
▁arrange	-6392
▁surve	-6393
▁lect	-6394
▁neur	-6395
ployment	-6396
▁spok	-6397
▁smoke	-6398
▁hole	-6399
IP	-6400
▁flag	-6401
▁Wik	-6402
▁192	-6403
▁bond	-6404
▁everyday	-6405
▁script	-6406
▁Holy	-6407
▁wasn	-6408
▁bot	-6409
▁Works	-6410
▁insulin	-6411
▁employed	-6412
▁putting	-6413
ureau	-6414
▁Researchers	-6415
▁Py	-6416
▁operate	-6417
itely	-6418
▁markets	-6419
▁expansion	-6420
but	-6421
▁legislation	-6422
▁Family	-6423
▁oblig	-6424
▁consumer	-6425
etime	-6426
▁industries	-6427
isk	-6428
ether	-6429
▁challenging	-6430
hyth	-6431
▁categories	-6432
▁fold	-6433
▁settings	-6434
▁county	-6435
▁matters	-6436
▁astronom	-6437
▁match	-6438
▁bridge	-6439
▁passage	-6440
▁frame	-6441
▁route	-6442
▁transp	-6443
▁sheet	-6444
▁Never	-6445
▁undert	-6446
▁involving	-6447
IA	-6448
earing	-6449
otes	-6450
▁cryst	-6451
▁sections	-6452
▁kidney	-6453
▁players	-6454
▁hem	-6455
while	-6456
▁Four	-6457
▁nest	-6458
▁reliable	-6459
▁Est	-6460
▁Mer	-6461
▁holds	-6462
▁breath	-6463
▁Martin	-6464
▁explanation	-6465
▁painting	-6466
▁association	-6467
osion	-6468
▁participation	-6469
▁significance	-6470
▁Guide	-6471
▁smooth	-6472
▁rig	-6473
▁danger	-6474
▁workshe	-6475
▁covers	-6476
▁exercises	-6477
▁organs	-6478
▁none	-6479
▁blocks	-6480
arn	-6481
▁compare	-6482
▁reven	-6483
▁fashion	-6484
▁glucose	-6485
▁string	-6486
Go	-6487
▁usage	-6488
▁forget	-6489
ushed	-6490
ighter	-6491
▁meters	-6492
▁tons	-6493
▁9.	-6494
▁Italian	-6495
▁align	-6496
▁forth	-6497
▁150	-6498
ediatric	-6499
▁Mult	-6500
umps	-6501
ourage	-6502
▁Mean	-6503
▁chick	-6504
▁ongoing	-6505
▁cav	-6506
▁Jo	-6507
▁agreed	-6508
▁centre	-6509
▁widespread	-6510
▁ended	-6511
▁award	-6512
▁depart	-6513
▁vac	-6514
▁meal	-6515
▁rice	-6516
▁drawn	-6517
▁Orig	-6518
such	-6519
dule	-6520
▁Cho	-6521
▁succeed	-6522
▁adequate	-6523
▁brings	-6524
IR	-6525
▁accessible	-6526
▁trip	-6527
▁Lar	-6528
▁blow	-6529
▁moisture	-6530
▁cup	-6531
▁banks	-6532
▁division	-6533
idity	-6534
▁tight	-6535
▁controls	-6536
▁fer	-6537
oven	-6538
▁runs	-6539
▁swim	-6540
▁reduces	-6541
▁repair	-6542
itter	-6543
gov	-6544
▁intellectual	-6545
▁indicated	-6546
▁physics	-6547
▁ske	-6548
▁enemy	-6549
▁damaged	-6550
▁holding	-6551
▁relief	-6552
▁Author	-6553
▁voltage	-6554
azine	-6555
rial	-6556
▁installed	-6557
ittle	-6558
gical	-6559
ented	-6560
▁announced	-6561
▁theories	-6562
▁rank	-6563
▁2006	-6564
ingdom	-6565
▁estimate	-6566
▁minerals	-6567
▁shif	-6568
▁electro	-6569
▁approved	-6570
▁strongly	-6571
scale	-6572
▁spaces	-6573
▁measurement	-6574
▁Word	-6575
▁victims	-6576
He	-6577
▁receiving	-6578
▁dys	-6579
itamin	-6580
▁Mel	-6581
▁ille	-6582
▁sacr	-6583
▁Oxford	-6584
▁historic	-6585
▁Down	-6586
▁measurements	-6587
▁Party	-6588
iral	-6589
▁mechanical	-6590
▁declared	-6591
▁committed	-6592
▁constructed	-6593
▁neither	-6594
▁texts	-6595
▁Sat	-6596
▁fulf	-6597
▁viruses	-6598
▁burning	-6599
▁)	-6600
▁respectively	-6601
▁archae	-6602
rooms	-6603
▁proportion	-6604
▁Low	-6605
▁Several	-6606
▁aband	-6607
▁controvers	-6608
uh	-6609
▁furn	-6610
▁photo	-6611
▁offering	-6612
▁destruction	-6613
▁variables	-6614
fit	-6615
▁integrated	-6616
▁Community	-6617
▁Irish	-6618
▁somewhat	-6619
▁Services	-6620
▁street	-6621
-10	-6622
CD	-6623
▁recommendations	-6624
alls	-6625
▁entered	-6626
▁1980	-6627
▁butter	-6628
▁nob	-6629
▁constantly	-6630
▁females	-6631
▁conven	-6632
▁worry	-6633
When	-6634
▁males	-6635
▁rivers	-6636
▁kne	-6637
▁composed	-6638
▁tub	-6639
▁boys	-6640
▁biod	-6641
34	-6642
▁MS	-6643
oples	-6644
uts	-6645
▁column	-6646
occ	-6647
rency	-6648
agraph	-6649
icit	-6650
37	-6651
▁75	-6652
reek	-6653
▁Pet	-6654
abulary	-6655
▁Atlantic	-6656
▁election	-6657
▁negot	-6658
▁turning	-6659
▁Less	-6660
▁seeking	-6661
iration	-6662
▁intense	-6663
rite	-6664
95	-6665
▁holid	-6666
▁earn	-6667
▁gram	-6668
herent	-6669
▁orient	-6670
ocation	-6671
▁boy	-6672
▁Method	-6673
▁rid	-6674
▁Next	-6675
▁blind	-6676
▁stre	-6677
thritis	-6678
car	-6679
she	-6680
▁cards	-6681
acco	-6682
▁bath	-6683
▁Princ	-6684
▁advert	-6685
etics	-6686
UN	-6687
▁Resources	-6688
▁seemed	-6689
▁ped	-6690
▁roles	-6691
▁trouble	-6692
▁mood	-6693
▁dose	-6694
▁facility	-6695
iability	-6696
▁theore	-6697
orph	-6698
▁asking	-6699
iah	-6700
quit	-6701
▁collaboration	-6702
▁Leg	-6703
amins	-6704
▁Security	-6705
▁babies	-6706
▁publication	-6707
▁Lib	-6708
▁Which	-6709
▁Men	-6710
▁Try	-6711
Ph	-6712
that	-6713
▁manip	-6714
ibl	-6715
rane	-6716
▁evaluate	-6717
ady	-6718
▁wound	-6719
▁criteria	-6720
idential	-6721
▁Hill	-6722
▁Naz	-6723
▁tube	-6724
▁ring	-6725
▁metabol	-6726
hent	-6727
▁nervous	-6728
▁pharm	-6729
▁domain	-6730
▁missing	-6731
OL	-6732
▁calories	-6733
▁loved	-6734
▁1970	-6735
▁analys	-6736
▁surfaces	-6737
▁AP	-6738
▁preparation	-6739
▁hun	-6740
▁uncertain	-6741
onn	-6742
igan	-6743
▁paras	-6744
▁fro	-6745
▁influenced	-6746
▁category	-6747
IG	-6748
▁Fund	-6749
▁Indians	-6750
▁withd	-6751
▁plus	-6752
kins	-6753
aded	-6754
▁31	-6755
▁honor	-6756
▁rocks	-6757
Ar	-6758
▁Change	-6759
▁centers	-6760
▁artists	-6761
▁wait	-6762
▁Indust	-6763
esides	-6764
▁Ep	-6765
gers	-6766
agram	-6767
operation	-6768
▁tract	-6769
▁Rom	-6770
▁examination	-6771
▁Type	-6772
▁strict	-6773
▁Sup	-6774
▁distributed	-6775
▁guidance	-6776
▁angle	-6777
▁pounds	-6778
▁Asian	-6779
▁Set	-6780
65	-6781
▁satellite	-6782
▁husband	-6783
▁outcome	-6784
▁edition	-6785
▁Polic	-6786
oom	-6787
▁dependent	-6788
▁Face	-6789
elesc	-6790
▁complicated	-6791
▁commission	-6792
▁copper	-6793
▁silver	-6794
▁pregnant	-6795
▁parallel	-6796
otton	-6797
▁breeding	-6798
▁mortality	-6799
▁weapons	-6800
making	-6801
▁theme	-6802
OC	-6803
▁Consider	-6804
▁preventing	-6805
hyd	-6806
▁sought	-6807
rey	-6808
oln	-6809
▁engaged	-6810
▁detection	-6811
▁designs	-6812
▁dollars	-6813
▁contemporary	-6814
▁merely	-6815
ulty	-6816
▁realize	-6817
▁rely	-6818
▁Gr	-6819
▁Dou	-6820
▁renewable	-6821
▁Agency	-6822
▁accuracy	-6823
▁Bill	-6824
▁Pak	-6825
▁earthqu	-6826
▁Po	-6827
▁Islam	-6828
▁coastal	-6829
▁advantages	-6830
▁volcan	-6831
apse	-6832
yal	-6833
roat	-6834
▁beauty	-6835
▁arts	-6836
▁facing	-6837
airy	-6838
greg	-6839
▁respiratory	-6840
ivered	-6841
▁plenty	-6842
▁considering	-6843
itals	-6844
▁proof	-6845
▁Den	-6846
-18	-6847
▁conversation	-6848
▁owner	-6849
gs	-6850
▁forg	-6851
▁intest	-6852
▁crim	-6853
▁arrest	-6854
New	-6855
▁fourth	-6856
▁favorite	-6857
▁Christmas	-6858
▁opposed	-6859
▁irrit	-6860
▁proven	-6861
▁(4	-6862
opes	-6863
▁inn	-6864
▁sharp	-6865
▁horses	-6866
▁confirmed	-6867
▁molecular	-6868
ixture	-6869
▁Swed	-6870
onomy	-6871
▁officers	-6872
bu	-6873
rary	-6874
▁universal	-6875
▁abnormal	-6876
▁Without	-6877
▁nose	-6878
df	-6879
rowing	-6880
forcement	-6881
▁captured	-6882
▁2018	-6883
▁artist	-6884
icate	-6885
cons	-6886
▁clothing	-6887
▁beings	-6888
▁phenomenon	-6889
ventions	-6890
MP	-6891
▁thanks	-6892
▁gradually	-6893
▁acute	-6894
▁subsequent	-6895
▁careful	-6896
▁discrimination	-6897
▁180	-6898
▁maintained	-6899
eren	-6900
isdom	-6901
health	-6902
ohyd	-6903
cyclop	-6904
iox	-6905
RC	-6906
sts	-6907
▁ingredients	-6908
osh	-6909
▁incred	-6910
▁score	-6911
▁agents	-6912
▁towns	-6913
▁circle	-6914
▁rarely	-6915
▁islands	-6916
▁biology	-6917
32	-6918
▁seconds	-6919
▁session	-6920
▁presents	-6921
SS	-6922
▁moves	-6923
▁combat	-6924
▁temple	-6925
39	-6926
▁messages	-6927
▁desired	-6928
pes	-6929
▁shock	-6930
▁escape	-6931
▁2005	-6932
▁excessive	-6933
▁signed	-6934
aming	-6935
▁aims	-6936
heimer	-6937
▁implications	-6938
▁compris	-6939
▁bringing	-6940
▁evil	-6941
▁attempts	-6942
cient	-6943
▁implemented	-6944
▁peak	-6945
arsh	-6946
▁shapes	-6947
▁carrying	-6948
RA	-6949
▁AND	-6950
▁switch	-6951
aired	-6952
iological	-6953
IDS	-6954
▁Pot	-6955
▁Modern	-6956
▁Jac	-6957
▁Rock	-6958
▁essentially	-6959
▁fairly	-6960
olving	-6961
▁5,	-6962
▁Network	-6963
▁1960	-6964
▁Grand	-6965
▁farming	-6966
ruption	-6967
▁Super	-6968
▁correl	-6969
rox	-6970
eness	-6971
▁principal	-6972
▁serving	-6973
▁District	-6974
▁stronger	-6975
▁id	-6976
orders	-6977
oir	-6978
▁absence	-6979
10.	-6980
▁removal	-6981
For	-6982
ailed	-6983
▁essays	-6984
▁32	-6985
▁jump	-6986
heric	-6987
▁infant	-6988
▁effectiveness	-6989
▁inher	-6990
▁Er	-6991
▁Tre	-6992
ovascular	-6993
oston	-6994
▁slavery	-6995
▁heating	-6996
▁Tim	-6997
▁Jul	-6998
▁focuses	-6999
▁insert	-7000
▁dischar	-7001
theless	-7002
▁encouraged	-7003
▁passing	-7004
ani	-7005
▁item	-7006
istical	-7007
▁statistics	-7008
▁teams	-7009
▁Secret	-7010
▁gut	-7011
rous	-7012
▁Sir	-7013
▁prohib	-7014
aska	-7015
▁considerable	-7016
▁branches	-7017
▁Lo	-7018
medi	-7019
▁empt	-7020
▁asthma	-7021
raining	-7022
▁claimed	-7023
olesc	-7024
incoln	-7025
eut	-7026
asty	-7027
ealand	-7028
▁varieties	-7029
▁MD	-7030
▁chlor	-7031
▁Administration	-7032
▁flower	-7033
▁pit	-7034
▁Heb	-7035
▁overw	-7036
▁infect	-7037
▁pand	-7038
ommod	-7039
▁characterized	-7040
UT	-7041
▁dealing	-7042
▁launch	-7043
▁proved	-7044
▁informed	-7045
▁formula	-7046
▁Perhaps	-7047
▁cleaning	-7048
rene	-7049
▁learners	-7050
▁clar	-7051
▁hormone	-7052
▁Centre	-7053
▁writers	-7054
▁tut	-7055
▁Director	-7056
▁treating	-7057
▁phosph	-7058
▁(198	-7059
▁visitors	-7060
▁racial	-7061
▁sport	-7062
▁Source	-7063
oga	-7064
▁disaster	-7065
▁interpretation	-7066
▁delivered	-7067
▁lie	-7068
emia	-7069
▁newly	-7070
▁spectrum	-7071
example	-7072
▁Coll	-7073
▁difficulties	-7074
vard	-7075
▁knowing	-7076
▁fung	-7077
▁ov	-7078
▁sales	-7079
lishing	-7080
▁400	-7081
▁equally	-7082
▁defense	-7083
▁2:	-7084
AA	-7085
▁planned	-7086
▁Angel	-7087
▁mold	-7088
▁Sund	-7089
▁reward	-7090
▁Moon	-7091
▁interpre	-7092
▁Whether	-7093
pling	-7094
▁comfortable	-7095
outs	-7096
▁galax	-7097
▁judge	-7098
▁laid	-7099
▁Muslim	-7100
▁roughly	-7101
▁concerning	-7102
▁chest	-7103
▁bomb	-7104
▁Safety	-7105
▁crew	-7106
▁filter	-7107
bles	-7108
▁radical	-7109
▁Light	-7110
▁outer	-7111
▁nitrogen	-7112
peror	-7113
▁gained	-7114
mes	-7115
▁Resp	-7116
▁minute	-7117
▁mathematics	-7118
44	-7119
▁variation	-7120
▁happening	-7121
▁structural	-7122
▁mineral	-7123
rav	-7124
▁unusual	-7125
▁investigation	-7126
▁Johnson	-7127
▁microb	-7128
▁Reading	-7129
iana	-7130
▁turb	-7131
▁deeper	-7132
▁Mah	-7133
▁branch	-7134
▁imagine	-7135
▁panel	-7136
net	-7137
▁roads	-7138
▁prominent	-7139
▁screening	-7140
▁transact	-7141
ounce	-7142
▁Oper	-7143
▁serves	-7144
▁cham	-7145
▁falls	-7146
chen	-7147
▁plane	-7148
abeth	-7149
▁assume	-7150
▁examined	-7151
▁printed	-7152
▁guard	-7153
▁experimental	-7154
▁healing	-7155
▁Cast	-7156
▁Desc	-7157
ogether	-7158
▁lake	-7159
▁remed	-7160
▁modified	-7161
tles	-7162
riend	-7163
ilation	-7164
▁exclus	-7165
bar	-7166
▁targets	-7167
ano	-7168
▁poem	-7169
▁fed	-7170
▁television	-7171
orea	-7172
▁config	-7173
▁demands	-7174
▁microsc	-7175
▁wine	-7176
▁Treatment	-7177
▁scientist	-7178
iary	-7179
▁Jeff	-7180
▁biom	-7181
▁errors	-7182
▁scar	-7183
▁usual	-7184
▁Hand	-7185
▁decreased	-7186
▁Dev	-7187
▁diameter	-7188
▁trigger	-7189
▁encoun	-7190
essions	-7191
bec	-7192
▁satisf	-7193
▁substantial	-7194
▁gro	-7195
alm	-7196
▁compound	-7197
▁compens	-7198
American	-7199
▁Organization	-7200
▁consideration	-7201
▁stead	-7202
▁(20	-7203
▁grain	-7204
▁Windows	-7205
▁Pakistan	-7206
▁lights	-7207
▁Again	-7208
▁criminal	-7209
▁manifest	-7210
▁eliminate	-7211
▁initially	-7212
▁Sar	-7213
▁finished	-7214
▁dates	-7215
▁Fire	-7216
▁elected	-7217
HD	-7218
CE	-7219
▁Engineering	-7220
eli	-7221
uality	-7222
▁marks	-7223
▁assigned	-7224
▁decor	-7225
▁observe	-7226
▁trends	-7227
▁holes	-7228
▁suffered	-7229
▁65	-7230
▁anywhere	-7231
illa	-7232
▁Wall	-7233
▁Eliz	-7234
▁brush	-7235
▁rose	-7236
▁Having	-7237
▁isolated	-7238
otype	-7239
ograp	-7240
▁plot	-7241
▁statements	-7242
▁bigger	-7243
ricts	-7244
▁hazard	-7245
▁Ident	-7246
▁breed	-7247
▁mg	-7248
▁remind	-7249
ipedia	-7250
▁flour	-7251
▁(5	-7252
▁Online	-7253
▁Cell	-7254
▁spin	-7255
amics	-7256
▁Ur	-7257
▁exception	-7258
▁complications	-7259
▁innovation	-7260
▁Sand	-7261
riz	-7262
▁cooking	-7263
▁py	-7264
▁senior	-7265
▁cash	-7266
:10.	-7267
▁Columbia	-7268
ontal	-7269
gence	-7270
▁ordered	-7271
▁fishing	-7272
mm	-7273
▁warning	-7274
ostic	-7275
▁Prevention	-7276
▁maybe	-7277
itarian	-7278
rison	-7279
▁Coast	-7280
Sp	-7281
▁unw	-7282
coming	-7283
▁editor	-7284
▁tropical	-7285
ueen	-7286
▁Lincoln	-7287
▁hosp	-7288
▁Liter	-7289
▁threats	-7290
▁adds	-7291
haust	-7292
▁Neu	-7293
▁Pur	-7294
▁pestic	-7295
▁faced	-7296
▁driven	-7297
▁literacy	-7298
ali	-7299
▁physician	-7300
fts	-7301
77	-7302
▁fest	-7303
▁provider	-7304
▁Contin	-7305
oured	-7306
▁split	-7307
atial	-7308
▁sus	-7309
▁earliest	-7310
▁intent	-7311
▁Remember	-7312
▁printing	-7313
opic	-7314
ima	-7315
▁adm	-7316
EE	-7317
▁traditions	-7318
ested	-7319
vania	-7320
igue	-7321
▁Iran	-7322
▁indigenous	-7323
▁Boston	-7324
▁detected	-7325
▁rab	-7326
▁recover	-7327
▁kilomet	-7328
▁Alz	-7329
▁neighborhood	-7330
▁observation	-7331
▁corner	-7332
▁identification	-7333
adder	-7334
▁terror	-7335
▁accompan	-7336
▁regulation	-7337
ude	-7338
▁consume	-7339
ultane	-7340
▁cab	-7341
▁Supreme	-7342
▁accommod	-7343
▁alter	-7344
ptions	-7345
▁soul	-7346
▁Tom	-7347
▁evolved	-7348
▁measuring	-7349
IM	-7350
▁translation	-7351
iat	-7352
unicip	-7353
▁stations	-7354
ette	-7355
▁dynamic	-7356
▁Cross	-7357
▁stores	-7358
▁heavily	-7359
▁listening	-7360
▁caught	-7361
▁AM	-7362
▁worship	-7363
Cl	-7364
▁Christians	-7365
▁conqu	-7366
including	-7367
class	-7368
▁subt	-7369
onal	-7370
oric	-7371
▁disrupt	-7372
atively	-7373
sm	-7374
▁Star	-7375
icted	-7376
▁Imp	-7377
▁videos	-7378
semb	-7379
▁conj	-7380
▁stability	-7381
▁granted	-7382
▁defend	-7383
ishop	-7384
▁grid	-7385
▁Pen	-7386
▁Assess	-7387
elfare	-7388
▁schedule	-7389
▁Math	-7390
▁orbit	-7391
▁intensity	-7392
igate	-7393
sell	-7394
etary	-7395
▁amazing	-7396
▁cort	-7397
▁paragraph	-7398
otal	-7399
▁Rh	-7400
▁Heart	-7401
▁Nov	-7402
▁concluded	-7403
▁van	-7404
▁Init	-7405
▁reveal	-7406
▁Scientists	-7407
▁engineers	-7408
▁Parent	-7409
ioxid	-7410
ieval	-7411
▁bacterial	-7412
▁hence	-7413
▁Cambridge	-7414
▁correctly	-7415
▁pin	-7416
syl	-7417
▁overcome	-7418
▁Business	-7419
▁strengthen	-7420
night	-7421
▁aged	-7422
▁stuff	-7423
▁Lead	-7424
effect	-7425
▁enorm	-7426
iture	-7427
▁Ol	-7428
▁sitting	-7429
▁1950	-7430
onym	-7431
▁Minister	-7432
▁Avoid	-7433
isco	-7434
▁slaves	-7435
▁Edward	-7436
▁array	-7437
ogenic	-7438
from	-7439
icy	-7440
har	-7441
icing	-7442
▁occurring	-7443
▁finds	-7444
▁coverage	-7445
▁pros	-7446
▁antibiotics	-7447
▁windows	-7448
▁suscept	-7449
▁Polit	-7450
▁ceremon	-7451
▁ye	-7452
▁processed	-7453
inf	-7454
▁Alzheimer	-7455
▁rac	-7456
▁Scotland	-7457
va	-7458
rays	-7459
▁vocabulary	-7460
▁acquired	-7461
▁Ask	-7462
ba	-7463
▁Following	-7464
▁writes	-7465
▁inspired	-7466
▁conference	-7467
oids	-7468
▁drought	-7469
▁player	-7470
▁conce	-7471
▁uniform	-7472
▁flows	-7473
▁Ins	-7474
ersonal	-7475
▁Indeed	-7476
Un	-7477
▁sunlight	-7478
▁abilities	-7479
▁objectives	-7480
cking	-7481
▁identifying	-7482
▁channel	-7483
▁musical	-7484
▁Mot	-7485
▁heads	-7486
uten	-7487
▁imaging	-7488
▁laser	-7489
▁grows	-7490
rance	-7491
▁alph	-7492
▁duty	-7493
▁Bul	-7494
▁peoples	-7495
▁asc	-7496
itual	-7497
▁CP	-7498
▁epis	-7499
Ex	-7500
▁brows	-7501
ucky	-7502
▁strain	-7503
▁perception	-7504
▁athlet	-7505
ustain	-7506
▁Ohio	-7507
▁uncom	-7508
produ	-7509
▁union	-7510
▁Division	-7511
▁agent	-7512
▁Obs	-7513
▁client	-7514
▁reaching	-7515
▁viewed	-7516
▁slave	-7517
enger	-7518
▁dietary	-7519
▁contribution	-7520
mers	-7521
▁directed	-7522
asant	-7523
▁Incre	-7524
▁superior	-7525
angered	-7526
▁emphasis	-7527
▁worst	-7528
▁Based	-7529
▁driver	-7530
▁Hospital	-7531
▁narrative	-7532
▁quantity	-7533
▁extend	-7534
▁inhabit	-7535
▁Due	-7536
▁Survey	-7537
writ	-7538
▁disabilities	-7539
▁acres	-7540
▁Force	-7541
▁wheel	-7542
isted	-7543
▁Ut	-7544
▁sup	-7545
▁Hebrew	-7546
▁lip	-7547
▁Lee	-7548
spect	-7549
▁Corn	-7550
46	-7551
▁experiencing	-7552
▁Protection	-7553
▁Father	-7554
▁protective	-7555
▁giant	-7556
▁moderate	-7557
▁les	-7558
▁representation	-7559
▁Unlike	-7560
▁commitment	-7561
▁sensors	-7562
▁Conservation	-7563
▁thermal	-7564
ura	-7565
▁wheat	-7566
▁concentrations	-7567
ENT	-7568
▁protecting	-7569
▁decay	-7570
▁covering	-7571
▁vitamins	-7572
▁Ly	-7573
▁TO	-7574
ercury	-7575
▁Play	-7576
▁cattle	-7577
itory	-7578
▁coc	-7579
▁contributed	-7580
▁perm	-7581
orted	-7582
▁6,	-7583
just	-7584
▁adverse	-7585
▁fatty	-7586
▁functioning	-7587
▁autism	-7588
ao	-7589
▁48	-7590
▁providers	-7591
acent	-7592
yer	-7593
soft	-7594
▁Palest	-7595
▁oldest	-7596
▁relie	-7597
▁automatically	-7598
sylvania	-7599
▁phrase	-7600
▁tables	-7601
▁mir	-7602
door	-7603
▁parameters	-7604
▁mixture	-7605
▁seat	-7606
31	-7607
plete	-7608
▁38	-7609
esh	-7610
▁cooling	-7611
▁programme	-7612
▁Head	-7613
ographical	-7614
▁affecting	-7615
▁inequ	-7616
▁victim	-7617
gien	-7618
rection	-7619
otherapy	-7620
▁meals	-7621
▁desert	-7622
▁Way	-7623
▁bees	-7624
▁Hor	-7625
▁Books	-7626
▁lymph	-7627
▁forming	-7628
athered	-7629
brid	-7630
▁bag	-7631
▁Being	-7632
century	-7633
igare	-7634
▁Cr	-7635
▁settlement	-7636
CH	-7637
▁advent	-7638
▁Elizabeth	-7639
▁argue	-7640
▁Michigan	-7641
▁CH	-7642
ogs	-7643
▁regarded	-7644
▁Policy	-7645
▁Georgia	-7646
▁stake	-7647
▁polar	-7648
▁Far	-7649
ptom	-7650
▁DO	-7651
▁weakness	-7652
▁innovative	-7653
▁quarter	-7654
uset	-7655
▁authent	-7656
quir	-7657
▁calling	-7658
▁honey	-7659
▁mine	-7660
▁supplements	-7661
▁girl	-7662
apor	-7663
▁hidden	-7664
▁rhyth	-7665
▁mountains	-7666
▁regardless	-7667
▁2004	-7668
▁SS	-7669
▁colonial	-7670
▁IT	-7671
▁addressed	-7672
holders	-7673
▁Road	-7674
▁coron	-7675
▁descript	-7676
▁mosquit	-7677
asm	-7678
76	-7679
▁robot	-7680
▁literary	-7681
▁overwhel	-7682
ailable	-7683
▁hardware	-7684
ansas	-7685
▁thereby	-7686
▁Battle	-7687
▁planting	-7688
▁rational	-7689
▁preced	-7690
ema	-7691
▁productivity	-7692
▁Analysis	-7693
▁taxes	-7694
▁vel	-7695
▁Wal	-7696
usalem	-7697
▁enables	-7698
▁Him	-7699
▁deficiency	-7700
▁separated	-7701
▁steam	-7702
▁aimed	-7703
▁sensitivity	-7704
lines	-7705
▁democracy	-7706
oli	-7707
▁nice	-7708
▁ampl	-7709
erty	-7710
▁profit	-7711
angle	-7712
▁characteristic	-7713
▁psychology	-7714
print	-7715
rolled	-7716
atal	-7717
▁conserv	-7718
ruit	-7719
▁falling	-7720
▁Facebook	-7721
▁surge	-7722
acts	-7723
▁resid	-7724
▁pla	-7725
▁gases	-7726
▁AL	-7727
-20	-7728
▁personality	-7729
▁tob	-7730
▁rect	-7731
usetts	-7732
▁Spring	-7733
▁manufacturers	-7734
▁elder	-7735
▁Dutch	-7736
▁Wil	-7737
ulpt	-7738
achusetts	-7739
neys	-7740
▁counsel	-7741
▁lens	-7742
▁insight	-7743
▁exhaust	-7744
▁farms	-7745
adel	-7746
▁scores	-7747
▁killing	-7748
icular	-7749
▁pandemic	-7750
▁interventions	-7751
rical	-7752
htt	-7753
▁quiet	-7754
▁availability	-7755
▁mathematical	-7756
▁researcher	-7757
▁shoot	-7758
▁(1)	-7759
▁dress	-7760
▁tor	-7761
▁Card	-7762
▁finger	-7763
archy	-7764
▁Pennsylvania	-7765
▁Small	-7766
▁vaccines	-7767
▁appointed	-7768
▁versions	-7769
▁technological	-7770
▁simultane	-7771
▁Thanks	-7772
urches	-7773
▁dance	-7774
▁chemistry	-7775
CA	-7776
▁reporting	-7777
una	-7778
▁neutral	-7779
▁Ira	-7780
uther	-7781
▁vertical	-7782
▁comprom	-7783
irms	-7784
hea	-7785
▁analyze	-7786
▁ensuring	-7787
dr	-7788
▁disability	-7789
▁sizes	-7790
▁cure	-7791
▁summary	-7792
▁abstract	-7793
▁introduce	-7794
▁ordinary	-7795
▁educators	-7796
allow	-7797
▁carbohyd	-7798
▁officer	-7799
▁interactive	-7800
amine	-7801
hus	-7802
▁trauma	-7803
▁achievement	-7804
▁Lim	-7805
▁herb	-7806
▁ran	-7807
▁visited	-7808
▁2019	-7809
quar	-7810
▁Later	-7811
▁lungs	-7812
▁Impro	-7813
▁consumed	-7814
▁buried	-7815
▁illegal	-7816
▁interface	-7817
▁preserve	-7818
▁cardiovascular	-7819
irth	-7820
ymes	-7821
▁believes	-7822
▁tong	-7823
iments	-7824
▁calculated	-7825
NS	-7826
▁tobacco	-7827
▁migration	-7828
▁Little	-7829
ricted	-7830
▁heritage	-7831
▁bless	-7832
▁swit	-7833
▁Jerusalem	-7834
▁Mach	-7835
▁1)	-7836
▁assets	-7837
HS	-7838
▁Iss	-7839
▁losses	-7840
▁customer	-7841
▁stones	-7842
iva	-7843
▁ven	-7844
▁opposition	-7845
▁humanity	-7846
▁Spirit	-7847
pled	-7848
▁urine	-7849
▁Scholar	-7850
▁Model	-7851
▁smell	-7852
rix	-7853
▁argued	-7854
▁Help	-7855
▁pointed	-7856
rob	-7857
▁Did	-7858
alities	-7859
▁orders	-7860
omer	-7861
▁updated	-7862
▁alive	-7863
▁stopped	-7864
▁arguments	-7865
▁dimens	-7866
▁exciting	-7867
▁chances	-7868
▁Point	-7869
▁tumor	-7870
▁permission	-7871
aren	-7872
▁substit	-7873
▁34	-7874
▁myst	-7875
▁cotton	-7876
▁propag	-7877
▁nutrient	-7878
▁Massachusetts	-7879
▁linear	-7880
▁cord	-7881
▁Invest	-7882
On	-7883
▁charged	-7884
▁gast	-7885
azon	-7886
▁emerging	-7887
▁Blue	-7888
55	-7889
▁cyber	-7890
▁button	-7891
▁pH	-7892
▁owned	-7893
▁Colorado	-7894
▁Justice	-7895
▁variations	-7896
▁expanded	-7897
▁membrane	-7898
asts	-7899
▁Circ	-7900
▁sensor	-7901
▁adolesc	-7902
▁flying	-7903
▁improvements	-7904
▁flexible	-7905
▁attitude	-7906
▁initiative	-7907
zer	-7908
▁dism	-7909
▁logic	-7910
▁Drug	-7911
▁embra	-7912
▁ritual	-7913
advant	-7914
DS	-7915
▁exploration	-7916
real	-7917
CP	-7918
aws	-7919
▁batteries	-7920
▁harder	-7921
berry	-7922
▁managing	-7923
▁advis	-7924
▁2003	-7925
reated	-7926
▁quantum	-7927
▁ease	-7928
▁mothers	-7929
sen	-7930
-12	-7931
▁cas	-7932
▁plain	-7933
▁royal	-7934
Med	-7935
mann	-7936
▁Lin	-7937
html	-7938
▁equation	-7939
▁panels	-7940
▁planets	-7941
66	-7942
▁wisdom	-7943
opher	-7944
▁scope	-7945
▁computing	-7946
▁geomet	-7947
▁Page	-7948
▁compost	-7949
▁Parliament	-7950
anger	-7951
eting	-7952
▁proceed	-7953
▁antioxid	-7954
▁fellow	-7955
▁Writing	-7956
▁Section	-7957
▁societies	-7958
▁1,000	-7959
▁ton	-7960
▁clock	-7961
▁keeps	-7962
amps	-7963
▁temporary	-7964
▁metals	-7965
.).	-7966
▁lock	-7967
adow	-7968
▁engaging	-7969
iger	-7970
▁flash	-7971
▁tap	-7972
▁dim	-7973
▁sentences	-7974
▁rh	-7975
ourse	-7976
▁behavioral	-7977
▁elsewhere	-7978
▁duration	-7979
▁Harvard	-7980
ami	-7981
▁chap	-7982
Sh	-7983
▁consciousness	-7984
▁hunting	-7985
▁dramatic	-7986
uum	-7987
▁Hawai	-7988
▁fra	-7989
fulness	-7990
OM	-7991
▁fuels	-7992
TP	-7993
▁Process	-7994
EF	-7995
▁Solar	-7996
▁communications	-7997
def	-7998
▁boundaries	-7999
forest	-8000
▁Christianity	-8001
▁directions	-8002
▁sched	-8003
▁performing	-8004
▁Systems	-8005
bean	-8006
▁reasonable	-8007
▁Confed	-8008
▁spr	-8009
▁cancers	-8010
▁Max	-8011
▁physically	-8012
▁focusing	-8013
olk	-8014
▁styles	-8015
▁emotion	-8016
▁threatened	-8017
gr	-8018
▁Arctic	-8019
ependent	-8020
▁entertain	-8021
▁Building	-8022
ecess	-8023
▁audio	-8024
▁asp	-8025
▁lists	-8026
▁fought	-8027
▁Alexander	-8028
▁DC	-8029
▁Islamic	-8030
▁executive	-8031
And	-8032
▁ethical	-8033
▁gent	-8034
▁tribes	-8035
▁dominant	-8036
▁Digital	-8037
▁oxid	-8038
▁manager	-8039
▁Gar	-8040
endment	-8041
▁exhibit	-8042
▁irrig	-8043
▁Economic	-8044
ptic	-8045
▁Pass	-8046
79	-8047
iop	-8048
▁fats	-8049
▁capabilities	-8050
▁7,	-8051
▁faces	-8052
▁poetry	-8053
▁evening	-8054
▁attach	-8055
lu	-8056
eor	-8057
▁expectations	-8058
▁waiting	-8059
▁Mur	-8060
▁hormones	-8061
▁33	-8062
HA	-8063
lete	-8064
▁lowest	-8065
▁households	-8066
▁tempor	-8067
▁grains	-8068
BT	-8069
▁Gener	-8070
▁reverse	-8071
▁streets	-8072
ipher	-8073
▁container	-8074
▁settled	-8075
▁Right	-8076
▁tick	-8077
▁drivers	-8078
▁AR	-8079
▁fing	-8080
▁Still	-8081
▁vegetation	-8082
hire	-8083
▁remarkable	-8084
▁wonderful	-8085
▁transmit	-8086
▁Crit	-8087
cyclopedia	-8088
▁Iraq	-8089
▁genome	-8090
▁recycling	-8091
▁creatures	-8092
erman	-8093
Gen	-8094
▁Level	-8095
▁10,	-8096
▁spray	-8097
▁websites	-8098
▁sevent	-8099
▁Physical	-8100
lims	-8101
amination	-8102
▁ecological	-8103
ugg	-8104
asy	-8105
▁classified	-8106
▁movie	-8107
idal	-8108
asma	-8109
▁spoken	-8110
▁promoting	-8111
▁incident	-8112
▁Stan	-8113
ipe	-8114
▁establishment	-8115
ivest	-8116
▁investigate	-8117
ket	-8118
▁EPA	-8119
▁marketing	-8120
▁labour	-8121
kind	-8122
▁Laboratory	-8123
49	-8124
▁tens	-8125
rize	-8126
▁determining	-8127
▁Often	-8128
eries	-8129
▁tip	-8130
▁Within	-8131
▁Sunday	-8132
▁Bang	-8133
▁preferred	-8134
vi	-8135
▁colonies	-8136
▁watching	-8137
▁fatigue	-8138
▁assumed	-8139
▁resil	-8140
▁extension	-8141
▁integration	-8142
▁Navy	-8143
▁Philipp	-8144
▁enormous	-8145
▁evident	-8146
▁Cub	-8147
▁corresponding	-8148
▁boat	-8149
▁Fred	-8150
▁parad	-8151
▁definitely	-8152
▁conclus	-8153
uits	-8154
▁exped	-8155
▁wider	-8156
▁deeply	-8157
▁telling	-8158
▁(2)	-8159
▁Hum	-8160
▁priority	-8161
oul	-8162
▁ecosystems	-8163
▁manual	-8164
ician	-8165
▁Behav	-8166
▁2)	-8167
elve	-8168
▁Cost	-8169
▁assembly	-8170
▁classical	-8171
mia	-8172
zo	-8173
▁Agriculture	-8174
▁courts	-8175
▁degrad	-8176
lights	-8177
▁Ice	-8178
▁saved	-8179
▁scr	-8180
▁eru	-8181
ati	-8182
▁cann	-8183
edu	-8184
▁equality	-8185
▁SP	-8186
▁Ok	-8187
▁Copyright	-8188
▁removing	-8189
▁hypothesis	-8190
▁districts	-8191
▁infants	-8192
▁Ha	-8193
oto	-8194
olt	-8195
▁gravity	-8196
▁37	-8197
▁jur	-8198
▁entering	-8199
aints	-8200
earch	-8201
▁universities	-8202
▁strike	-8203
▁shed	-8204
▁Saint	-8205
▁embry	-8206
istant	-8207
▁dies	-8208
thod	-8209
▁contributions	-8210
▁minds	-8211
▁gly	-8212
▁ranging	-8213
▁Gall	-8214
mented	-8215
▁perceived	-8216
utation	-8217
Ad	-8218
▁empty	-8219
sor	-8220
words	-8221
▁prey	-8222
▁convey	-8223
urning	-8224
▁promise	-8225
▁Wildlife	-8226
unct	-8227
▁occas	-8228
▁sodium	-8229
▁versus	-8230
▁converted	-8231
mentia	-8232
ranean	-8233
wan	-8234
▁hall	-8235
▁safely	-8236
▁Islands	-8237
▁lighting	-8238
▁joints	-8239
TH	-8240
thon	-8241
▁interior	-8242
▁pupils	-8243
jo	-8244
▁Francisco	-8245
▁clothes	-8246
ols	-8247
▁feels	-8248
▁requirement	-8249
uan	-8250
▁committee	-8251
▁attribut	-8252
ailing	-8253
▁thread	-8254
ogy	-8255
▁Fil	-8256
▁applying	-8257
ashes	-8258
olume	-8259
nut	-8260
▁dense	-8261
▁beat	-8262
▁differ	-8263
▁Pu	-8264
▁Between	-8265
▁Norm	-8266
▁differently	-8267
▁kingdom	-8268
▁CE	-8269
▁Diet	-8270
anted	-8271
▁explicit	-8272
▁sculpt	-8273
agan	-8274
▁Chem	-8275
ivestock	-8276
▁addiction	-8277
▁trick	-8278
▁orb	-8279
▁celebrated	-8280
▁Ram	-8281
▁heaven	-8282
rh	-8283
▁RNA	-8284
▁balanced	-8285
books	-8286
▁Gulf	-8287
▁Hence	-8288
▁wearing	-8289
▁Testament	-8290
▁newspaper	-8291
borne	-8292
raham	-8293
▁grounds	-8294
▁fet	-8295
mod	-8296
CR	-8297
▁95	-8298
▁tack	-8299
▁accompanied	-8300
▁8,	-8301
gener	-8302
▁appeal	-8303
▁fisher	-8304
▁Given	-8305
▁reign	-8306
▁Place	-8307
agen	-8308
▁entit	-8309
▁guess	-8310
OW	-8311
▁chair	-8312
▁cough	-8313
▁painful	-8314
▁Hindu	-8315
▁marg	-8316
▁Li	-8317
▁mature	-8318
▁Standard	-8319
▁devast	-8320
▁fo	-8321
unc	-8322
▁3:	-8323
▁fires	-8324
▁2001	-8325
uscript	-8326
▁55	-8327
▁Daniel	-8328
▁engines	-8329
▁CA	-8330
▁resc	-8331
▁craft	-8332
▁biodiversity	-8333
▁emerged	-8334
neum	-8335
▁Code	-8336
▁traits	-8337
▁pilot	-8338
▁Put	-8339
▁viral	-8340
▁libr	-8341
▁references	-8342
ologically	-8343
▁losing	-8344
▁acting	-8345
▁pill	-8346
▁fur	-8347
▁verb	-8348
▁violent	-8349
68	-8350
opl	-8351
▁cow	-8352
bell	-8353
▁shaped	-8354
▁Symptoms	-8355
EG	-8356
MA	-8357
▁province	-8358
encing	-8359
▁convert	-8360
gon	-8361
▁transmitted	-8362
▁passion	-8363
▁1930	-8364
▁Conference	-8365
▁dil	-8366
47	-8367
▁limitations	-8368
▁profile	-8369
▁continuing	-8370
erts	-8371
▁thesis	-8372
▁Hard	-8373
▁prevalence	-8374
▁Examples	-8375
▁medicines	-8376
▁sulf	-8377
vin	-8378
agnetic	-8379
▁transc	-8380
▁cul	-8381
▁Similarly	-8382
▁Major	-8383
▁adapted	-8384
▁Historical	-8385
▁probability	-8386
▁aging	-8387
▁raising	-8388
orig	-8389
▁buff	-8390
▁ID	-8391
▁Proble	-8392
▁weigh	-8393
tw	-8394
▁MA	-8395
▁symbols	-8396
They	-8397
box	-8398
▁Farm	-8399
▁facilitate	-8400
▁targeted	-8401
▁expertise	-8402
▁dairy	-8403
▁assert	-8404
▁spots	-8405
▁Ott	-8406
ouds	-8407
▁clients	-8408
▁Andrew	-8409
▁Blood	-8410
▁existed	-8411
▁wouldn	-8412
enced	-8413
▁Los	-8414
▁anticip	-8415
▁spinal	-8416
▁chromos	-8417
▁outbreak	-8418
ietnam	-8419
Google	-8420
lymp	-8421
▁saving	-8422
▁Interest	-8423
▁ham	-8424
aka	-8425
▁Pain	-8426
▁sustainability	-8427
▁Fig	-8428
▁stood	-8429
mentation	-8430
▁victory	-8431
▁handling	-8432
▁Ba	-8433
▁accord	-8434
▁attitudes	-8435
▁begun	-8436
▁Capt	-8437
usive	-8438
▁bare	-8439
Sc	-8440
▁atoms	-8441
▁loose	-8442
foot	-8443
▁drinks	-8444
▁lifetime	-8445
oons	-8446
OD	-8447
▁barriers	-8448
▁Mond	-8449
▁cooperation	-8450
▁origins	-8451
▁virtually	-8452
▁Bal	-8453
▁Understanding	-8454
zyme	-8455
▁involvement	-8456
elescope	-8457
▁mouse	-8458
▁sad	-8459
▁Offic	-8460
flamm	-8461
▁actively	-8462
▁integr	-8463
▁dating	-8464
▁Nob	-8465
▁myself	-8466
▁acknowled	-8467
▁immigrants	-8468
▁complexity	-8469
endar	-8470
ila	-8471
▁trem	-8472
▁Frid	-8473
▁replacement	-8474
▁Emer	-8475
▁solving	-8476
▁circulation	-8477
▁Mid	-8478
eath	-8479
▁hospitals	-8480
▁photographs	-8481
▁nutritional	-8482
▁hat	-8483
▁obst	-8484
ackson	-8485
▁sessions	-8486
▁grades	-8487
▁Lew	-8488
oves	-8489
▁Material	-8490
▁engagement	-8491
▁178	-8492
▁digestive	-8493
▁habitats	-8494
▁chose	-8495
▁ion	-8496
ifice	-8497
thew	-8498
▁crown	-8499
▁haven	-8500
▁scheme	-8501
section	-8502
chain	-8503
▁cub	-8504
▁notion	-8505
▁gathered	-8506
▁Muslims	-8507
▁armed	-8508
▁apparently	-8509
obile	-8510
▁tact	-8511
▁discussions	-8512
▁realized	-8513
▁occupied	-8514
▁opinions	-8515
assium	-8516
▁friendly	-8517
▁currency	-8518
▁thyroid	-8519
▁collective	-8520
▁Short	-8521
▁unn	-8522
▁McC	-8523
▁controlling	-8524
IF	-8525
cin	-8526
▁intention	-8527
urrent	-8528
▁withdraw	-8529
▁meaningful	-8530
eping	-8531
roud	-8532
▁Media	-8533
▁municip	-8534
▁readily	-8535
▁scenario	-8536
▁tone	-8537
▁Squ	-8538
▁ears	-8539
▁personnel	-8540
atus	-8541
▁Bureau	-8542
▁gods	-8543
▁purchased	-8544
fast	-8545
▁aggressive	-8546
inois	-8547
▁Music	-8548
▁club	-8549
RNA	-8550
▁Much	-8551
▁Support	-8552
play	-8553
▁Arts	-8554
▁Chief	-8555
▁hygien	-8556
▁seriously	-8557
▁pel	-8558
world	-8559
▁diarr	-8560
raine	-8561
▁recre	-8562
▁neurons	-8563
▁till	-8564
▁2002	-8565
▁welfare	-8566
▁wars	-8567
▁resistant	-8568
adelph	-8569
izers	-8570
▁strategic	-8571
olves	-8572
▁Greece	-8573
▁pairs	-8574
▁specialized	-8575
disc	-8576
▁soph	-8577
▁gum	-8578
▁persu	-8579
ilst	-8580
▁choosing	-8581
▁juice	-8582
▁12.	-8583
▁Dictionary	-8584
▁insights	-8585
esium	-8586
requ	-8587
▁Should	-8588
▁Poly	-8589
umer	-8590
▁Wikipedia	-8591
▁holiday	-8592
▁joy	-8593
▁Indones	-8594
▁peer	-8595
▁pione	-8596
▁noticed	-8597
▁bleeding	-8598
▁Move	-8599
▁uncle	-8600
friend	-8601
▁shore	-8602
ocolate	-8603
▁classic	-8604
▁literally	-8605
▁unlikely	-8606
▁colony	-8607
▁Ast	-8608
▁sale	-8609
▁ash	-8610
▁representative	-8611
▁suit	-8612
imp	-8613
made	-8614
oded	-8615
▁Self	-8616
▁shorter	-8617
specific	-8618
▁varied	-8619
▁sacred	-8620
▁graduate	-8621
▁Town	-8622
▁restore	-8623
▁reaches	-8624
▁copyright	-8625
▁Portug	-8626
▁absorb	-8627
▁Colon	-8628
▁qualities	-8629
▁addresses	-8630
▁develops	-8631
98	-8632
▁Mess	-8633
▁tends	-8634
▁2012.	-8635
▁cheap	-8636
▁disadvant	-8637
▁workplace	-8638
▁planted	-8639
ensed	-8640
▁Occ	-8641
▁Third	-8642
▁powder	-8643
▁spoke	-8644
ilson	-8645
▁soils	-8646
ceans	-8647
▁constra	-8648
rip	-8649
▁Watch	-8650
▁Different	-8651
▁frust	-8652
operative	-8653
▁pollut	-8654
▁Moses	-8655
▁Amazon	-8656
▁conversion	-8657
▁returns	-8658
▁vegetable	-8659
▁Field	-8660
▁breaking	-8661
▁associate	-8662
▁funded	-8663
But	-8664
▁varies	-8665
▁forecast	-8666
▁dipl	-8667
▁reveals	-8668
itting	-8669
▁Prim	-8670
▁basically	-8671
▁AC	-8672
ocity	-8673
▁11.	-8674
▁11,	-8675
icking	-8676
▁contents	-8677
bel	-8678
▁sees	-8679
▁Olymp	-8680
▁specified	-8681
▁Dam	-8682
▁hal	-8683
▁glac	-8684
▁reflected	-8685
▁influences	-8686
eutic	-8687
orean	-8688
▁tension	-8689
▁celebrate	-8690
▁dict	-8691
▁Call	-8692
▁tab	-8693
▁dropped	-8694
uity	-8695
▁Jacob	-8696
ois	-8697
▁happiness	-8698
▁enthus	-8699
swe	-8700
▁privile	-8701
▁prescribed	-8702
▁clay	-8703
▁pace	-8704
▁span	-8705
▁Aff	-8706
▁representing	-8707
▁precip	-8708
▁annually	-8709
sex	-8710
▁Ministry	-8711
▁analyzed	-8712
plo	-8713
▁prayer	-8714
▁divine	-8715
▁coat	-8716
▁songs	-8717
▁restaur	-8718
▁Secretary	-8719
▁Biology	-8720
▁Select	-8721
64	-8722
avirus	-8723
▁mask	-8724
▁metabolism	-8725
EA	-8726
▁wat	-8727
▁paying	-8728
▁Mexican	-8729
▁orange	-8730
zymes	-8731
▁Temple	-8732
awn	-8733
▁tu	-8734
▁prime	-8735
icts	-8736
▁sciences	-8737
▁tongue	-8738
▁globe	-8739
▁predicted	-8740
▁couldn	-8741
▁gif	-8742
▁Abraham	-8743
▁everywhere	-8744
▁discipline	-8745
adelphia	-8746
▁savings	-8747
▁Rest	-8748
▁profound	-8749
aware	-8750
▁Rail	-8751
▁scat	-8752
▁deploy	-8753
▁overview	-8754
▁displayed	-8755
ais	-8756
▁churches	-8757
▁accurately	-8758
unning	-8759
▁Century	-8760
▁recording	-8761
▁alarm	-8762
▁anger	-8763
▁developments	-8764
outheast	-8765
through	-8766
No	-8767
▁barrier	-8768
▁default	-8769
plate	-8770
▁Hyd	-8771
▁auto	-8772
▁restoration	-8773
▁Gre	-8774
▁incidence	-8775
▁creativity	-8776
▁prox	-8777
▁practition	-8778
▁trace	-8779
issipp	-8780
▁logical	-8781
SP	-8782
▁penet	-8783
akespe	-8784
▁ho	-8785
▁Creek	-8786
▁2013.	-8787
▁beans	-8788
▁optimal	-8789
▁burden	-8790
▁Senate	-8791
aya	-8792
text	-8793
sembly	-8794
claim	-8795
▁Print	-8796
▁Introduction	-8797
▁arise	-8798
▁indirect	-8799
ometer	-8800
AB	-8801
▁surgical	-8802
To	-8803
▁Convention	-8804
▁1920	-8805
▁sheep	-8806
mond	-8807
urable	-8808
▁2011.	-8809
▁2010.	-8810
iner	-8811
▁motivation	-8812
▁Illinois	-8813
cule	-8814
vation	-8815
▁suicide	-8816
▁Ide	-8817
▁spacecraft	-8818
▁breaks	-8819
▁transferred	-8820
▁gardens	-8821
rue	-8822
bury	-8823
▁strange	-8824
▁Trust	-8825
▁throat	-8826
▁spatial	-8827
▁refused	-8828
▁oste	-8829
▁Jackson	-8830
▁competitive	-8831
▁calculate	-8832
awa	-8833
▁Best	-8834
elect	-8835
▁Fish	-8836
By	-8837
▁sug	-8838
iterranean	-8839
▁tomat	-8840
▁Nutrition	-8841
akespeare	-8842
▁evolutionary	-8843
▁exploring	-8844
▁maxim	-8845
▁Obama	-8846
▁analyses	-8847
▁severity	-8848
rait	-8849
▁assignment	-8850
▁wise	-8851
▁advances	-8852
iations	-8853
▁preparing	-8854
▁sons	-8855
▁minority	-8856
▁Const	-8857
▁curve	-8858
ifer	-8859
▁pets	-8860
ught	-8861
▁Friday	-8862
▁revers	-8863
issance	-8864
Be	-8865
▁gift	-8866
shaped	-8867
▁themes	-8868
▁Connect	-8869
▁Week	-8870
▁ultimate	-8871
▁Area	-8872
▁Rather	-8873
▁mammals	-8874
▁Image	-8875
▁specialist	-8876
▁permit	-8877
▁theoretical	-8878
irable	-8879
▁Local	-8880
otypes	-8881
lock	-8882
▁judgment	-8883
▁Microsoft	-8884
▁ownership	-8885
apes	-8886
aternal	-8887
▁Fed	-8888
▁productive	-8889
▁identical	-8890
▁Computer	-8891
▁wash	-8892
▁ster	-8893
▁Ell	-8894
ogens	-8895
onents	-8896
OP	-8897
rypt	-8898
▁Gh	-8899
▁optical	-8900
▁draft	-8901
▁12,	-8902
▁posts	-8903
▁preserved	-8904
▁(“	-8905
▁Near	-8906
▁quantities	-8907
▁possibilities	-8908
▁Master	-8909
▁compass	-8910
▁bias	-8911
▁dimin	-8912
▁algorithm	-8913
▁Marine	-8914
izz	-8915
aning	-8916
▁vibr	-8917
▁illnesses	-8918
▁adopt	-8919
▁Rab	-8920
▁ol	-8921
▁oils	-8922
bered	-8923
apped	-8924
▁Mind	-8925
▁restrictions	-8926
rowth	-8927
ker	-8928
▁9,	-8929
▁instances	-8930
▁wing	-8931
▁streams	-8932
▁registered	-8933
▁accomplish	-8934
▁tom	-8935
▁Working	-8936
▁bears	-8937
▁incent	-8938
▁dimensions	-8939
▁embed	-8940
▁minimal	-8941
▁legit	-8942
▁sister	-8943
▁worker	-8944
▁crypt	-8945
▁beneath	-8946
▁hydro	-8947
▁compos	-8948
▁regime	-8949
worth	-8950
▁buying	-8951
▁satisfact	-8952
▁Paper	-8953
flu	-8954
▁puzz	-8955
▁Product	-8956
▁suddenly	-8957
▁caps	-8958
▁rod	-8959
ghan	-8960
▁managers	-8961
isations	-8962
▁Sus	-8963
▁Heritage	-8964
rub	-8965
▁39	-8966
▁surprise	-8967
▁puts	-8968
▁vig	-8969
▁perfectly	-8970
▁livestock	-8971
▁candidate	-8972
▁separation	-8973
▁Tradition	-8974
ocated	-8975
▁Text	-8976
▁Practice	-8977
▁Ancient	-8978
▁Mississipp	-8979
▁120	-8980
▁developmental	-8981
▁Relig	-8982
▁statistical	-8983
▁privacy	-8984
▁Hit	-8985
▁documented	-8986
▁transplant	-8987
▁Typ	-8988
▁borrow	-8989
▁regulate	-8990
▁particle	-8991
▁inch	-8992
▁Uk	-8993
▁reef	-8994
itus	-8995
▁invention	-8996
▁bron	-8997
▁noun	-8998
iler	-8999
▁arthritis	-9000
▁PDF	-9001
")	-9002
mble	-9003
▁kg	-9004
cut	-9005
oca	-9006
power	-9007
▁underground	-9008
▁Action	-9009
ref	-9010
▁cellular	-9011
Our	-9012
ifier	-9013
▁neglect	-9014
▁impair	-9015
▁zones	-9016
▁Clinical	-9017
▁enjoyed	-9018
green	-9019
▁fraction	-9020
▁Others	-9021
▁varying	-9022
▁designated	-9023
▁shr	-9024
▁ft	-9025
mega	-9026
▁channels	-9027
▁inev	-9028
▁chicken	-9029
▁minimize	-9030
Ind	-9031
▁15,	-9032
▁distinguish	-9033
▁Prom	-9034
▁Mediterranean	-9035
▁Neg	-9036
gments	-9037
BM	-9038
▁stere	-9039
▁estate	-9040
inces	-9041
▁payment	-9042
oked	-9043
▁paintings	-9044
▁Fair	-9045
terior	-9046
▁Commons	-9047
abling	-9048
▁Import	-9049
▁phones	-9050
▁nom	-9051
▁susceptible	-9052
▁1.5	-9053
thur	-9054
▁Line	-9055
▁Die	-9056
▁favour	-9057
aneous	-9058
▁manuscript	-9059
▁Philadelphia	-9060
regon	-9061
▁Answ	-9062
▁Son	-9063
▁passes	-9064
uis	-9065
▁Sustain	-9066
▁descend	-9067
▁applies	-9068
▁PL	-9069
▁inhabitants	-9070
▁Think	-9071
▁Wed	-9072
▁partnership	-9073
▁exclud	-9074
▁absolutely	-9075
▁consequence	-9076
▁unem	-9077
dep	-9078
▁eleph	-9079
▁Sud	-9080
▁Log	-9081
▁lakes	-9082
▁herself	-9083
▁subsc	-9084
ospel	-9085
▁fifth	-9086
after	-9087
▁provision	-9088
▁addressing	-9089
▁finish	-9090
85	-9091
▁requiring	-9092
▁NOT	-9093
▁amino	-9094
▁conflicts	-9095
▁rooms	-9096
▁electrons	-9097
▁outdoor	-9098
67	-9099
▁Assessment	-9100
▁dementia	-9101
▁Ariz	-9102
▁calm	-9103
▁contributing	-9104
▁meetings	-9105
▁2015.	-9106
▁volunteers	-9107
▁Nevertheless	-9108
▁NO	-9109
▁Garden	-9110
UL	-9111
▁Egyptian	-9112
erb	-9113
▁restricted	-9114
▁Ult	-9115
▁bought	-9116
▁totally	-9117
▁gest	-9118
▁FDA	-9119
▁Santa	-9120
▁Full	-9121
▁utility	-9122
uled	-9123
▁attributed	-9124
▁disturb	-9125
▁sending	-9126
press	-9127
1:	-9128
▁employee	-9129
▁CDC	-9130
▁neural	-9131
amil	-9132
iblical	-9133
▁dramatically	-9134
▁proposal	-9135
▁acceptable	-9136
reprene	-9137
aved	-9138
▁swelling	-9139
inth	-9140
▁magnitude	-9141
function	-9142
▁Bern	-9143
itic	-9144
ologic	-9145
▁segment	-9146
bow	-9147
▁Contact	-9148
▁flexibility	-9149
▁summar	-9150
▁Brain	-9151
▁ranges	-9152
▁inherent	-9153
▁merch	-9154
orus	-9155
2),	-9156
▁initiatives	-9157
▁transformation	-9158
▁villages	-9159
▁elections	-9160
▁ruled	-9161
▁isolation	-9162
▁doses	-9163
▁CT	-9164
▁module	-9165
▁establishing	-9166
ika	-9167
▁Teachers	-9168
▁sleeping	-9169
▁invasive	-9170
▁invasion	-9171
regular	-9172
isd	-9173
ocial	-9174
▁accounting	-9175
▁Ash	-9176
▁rainfall	-9177
▁diets	-9178
▁distant	-9179
imm	-9180
▁wings	-9181
▁reserved	-9182
▁philosoph	-9183
▁Origin	-9184
▁symptom	-9185
▁rib	-9186
▁Proper	-9187
▁nuts	-9188
▁Walk	-9189
▁cycles	-9190
▁remem	-9191
mal	-9192
▁Fer	-9193
▁corporate	-9194
▁Altern	-9195
ceptions	-9196
▁Ren	-9197
acles	-9198
▁attempted	-9199
▁Alaska	-9200
elly	-9201
▁simultaneously	-9202
▁abandoned	-9203
▁Station	-9204
▁Hem	-9205
orters	-9206
▁Scientific	-9207
ji	-9208
▁978	-9209
▁efficiently	-9210
▁fascinating	-9211
▁Applic	-9212
rose	-9213
▁visits	-9214
western	-9215
▁translated	-9216
▁Mississippi	-9217
▁Williams	-9218
▁teens	-9219
child	-9220
▁encl	-9221
▁alert	-9222
▁Wilson	-9223
▁gate	-9224
Pl	-9225
rin	-9226
quality	-9227
duction	-9228
▁entitled	-9229
▁Essay	-9230
ouri	-9231
▁precisely	-9232
▁worksheets	-9233
▁dish	-9234
▁lingu	-9235
urd	-9236
▁elementary	-9237
▁earthquake	-9238
emies	-9239
▁Individual	-9240
▁tort	-9241
▁Corpor	-9242
▁debris	-9243
▁suggesting	-9244
ador	-9245
cho	-9246
omed	-9247
eh	-9248
▁reproductive	-9249
▁memor	-9250
▁Antar	-9251
▁alumin	-9252
▁diagram	-9253
oler	-9254
▁2010,	-9255
▁Univers	-9256
▁Mrs	-9257
▁encounter	-9258
▁consent	-9259
▁Nic	-9260
▁copies	-9261
▁package	-9262
▁minister	-9263
▁OS	-9264
▁pert	-9265
▁Schools	-9266
▁distinction	-9267
▁2014.	-9268
▁hopes	-9269
iano	-9270
▁systematic	-9271
ethe	-9272
▁cited	-9273
▁wal	-9274
▁bonds	-9275
pdf	-9276
▁lecture	-9277
▁metabolic	-9278
▁classification	-9279
▁hier	-9280
rics	-9281
▁scholar	-9282
▁popularity	-9283
▁perpet	-9284
sk	-9285
▁ow	-9286
urse	-9287
▁honest	-9288
▁deer	-9289
erving	-9290
enda	-9291
▁revenue	-9292
isting	-9293
▁winds	-9294
▁alongside	-9295
▁incorporated	-9296
▁soy	-9297
▁wooden	-9298
▁medieval	-9299
▁Bh	-9300
▁Oregon	-9301
▁scales	-9302
rint	-9303
▁reflection	-9304
▁es	-9305
▁repeat	-9306
▁contamination	-9307
▁prosper	-9308
▁exceed	-9309
▁operated	-9310
efficient	-9311
.),	-9312
▁holy	-9313
▁relate	-9314
▁Berlin	-9315
▁sediment	-9316
quiry	-9317
aine	-9318
▁sensory	-9319
▁0.0	-9320
▁engineer	-9321
▁aside	-9322
▁excav	-9323
eem	-9324
uestions	-9325
▁plates	-9326
▁regulatory	-9327
▁Monday	-9328
ateral	-9329
▁Aud	-9330
olph	-9331
anz	-9332
▁endangered	-9333
▁PhD	-9334
▁glob	-9335
▁burned	-9336
▁ending	-9337
▁250	-9338
▁peers	-9339
▁Encyclopedia	-9340
▁Arizona	-9341
▁Turn	-9342
▁stabil	-9343
69	-9344
▁Jr	-9345
▁hybrid	-9346
▁absorption	-9347
▁spreading	-9348
▁encouraging	-9349
▁partial	-9350
▁resemb	-9351
43	-9352
worm	-9353
▁Unt	-9354
▁surprising	-9355
http	-9356
▁enforcement	-9357
▁elevated	-9358
▁abundance	-9359
enter	-9360
ivation	-9361
▁punishment	-9362
-201	-9363
Figure	-9364
▁citizen	-9365
▁Wales	-9366
▁amongst	-9367
▁Ont	-9368
igned	-9369
42	-9370
▁Sn	-9371
▁knee	-9372
rium	-9373
▁whenever	-9374
▁cyl	-9375
One	-9376
▁sovere	-9377
1),	-9378
▁visiting	-9379
▁tendency	-9380
▁blank	-9381
ictions	-9382
▁strains	-9383
▁Student	-9384
▁broke	-9385
▁neighb	-9386
▁elderly	-9387
▁brains	-9388
▁intr	-9389
▁Apple	-9390
▁Tool	-9391
▁Spe	-9392
▁surrounded	-9393
▁Luc	-9394
▁fluor	-9395
▁confusion	-9396
▁alternatives	-9397
▁deposits	-9398
ideo	-9399
▁Ent	-9400
▁occasionally	-9401
▁morph	-9402
▁robust	-9403
eller	-9404
▁expanding	-9405
▁bull	-9406
▁diagnostic	-9407
▁Turkey	-9408
eras	-9409
economic	-9410
ATION	-9411
▁combine	-9412
▁attractive	-9413
▁Adam	-9414
ighth	-9415
▁3-	-9416
▁achieving	-9417
▁discharge	-9418
▁179	-9419
▁civilization	-9420
▁enhanced	-9421
▁Teaching	-9422
▁installation	-9423
▁Luther	-9424
PR	-9425
▁ancestors	-9426
▁suggestions	-9427
▁complement	-9428
▁Tar	-9429
▁algorithms	-9430
▁Assembly	-9431
zone	-9432
▁disk	-9433
▁surveys	-9434
▁pine	-9435
▁arrival	-9436
▁sectors	-9437
ouses	-9438
▁hol	-9439
▁rays	-9440
▁Need	-9441
▁salmon	-9442
▁dried	-9443
▁subsid	-9444
▁neurolog	-9445
▁predomin	-9446
▁incorporate	-9447
▁folk	-9448
even	-9449
▁survived	-9450
uct	-9451
▁Isa	-9452
▁thirty	-9453
▁shoulder	-9454
▁1000	-9455
▁Turk	-9456
imic	-9457
▁prevents	-9458
▁relating	-9459
▁celeb	-9460
▁prol	-9461
▁collections	-9462
astics	-9463
▁anthrop	-9464
▁Indigenous	-9465
▁disag	-9466
▁continent	-9467
▁cable	-9468
▁describing	-9469
.1	-9470
▁infectious	-9471
▁legend	-9472
▁extraord	-9473
▁LED	-9474
▁4:	-9475
ffe	-9476
▁600	-9477
▁prolong	-9478
page	-9479
▁Map	-9480
▁hurt	-9481
hal	-9482
▁muc	-9483
▁conclusions	-9484
▁enzymes	-9485
▁Ho	-9486
▁canal	-9487
▁divide	-9488
▁collapse	-9489
▁Training	-9490
▁guarantee	-9491
88	-9492
▁cream	-9493
▁factory	-9494
▁contaminated	-9495
etically	-9496
▁faculty	-9497
▁reflects	-9498
Pro	-9499
▁homework	-9500
nia	-9501
DL	-9502
▁pesticides	-9503
best	-9504
▁MP	-9505
itzer	-9506
▁synthetic	-9507
▁certific	-9508
▁ul	-9509
▁abundant	-9510
oline	-9511
▁partly	-9512
▁films	-9513
eling	-9514
profit	-9515
▁dynamics	-9516
▁invented	-9517
At	-9518
▁Fac	-9519
▁("	-9520
All	-9521
▁2012,	-9522
▁camps	-9523
▁Besides	-9524
inery	-9525
▁democratic	-9526
sters	-9527
isition	-9528
▁Mountain	-9529
▁organism	-9530
▁irrigation	-9531
▁healthier	-9532
▁BM	-9533
▁Redu	-9534
atoes	-9535
▁magazine	-9536
▁tumors	-9537
stru	-9538
▁penal	-9539
▁rough	-9540
Ed	-9541
▁Philos	-9542
▁hygiene	-9543
▁chamber	-9544
▁Meanwhile	-9545
arks	-9546
▁1999	-9547
▁semi	-9548
▁Number	-9549
ricks	-9550
▁cuts	-9551
ricane	-9552
▁SC	-9553
▁clouds	-9554
pos	-9555
▁Pope	-9556
▁Bol	-9557
▁repet	-9558
▁assessments	-9559
ugs	-9560
▁register	-9561
▁crack	-9562
▁allergies	-9563
▁candidates	-9564
imensional	-9565
elihood	-9566
▁vom	-9567
▁weaken	-9568
▁producers	-9569
imen	-9570
rible	-9571
di	-9572
▁CR	-9573
mail	-9574
▁throw	-9575
▁schem	-9576
▁erect	-9577
▁thank	-9578
▁injured	-9579
ashed	-9580
expected	-9581
▁pneum	-9582
ivities	-9583
▁Theory	-9584
▁fant	-9585
▁Matthew	-9586
▁Sem	-9587
▁radi	-9588
▁enzyme	-9589
▁Below	-9590
ropol	-9591
Os	-9592
aven	-9593
▁contrad	-9594
▁Angeles	-9595
▁Hig	-9596
▁murder	-9597
▁cigare	-9598
▁tough	-9599
▁shoes	-9600
▁14,	-9601
▁germ	-9602
▁twelve	-9603
▁sequences	-9604
▁liberal	-9605
athan	-9606
▁verte	-9607
unar	-9608
▁attended	-9609
▁equipped	-9610
▁numer	-9611
▁straw	-9612
▁duties	-9613
▁hung	-9614
enti	-9615
▁Write	-9616
▁lob	-9617
illance	-9618
▁doors	-9619
▁Object	-9620
mental	-9621
----	-9622
▁Risk	-9623
▁Culture	-9624
▁fingers	-9625
▁spine	-9626
▁spons	-9627
▁mistakes	-9628
bage	-9629
▁trading	-9630
▁binding	-9631
▁velocity	-9632
▁bottle	-9633
▁mutations	-9634
reshold	-9635
▁width	-9636
▁empire	-9637
▁consisting	-9638
▁pipe	-9639
▁dentist	-9640
osaur	-9641
▁Peace	-9642
ependence	-9643
▁Poland	-9644
▁42	-9645
▁rent	-9646
▁intra	-9647
rimin	-9648
▁kitchen	-9649
▁Future	-9650
▁improves	-9651
▁(6	-9652
▁dying	-9653
▁Making	-9654
▁shares	-9655
▁consistently	-9656
▁Story	-9657
▁Event	-9658
obic	-9659
▁platforms	-9660
▁pale	-9661
▁Doc	-9662
▁selling	-9663
▁containers	-9664
▁broader	-9665
▁horizontal	-9666
▁bub	-9667
▁Exerc	-9668
▁chocolate	-9669
▁nursing	-9670
▁approval	-9671
▁atmospheric	-9672
▁Iron	-9673
▁Real	-9674
▁grad	-9675
nesota	-9676
▁adoption	-9677
pre	-9678
wa	-9679
engers	-9680
jud	-9681
▁oceans	-9682
▁eaten	-9683
▁landing	-9684
▁socio	-9685
▁Name	-9686
BI	-9687
▁confident	-9688
▁mile	-9689
▁surviv	-9690
▁reh	-9691
▁imagination	-9692
▁GM	-9693
▁erosion	-9694
▁reasoning	-9695
▁Unit	-9696
▁Allah	-9697
▁phenomena	-9698
▁Order	-9699
▁adolescents	-9700
▁Jack	-9701
▁Stephen	-9702
▁85	-9703
▁accidents	-9704
▁painted	-9705
▁consuming	-9706
▁affairs	-9707
▁seiz	-9708
▁valley	-9709
oving	-9710
▁inflation	-9711
also	-9712
▁rom	-9713
▁Mother	-9714
▁codes	-9715
GE	-9716
▁Darwin	-9717
▁Standards	-9718
▁economics	-9719
▁onset	-9720
▁ninet	-9721
▁Available	-9722
▁beach	-9723
arten	-9724
▁striking	-9725
▁Tay	-9726
redit	-9727
▁Script	-9728
▁Integ	-9729
▁evaluated	-9730
86	-9731
▁pond	-9732
▁Marc	-9733
▁sheets	-9734
isticated	-9735
▁GDP	-9736
▁finance	-9737
▁speaker	-9738
ayer	-9739
▁Sav	-9740
▁fitness	-9741
▁20,	-9742
▁bags	-9743
▁reputation	-9744
▁bee	-9745
▁fiction	-9746
.:	-9747
▁2011,	-9748
▁molecule	-9749
▁officially	-9750
-15	-9751
▁utilized	-9752
▁swimming	-9753
▁Cook	-9754
owered	-9755
▁attacked	-9756
thodox	-9757
▁definitions	-9758
▁Jones	-9759
▁panc	-9760
▁memories	-9761
author	-9762
▁athletes	-9763
▁influenza	-9764
▁Talk	-9765
▁seal	-9766
▁struck	-9767
▁grammar	-9768
▁reviewed	-9769
▁incom	-9770
▁Bell	-9771
▁valve	-9772
▁Lewis	-9773
▁physicians	-9774
▁retain	-9775
ori	-9776
▁pleasure	-9777
stic	-9778
▁Java	-9779
▁crimes	-9780
▁bite	-9781
▁Charl	-9782
▁Parents	-9783
▁developers	-9784
dess	-9785
▁refugees	-9786
▁loud	-9787
▁residential	-9788
▁Nether	-9789
arios	-9790
▁allergic	-9791
▁Death	-9792
▁integrity	-9793
▁potassium	-9794
pert	-9795
acle	-9796
velength	-9797
▁wake	-9798
▁apps	-9799
ctors	-9800
▁Jon	-9801
▁Buddh	-9802
,’	-9803
ications	-9804
▁likelihood	-9805
▁partially	-9806
▁recall	-9807
▁implementing	-9808
▁Create	-9809
da	-9810
▁displays	-9811
▁offices	-9812
”)	-9813
▁exhibition	-9814
▁Photo	-9815
esthetic	-9816
▁pose	-9817
▁Missouri	-9818
▁ON	-9819
▁Hu	-9820
▁bell	-9821
inch	-9822
aping	-9823
▁Dyn	-9824
▁receives	-9825
isons	-9826
rons	-9827
AF	-9828
utical	-9829
▁collecting	-9830
▁loop	-9831
▁tracking	-9832
▁subsequently	-9833
▁absorbed	-9834
▁sew	-9835
▁welcome	-9836
▁stretch	-9837
▁Minnesota	-9838
grade	-9839
▁Cond	-9840
See	-9841
▁2016.	-9842
▁Jersey	-9843
oting	-9844
▁Twitter	-9845
otion	-9846
▁therapeutic	-9847
▁gray	-9848
▁Guard	-9849
▁edges	-9850
▁busy	-9851
fly	-9852
▁Bio	-9853
trans	-9854
chnology	-9855
▁gentle	-9856
▁appointment	-9857
▁independently	-9858
▁shelter	-9859
▁attributes	-9860
ushing	-9861
▁anat	-9862
▁aggreg	-9863
▁nic	-9864
▁Jim	-9865
▁myster	-9866
▁femin	-9867
list	-9868
▁Tenn	-9869
CL	-9870
▁Enter	-9871
▁avoiding	-9872
▁adjacent	-9873
▁vaccination	-9874
▁10,000	-9875
▁Na	-9876
▁orientation	-9877
duate	-9878
▁Hitler	-9879
olds	-9880
▁vice	-9881
▁Prince	-9882
▁outline	-9883
▁proud	-9884
▁somewhere	-9885
▁predators	-9886
▁investments	-9887
ela	-9888
ctu	-9889
▁bullying	-9890
ivate	-9891
nowledge	-9892
▁Bush	-9893
istically	-9894
▁returning	-9895
▁grams	-9896
aze	-9897
▁adaptation	-9898
▁Dun	-9899
▁Trade	-9900
▁Ah	-9901
▁Cit	-9902
▁boundary	-9903
▁beet	-9904
rust	-9905
▁Shakespeare	-9906
▁mi	-9907
▁assessed	-9908
reens	-9909
▁NE	-9910
▁Davis	-9911
▁tolerance	-9912
▁fatal	-9913
▁representatives	-9914
▁indicating	-9915
▁axis	-9916
41	-9917
fire	-9918
▁abol	-9919
▁wage	-9920
▁brothers	-9921
▁weekly	-9922
▁export	-9923
▁circular	-9924
ceeding	-9925
oning	-9926
▁cosm	-9927
▁Ele	-9928
▁Carib	-9929
▁loan	-9930
▁charges	-9931
itate	-9932
▁Arm	-9933
▁CS	-9934
▁tag	-9935
orious	-9936
▁acquire	-9937
▁antibodies	-9938
▁Maryland	-9939
▁termin	-9940
▁freely	-9941
▁operational	-9942
▁appreciate	-9943
date	-9944
▁fan	-9945
compass	-9946
▁entrance	-9947
▁depr	-9948
▁thoroughly	-9949
enh	-9950
▁administrative	-9951
omal	-9952
friendly	-9953
▁Grade	-9954
▁Daily	-9955
otten	-9956
found	-9957
▁reviews	-9958
estone	-9959
▁Nep	-9960
step	-9961
▁Jun	-9962
iph	-9963
▁Flow	-9964
▁Clean	-9965
▁tower	-9966
healthy	-9967
▁Governor	-9968
berries	-9969
▁intermedi	-9970
▁milit	-9971
Fig	-9972
adequ	-9973
▁emit	-9974
My	-9975
▁16,	-9976
▁183	-9977
▁arc	-9978
achel	-9979
▁Sleep	-9980
▁assistant	-9981
▁Corps	-9982
ermat	-9983
▁plasma	-9984
▁license	-9985
▁malaria	-9986
▁Hot	-9987
▁Carl	-9988
ques	-9989
Bl	-9990
73	-9991
nings	-9992
▁1900	-9993
atin	-9994
▁campus	-9995
▁prisoners	-9996
▁sampling	-9997
▁jurisd	-9998
▁bark	-9999
▁calendar	-10000
▁kilometers	-10001
▁Case	-10002
▁beam	-10003
▁1998	-10004
raid	-10005
▁posted	-10006
▁stems	-10007
▁shade	-10008
▁awarded	-10009
▁drops	-10010
forced	-10011
▁ber	-10012
▁meditation	-10013
▁Large	-10014
▁council	-10015
iy	-10016
▁submit	-10017
▁hazards	-10018
orer	-10019
▁pock	-10020
▁protest	-10021
▁cave	-10022
iac	-10023
burn	-10024
▁Econom	-10025
▁Animal	-10026
▁historians	-10027
▁13,	-10028
▁convenient	-10029
▁elabor	-10030
▁Samuel	-10031
▁Afghan	-10032
▁prescription	-10033
▁drives	-10034
▁Living	-10035
▁”	-10036
▁Six	-10037
▁Club	-10038
▁intensive	-10039
▁Han	-10040
▁fibers	-10041
▁desk	-10042
▁cloth	-10043
▁retail	-10044
ulates	-10045
▁2009,	-10046
action	-10047
▁blo	-10048
uro	-10049
thal	-10050
▁missions	-10051
▁Patients	-10052
▁progressive	-10053
▁borders	-10054
▁prevented	-10055
▁grace	-10056
nea	-10057
▁18,	-10058
▁Tit	-10059
▁2009.	-10060
▁reservoir	-10061
▁commod	-10062
▁deliber	-10063
:00	-10064
▁Sab	-10065
▁argues	-10066
ipation	-10067
▁promising	-10068
▁assault	-10069
▁speakers	-10070
cled	-10071
▁altered	-10072
▁broadcast	-10073
▁password	-10074
▁spark	-10075
▁Benef	-10076
▁wireless	-10077
▁nodes	-10078
▁parks	-10079
▁tanks	-10080
▁occupation	-10081
commun	-10082
▁treaty	-10083
akh	-10084
▁placing	-10085
▁highlights	-10086
▁Chall	-10087
▁Francis	-10088
▁perf	-10089
original	-10090
▁gran	-10091
▁arrive	-10092
▁workshop	-10093
▁sophisticated	-10094
bul	-10095
ylon	-10096
▁13.	-10097
▁cluster	-10098
▁fles	-10099
▁contrary	-10100
▁toxins	-10101
▁Statistics	-10102
▁Hur	-10103
▁intelligent	-10104
▁struggling	-10105
▁WHO	-10106
umns	-10107
PD	-10108
▁diarrhea	-10109
▁robots	-10110
▁humidity	-10111
▁worn	-10112
uv	-10113
▁accomplished	-10114
anol	-10115
conn	-10116
▁lasting	-10117
formed	-10118
▁prone	-10119
▁cheese	-10120
▁teaches	-10121
▁trail	-10122
TA	-10123
▁forever	-10124
angel	-10125
▁Jefferson	-10126
about	-10127
▁Ontario	-10128
gregation	-10129
dd	-10130
▁Cut	-10131
▁Core	-10132
▁vag	-10133
TER	-10134
dominal	-10135
▁Marx	-10136
▁diver	-10137
▁concentrated	-10138
▁sacrifice	-10139
BD	-10140
▁arranged	-10141
▁decreases	-10142
300	-10143
aceutical	-10144
▁Enc	-10145
▁monthly	-10146
▁vine	-10147
▁pink	-10148
plex	-10149
▁traveling	-10150
aver	-10151
ttes	-10152
▁browser	-10153
▁3)	-10154
▁Path	-10155
▁cycl	-10156
▁participating	-10157
▁toile	-10158
uestion	-10159
▁speeds	-10160
▁unexpected	-10161
arians	-10162
▁bind	-10163
▁update	-10164
▁pursue	-10165
▁fault	-10166
▁threshold	-10167
▁shallow	-10168
▁portray	-10169
uine	-10170
▁flavor	-10171
▁impressive	-10172
▁synthesis	-10173
▁seasonal	-10174
▁carries	-10175
▁fallen	-10176
▁Sweden	-10177
▁dispers	-10178
▁render	-10179
▁fertilizer	-10180
▁Cold	-10181
▁reson	-10182
▁avoided	-10183
▁mirror	-10184
onin	-10185
▁Bit	-10186
▁Num	-10187
▁ES	-10188
▁Hop	-10189
▁submitted	-10190
▁prospect	-10191
▁resolve	-10192
▁pod	-10193
▁Netherlands	-10194
vy	-10195
pany	-10196
▁doctrine	-10197
▁17,	-10198
PDF	-10199
▁settlers	-10200
▁Mental	-10201
▁colored	-10202
▁gaps	-10203
▁mini	-10204
▁importantly	-10205
▁qualified	-10206
▁boxes	-10207
yes	-10208
▁imperial	-10209
ez	-10210
▁Germans	-10211
▁constitutional	-10212
▁Five	-10213
▁Certain	-10214
▁2008.	-10215
▁Hon	-10216
▁publ	-10217
▁Democratic	-10218
▁misc	-10219
▁Mes	-10220
▁artistic	-10221
uclear	-10222
emor	-10223
▁discom	-10224
▁Ak	-10225
▁Sep	-10226
▁refrig	-10227
▁Nation	-10228
antine	-10229
▁hide	-10230
▁affordable	-10231
▁connecting	-10232
▁heal	-10233
III	-10234
ogram	-10235
▁aster	-10236
▁guns	-10237
effective	-10238
▁comparing	-10239
Pub	-10240
▁ADHD	-10241
▁irregular	-10242
▁Nazi	-10243
▁educated	-10244
▁bearing	-10245
▁Has	-10246
▁organisation	-10247
▁discl	-10248
▁pest	-10249
▁perspectives	-10250
▁Chemical	-10251
▁tourism	-10252
▁(10	-10253
▁defects	-10254
▁extinction	-10255
burgh	-10256
▁modeling	-10257
▁capability	-10258
▁distances	-10259
▁symb	-10260
▁excited	-10261
▁proport	-10262
income	-10263
▁confused	-10264
arious	-10265
▁pediatric	-10266
coin	-10267
▁2008,	-10268
ecessary	-10269
▁legacy	-10270
▁sail	-10271
▁hardly	-10272
▁Behavior	-10273
▁Romans	-10274
case	-10275
▁mart	-10276
▁expressions	-10277
▁configuration	-10278
▁correlation	-10279
thood	-10280
▁neuro	-10281
▁destination	-10282
▁defines	-10283
▁courage	-10284
▁libraries	-10285
2-	-10286
▁entreprene	-10287
▁Centers	-10288
▁immunity	-10289
DR	-10290
oa	-10291
▁sel	-10292
sequently	-10293
▁notable	-10294
▁mobility	-10295
▁tremend	-10296
▁exch	-10297
▁Tro	-10298
▁Satur	-10299
▁verse	-10300
▁routes	-10301
▁Psychology	-10302
▁devoted	-10303
▁designing	-10304
▁mira	-10305
▁bin	-10306
▁rats	-10307
▁flooding	-10308
emet	-10309
BA	-10310
▁founder	-10311
▁washing	-10312
▁therapies	-10313
▁manufacturer	-10314
▁Electric	-10315
▁illustrated	-10316
iances	-10317
▁Oil	-10318
▁appet	-10319
arded	-10320
▁patent	-10321
▁gear	-10322
▁44	-10323
▁tribe	-10324
▁Anne	-10325
uar	-10326
LS	-10327
idae	-10328
▁rend	-10329
▁Currently	-10330
▁meter	-10331
generation	-10332
quarters	-10333
▁wavelength	-10334
chron	-10335
▁earned	-10336
▁ought	-10337
▁heter	-10338
▁Balt	-10339
vae	-10340
▁Scottish	-10341
▁Hom	-10342
▁administered	-10343
▁hill	-10344
▁yes	-10345
71	-10346
ictoria	-10347
FC	-10348
▁Generally	-10349
azz	-10350
▁indoor	-10351
▁rejected	-10352
iscons	-10353
▁infin	-10354
spring	-10355
gged	-10356
▁criticism	-10357
▁PR	-10358
uesday	-10359
inition	-10360
▁STEM	-10361
▁elig	-10362
▁Diabetes	-10363
▁enabled	-10364
▁rubber	-10365
arer	-10366
▁nerves	-10367
▁controversial	-10368
inian	-10369
lings	-10370
▁Rose	-10371
2:	-10372
▁distract	-10373
▁epidemic	-10374
aft	-10375
anium	-10376
▁fluids	-10377
anas	-10378
▁WW	-10379
▁coral	-10380
▁Mand	-10381
Se	-10382
ontin	-10383
isconsin	-10384
▁scenarios	-10385
000.	-10386
▁provisions	-10387
▁carbohydrates	-10388
▁enlar	-10389
cal	-10390
▁loyal	-10391
▁pushed	-10392
iotic	-10393
▁undergo	-10394
ynt	-10395
law	-10396
▁wed	-10397
▁injection	-10398
insula	-10399
▁transformed	-10400
▁Discuss	-10401
▁demonstrates	-10402
atories	-10403
inflamm	-10404
▁inequality	-10405
▁distinguished	-10406
teenth	-10407
igm	-10408
▁Example	-10409
▁Ten	-10410
▁namely	-10411
▁completion	-10412
▁monument	-10413
▁regen	-10414
▁dow	-10415
▁Os	-10416
▁Index	-10417
doi	-10418
iatric	-10419
Do	-10420
▁bills	-10421
▁Fa	-10422
abilitation	-10423
isual	-10424
ooked	-10425
▁jew	-10426
▁mapping	-10427
▁hypert	-10428
▁celebration	-10429
▁inspiration	-10430
▁Cape	-10431
▁Opt	-10432
psy	-10433
▁800	-10434
swered	-10435
Le	-10436
▁Cra	-10437
▁thickness	-10438
▁Along	-10439
▁dialogue	-10440
▁genus	-10441
▁harsh	-10442
ursday	-10443
atile	-10444
▁drainage	-10445
▁vacuum	-10446
ja	-10447
▁fate	-10448
▁embedded	-10449
▁Additional	-10450
▁Hung	-10451
▁League	-10452
ulsion	-10453
▁deadly	-10454
iative	-10455
ammad	-10456
▁utilize	-10457
That	-10458
▁organisations	-10459
▁encourages	-10460
omon	-10461
type	-10462
▁Protest	-10463
▁multip	-10464
De	-10465
phones	-10466
▁Caribbean	-10467
▁ethics	-10468
▁Sher	-10469
▁reproduction	-10470
▁nort	-10471
▁Species	-10472
▁gains	-10473
▁pests	-10474
▁traditionally	-10475
ressing	-10476
▁Tib	-10477
▁Pap	-10478
▁Grant	-10479
▁asks	-10480
▁por	-10481
▁solely	-10482
▁Depending	-10483
nesday	-10484
▁pou	-10485
▁matrix	-10486
▁succeeded	-10487
▁progression	-10488
▁obviously	-10489
sized	-10490
onics	-10491
Co	-10492
▁CN	-10493
▁defeat	-10494
▁parliament	-10495
▁inflammatory	-10496
▁AT	-10497
▁immigration	-10498
▁Mathemat	-10499
▁historian	-10500
▁gathering	-10501
▁promotes	-10502
▁NG	-10503
▁explored	-10504
yan	-10505
▁Soft	-10506
▁indicators	-10507
▁spir	-10508
▁implies	-10509
▁Search	-10510
▁Du	-10511
▁continuously	-10512
iversary	-10513
▁distinctive	-10514
▁Rub	-10515
▁contributes	-10516
▁afraid	-10517
▁meteor	-10518
agger	-10519
▁algae	-10520
▁Until	-10521
▁confront	-10522
enned	-10523
▁execution	-10524
istent	-10525
▁Indonesia	-10526
▁cameras	-10527
▁obser	-10528
▁alike	-10529
▁overwhelming	-10530
fare	-10531
iosity	-10532
▁thrive	-10533
▁wages	-10534
▁occurrence	-10535
▁Present	-10536
▁mercury	-10537
▁Intellig	-10538
▁Exec	-10539
▁preservation	-10540
▁artif	-10541
▁tied	-10542
▁Poll	-10543
▁generating	-10544
▁spelling	-10545
▁alk	-10546
▁pathways	-10547
74	-10548
▁cerv	-10549
▁discomfort	-10550
entieth	-10551
▁equations	-10552
▁sustained	-10553
▁attain	-10554
▁extrem	-10555
atre	-10556
▁surprised	-10557
▁leak	-10558
rat	-10559
▁revolutionary	-10560
▁rebu	-10561
ronaut	-10562
verages	-10563
▁Front	-10564
▁weapon	-10565
▁uncertainty	-10566
fold	-10567
▁essence	-10568
▁racism	-10569
▁Emperor	-10570
▁safer	-10571
▁distribut	-10572
▁persistent	-10573
▁relatives	-10574
▁30,	-10575
urated	-10576
▁Sens	-10577
▁priest	-10578
▁bits	-10579
▁talks	-10580
▁enabling	-10581
▁acceptance	-10582
▁Wisconsin	-10583
▁brid	-10584
▁mistake	-10585
▁hip	-10586
▁recommends	-10587
emetery	-10588
▁instant	-10589
▁keys	-10590
▁von	-10591
▁ride	-10592
▁Lower	-10593
▁suspect	-10594
▁investigated	-10595
seud	-10596
ergarten	-10597
▁Ford	-10598
▁cope	-10599
▁Usually	-10600
▁Transport	-10601
▁golden	-10602
▁conducting	-10603
▁AIDS	-10604
▁Physics	-10605
▁vector	-10606
3),	-10607
uns	-10608
▁writings	-10609
▁Wars	-10610
▁liberty	-10611
▁magnesium	-10612
▁associations	-10613
▁atomic	-10614
alog	-10615
▁Guid	-10616
▁Begin	-10617
Ref	-10618
▁Earl	-10619
▁(8	-10620
▁Month	-10621
▁Bor	-10622
▁opens	-10623
▁extraordinary	-10624
▁emission	-10625
▁Python	-10626
▁Hay	-10627
▁steady	-10628
▁21,	-10629
ennedy	-10630
isit	-10631
▁Trump	-10632
afe	-10633
isible	-10634
▁searching	-10635
▁Pay	-10636
orks	-10637
▁sle	-10638
▁2007,	-10639
ECT	-10640
▁rhythm	-10641
gebra	-10642
▁deleg	-10643
▁featured	-10644
▁jaw	-10645
▁rear	-10646
dimensional	-10647
▁lift	-10648
▁(3)	-10649
rophic	-10650
▁Dougl	-10651
ceeds	-10652
▁antibiotic	-10653
▁Basic	-10654
▁buck	-10655
▁fertility	-10656
▁methane	-10657
▁Things	-10658
▁accompany	-10659
▁poorly	-10660
▁Depression	-10661
▁Greg	-10662
▁publications	-10663
asses	-10664
▁allergy	-10665
▁PA	-10666
arium	-10667
▁employers	-10668
iking	-10669
▁integral	-10670
onomous	-10671
▁tape	-10672
▁torn	-10673
RS	-10674
UC	-10675
▁19,	-10676
leton	-10677
reement	-10678
▁Date	-10679
▁answered	-10680
▁GP	-10681
nals	-10682
▁masses	-10683
▁rocket	-10684
upp	-10685
▁Tree	-10686
▁classrooms	-10687
▁substr	-10688
ropriate	-10689
▁compliance	-10690
▁toys	-10691
▁precision	-10692
▁1997	-10693
RL	-10694
ysical	-10695
▁Jane	-10696
hard	-10697
uble	-10698
ulture	-10699
osity	-10700
▁horn	-10701
▁accordance	-10702
▁permitted	-10703
▁Linux	-10704
▁Tax	-10705
▁stakeholders	-10706
▁chron	-10707
▁advertising	-10708
this	-10709
yard	-10710
▁Prime	-10711
▁influential	-10712
▁authentic	-10713
▁tubes	-10714
▁Ty	-10715
▁multipl	-10716
59	-10717
▁49	-10718
rared	-10719
▁filters	-10720
▁2013,	-10721
owa	-10722
▁Duke	-10723
▁dangers	-10724
▁volumes	-10725
▁mystery	-10726
▁acknowledge	-10727
▁Comb	-10728
▁expend	-10729
▁sperm	-10730
▁Lind	-10731
acon	-10732
▁shouldn	-10733
Con	-10734
▁timing	-10735
lam	-10736
actic	-10737
▁reserves	-10738
▁Opp	-10739
▁categor	-10740
▁Period	-10741
These	-10742
IST	-10743
▁firms	-10744
▁Particip	-10745
▁columns	-10746
▁Carbon	-10747
▁specimens	-10748
▁zinc	-10749
▁yields	-10750
▁facial	-10751
▁hazardous	-10752
▁Taylor	-10753
Re	-10754
▁storms	-10755
▁empower	-10756
▁labels	-10757
▁locally	-10758
▁anten	-10759
▁scal	-10760
velt	-10761
▁Results	-10762
▁vomiting	-10763
▁arrangement	-10764
▁Sac	-10765
.2	-10766
▁hunger	-10767
▁suspected	-10768
▁emerge	-10769
agle	-10770
▁inclusion	-10771
stration	-10772
doors	-10773
▁thorough	-10774
▁14.	-10775
▁economies	-10776
▁nas	-10777
▁46	-10778
▁2017.	-10779
ognition	-10780
▁calculations	-10781
phal	-10782
mn	-10783
▁Jean	-10784
▁Rog	-10785
▁governor	-10786
▁dollar	-10787
▁1940	-10788
▁Rand	-10789
▁Types	-10790
▁Mos	-10791
▁patri	-10792
▁2015,	-10793
▁mes	-10794
▁Marg	-10795
hester	-10796
▁NS	-10797
icting	-10798
▁inadequ	-10799
▁feather	-10800
▁Leon	-10801
auc	-10802
▁Franklin	-10803
▁enemies	-10804
▁dominated	-10805
storm	-10806
▁electronics	-10807
▁Give	-10808
▁counterpart	-10809
▁Lt	-10810
rels	-10811
▁Download	-10812
▁hang	-10813
▁Recent	-10814
▁160	-10815
▁Industrial	-10816
▁declined	-10817
▁Magn	-10818
you	-10819
▁Ni	-10820
▁gau	-10821
gered	-10822
▁irre	-10823
▁supplied	-10824
▁Az	-10825
rell	-10826
▁Marsh	-10827
▁Dom	-10828
▁Job	-10829
arth	-10830
▁executed	-10831
owners	-10832
▁necessity	-10833
▁gland	-10834
▁ruling	-10835
omatic	-10836
▁HP	-10837
▁43	-10838
▁transactions	-10839
oil	-10840
▁cataly	-10841
▁voting	-10842
flies	-10843
▁originated	-10844
orney	-10845
ivals	-10846
▁circles	-10847
▁nick	-10848
▁Ib	-10849
▁counties	-10850
pson	-10851
oved	-10852
develop	-10853
heastern	-10854
▁22,	-10855
▁Body	-10856
▁seasons	-10857
▁investors	-10858
▁politicians	-10859
uting	-10860
▁severely	-10861
sub	-10862
anth	-10863
▁frozen	-10864
eav	-10865
▁rotation	-10866
▁pries	-10867
▁pap	-10868
dated	-10869
▁2007.	-10870
▁replic	-10871
▁explaining	-10872
yt	-10873
▁packaging	-10874
▁territories	-10875
▁Deep	-10876
▁Throughout	-10877
▁Republican	-10878
▁mail	-10879
▁nurse	-10880
icides	-10881
front	-10882
▁overweight	-10883
▁thinks	-10884
▁insu	-10885
▁encompass	-10886
56	-10887
rise	-10888
▁Mit	-10889
vals	-10890
▁crust	-10891
▁Sa	-10892
▁25,	-10893
ocent	-10894
▁expenses	-10895
▁disappear	-10896
▁markers	-10897
osevelt	-10898
arts	-10899
▁combust	-10900
othy	-10901
▁ensures	-10902
neg	-10903
▁Buddha	-10904
▁frog	-10905
asures	-10906
▁lunch	-10907
▁considerably	-10908
▁1800	-10909
▁restored	-10910
▁coins	-10911
▁magnet	-10912
▁inspect	-10913
▁situated	-10914
high	-10915
400	-10916
cor	-10917
▁payments	-10918
ochond	-10919
orient	-10920
▁Syria	-10921
bro	-10922
▁Tuesday	-10923
▁Evolution	-10924
UM	-10925
▁dehyd	-10926
▁Belg	-10927
▁swallow	-10928
58	-10929
▁Primary	-10930
▁invited	-10931
PP	-10932
▁Bad	-10933
Us	-10934
ternoon	-10935
▁filling	-10936
▁subtle	-10937
▁bladder	-10938
▁5:	-10939
▁tired	-10940
▁Win	-10941
▁Sex	-10942
▁determination	-10943
▁Cro	-10944
▁coinc	-10945
▁genuine	-10946
emed	-10947
▁Healthy	-10948
▁chapters	-10949
▁Fem	-10950
▁census	-10951
▁poems	-10952
▁Urban	-10953
ko	-10954
▁Prior	-10955
▁Ray	-10956
▁stops	-10957
riction	-10958
▁whilst	-10959
▁Show	-10960
▁Represent	-10961
▁institutional	-10962
▁phrases	-10963
▁EM	-10964
▁bulk	-10965
▁skull	-10966
▁pride	-10967
enders	-10968
▁yard	-10969
▁arbit	-10970
hedral	-10971
▁deterior	-10972
▁stiff	-10973
▁Anim	-10974
▁Materials	-10975
▁protects	-10976
▁Thursday	-10977
▁senses	-10978
▁illustrate	-10979
▁dece	-10980
▁assumptions	-10981
uster	-10982
iors	-10983
lear	-10984
▁receptors	-10985
▁stimulate	-10986
▁abroad	-10987
▁potatoes	-10988
▁genetics	-10989
▁disposal	-10990
icked	-10991
▁peripher	-10992
▁discoveries	-10993
▁Pear	-10994
iki	-10995
▁Bridge	-10996
▁RE	-10997
▁Buddhist	-10998
▁impression	-10999
TC	-11000
onent	-11001
acher	-11002
▁palm	-11003
▁commands	-11004
▁unity	-11005
▁consensus	-11006
GS	-11007
▁ignore	-11008
▁Bow	-11009
▁belonging	-11010
eous	-11011
▁enact	-11012
▁marginal	-11013
uty	-11014
cts	-11015
▁Fall	-11016
▁brill	-11017
school	-11018
▁simulation	-11019
ancial	-11020
▁Es	-11021
▁tracks	-11022
▁Lu	-11023
ountered	-11024
▁Perform	-11025
▁kings	-11026
▁stressed	-11027
▁diagnose	-11028
onymous	-11029
▁exclusively	-11030
▁compat	-11031
▁FOR	-11032
essional	-11033
▁Eval	-11034
▁1995	-11035
▁expense	-11036
▁presum	-11037
▁Plants	-11038
▁condem	-11039
▁foster	-11040
▁Wednesday	-11041
▁IC	-11042
ele	-11043
▁Inv	-11044
▁lying	-11045
▁timber	-11046
▁satellites	-11047
▁metap	-11048
▁Always	-11049
▁unemployment	-11050
▁prevalent	-11051
▁Conc	-11052
▁analog	-11053
▁24,	-11054
▁incredible	-11055
▁sket	-11056
▁Educational	-11057
▁expedition	-11058
▁boards	-11059
▁Cham	-11060
▁hills	-11061
▁apple	-11062
▁attracted	-11063
▁assumption	-11064
▁Arthur	-11065
▁referring	-11066
▁crash	-11067
▁pathogens	-11068
osphere	-11069
grad	-11070
▁newspapers	-11071
▁Monitor	-11072
▁chip	-11073
▁caffe	-11074
▁discussing	-11075
▁Reserve	-11076
▁casual	-11077
▁Fram	-11078
yo	-11079
▁phases	-11080
▁coordination	-11081
feeding	-11082
▁metres	-11083
empl	-11084
▁encountered	-11085
▁Roosevelt	-11086
▁moments	-11087
▁dispar	-11088
▁Movement	-11089
▁genetically	-11090
security	-11091
▁cha	-11092
igration	-11093
eared	-11094
▁loans	-11095
inea	-11096
▁hepat	-11097
▁explos	-11098
▁SM	-11099
▁cardiac	-11100
▁admitted	-11101
▁orn	-11102
▁Imag	-11103
▁1996	-11104
▁bugs	-11105
▁Polish	-11106
▁incredibly	-11107
▁Gir	-11108
▁shield	-11109
role	-11110
▁ma	-11111
▁tang	-11112
▁Taking	-11113
▁Tri	-11114
hops	-11115
▁fifty	-11116
▁applicable	-11117
▁PH	-11118
▁Requ	-11119
1-	-11120
▁programmes	-11121
run	-11122
▁picked	-11123
▁nineteenth	-11124
arl	-11125
▁Mu	-11126
▁aluminum	-11127
▁bands	-11128
▁strand	-11129
who	-11130
▁Ban	-11131
▁conversations	-11132
▁Muh	-11133
tte	-11134
▁hack	-11135
alo	-11136
▁anch	-11137
▁disput	-11138
▁limiting	-11139
▁digit	-11140
pm	-11141
▁damaging	-11142
arest	-11143
Res	-11144
▁reserve	-11145
▁determines	-11146
▁Miller	-11147
▁2014,	-11148
▁64	-11149
▁Collect	-11150
ERS	-11151
With	-11152
▁galaxy	-11153
▁epidem	-11154
▁mounted	-11155
▁larvae	-11156
iating	-11157
▁herbs	-11158
▁incorrect	-11159
▁Stone	-11160
▁Census	-11161
▁Choose	-11162
▁Flu	-11163
igma	-11164
▁Rout	-11165
▁frequencies	-11166
▁chains	-11167
▁ric	-11168
olly	-11169
▁repeatedly	-11170
Hz	-11171
▁shopping	-11172
▁surre	-11173
hu	-11174
FS	-11175
rac	-11176
▁Thank	-11177
▁realistic	-11178
▁telephone	-11179
▁Political	-11180
▁sorts	-11181
-200	-11182
▁Ra	-11183
▁Mountains	-11184
▁preschool	-11185
▁Arist	-11186
▁Teacher	-11187
▁departments	-11188
▁menu	-11189
▁OR	-11190
thening	-11191
▁conservative	-11192
▁Ethiop	-11193
▁Archae	-11194
▁prolonged	-11195
hr	-11196
▁Imm	-11197
there	-11198
▁viable	-11199
ordan	-11200
restrial	-11201
▁deals	-11202
▁recovered	-11203
▁respective	-11204
otyp	-11205
3:	-11206
range	-11207
▁catast	-11208
TML	-11209
▁2.5	-11210
▁Arabic	-11211
▁recycled	-11212
▁Love	-11213
▁relieve	-11214
rup	-11215
▁extraction	-11216
▁pathway	-11217
▁2021	-11218
▁Account	-11219
▁organize	-11220
hour	-11221
▁seeks	-11222
▁Overall	-11223
▁Rod	-11224
▁Ger	-11225
▁bowel	-11226
ikes	-11227
▁precious	-11228
▁decomp	-11229
▁ignored	-11230
▁behalf	-11231
ishers	-11232
▁transf	-11233
▁surveillance	-11234
▁Was	-11235
▁feas	-11236
▁soap	-11237
▁100,000	-11238
▁festival	-11239
▁EN	-11240
▁physiological	-11241
ausea	-11242
▁unto	-11243
host	-11244
▁gastro	-11245
▁Published	-11246
iolet	-11247
▁Barb	-11248
▁texture	-11249
ocaust	-11250
▁blacks	-11251
▁wra	-11252
▁accessed	-11253
▁Freder	-11254
▁quote	-11255
▁Imper	-11256
▁geographic	-11257
▁portions	-11258
▁manufactured	-11259
▁dismiss	-11260
▁ic	-11261
▁Architect	-11262
ibration	-11263
erness	-11264
▁Captain	-11265
▁dinner	-11266
▁philosophical	-11267
atching	-11268
▁fears	-11269
makers	-11270
▁Albert	-11271
▁Nap	-11272
onald	-11273
▁aids	-11274
▁FA	-11275
▁Amendment	-11276
▁gums	-11277
▁educate	-11278
▁beer	-11279
▁2006,	-11280
▁Edition	-11281
▁Draw	-11282
▁Communication	-11283
▁conclude	-11284
iro	-11285
▁alien	-11286
Ab	-11287
▁Tibet	-11288
▁quad	-11289
▁stuck	-11290
▁Compar	-11291
irs	-11292
▁Series	-11293
▁scenes	-11294
▁makers	-11295
▁disasters	-11296
▁whales	-11297
▁bom	-11298
89	-11299
▁flesh	-11300
ogene	-11301
▁Pit	-11302
En	-11303
▁compact	-11304
▁battles	-11305
▁Moh	-11306
▁tunnel	-11307
human	-11308
arding	-11309
asa	-11310
instein	-11311
▁colleges	-11312
▁substitute	-11313
▁WH	-11314
▁appetite	-11315
rying	-11316
▁rises	-11317
▁Jup	-11318
▁skilled	-11319
iplinary	-11320
ructive	-11321
▁beds	-11322
▁compassion	-11323
▁23,	-11324
▁Chap	-11325
▁specialists	-11326
▁telescope	-11327
▁comparable	-11328
▁Rus	-11329
▁attempting	-11330
▁galaxies	-11331
▁curious	-11332
▁extends	-11333
inflammatory	-11334
▁furniture	-11335
▁stack	-11336
▁spell	-11337
▁prostate	-11338
72	-11339
iley	-11340
▁protocols	-11341
▁atom	-11342
▁Hispan	-11343
▁datas	-11344
▁entity	-11345
▁guides	-11346
▁participated	-11347
▁pupp	-11348
▁machinery	-11349
▁prophe	-11350
▁passive	-11351
plan	-11352
▁NC	-11353
▁induced	-11354
▁Dor	-11355
▁inver	-11356
▁Creative	-11357
▁shipping	-11358
▁Advanced	-11359
▁kin	-11360
▁forb	-11361
▁snake	-11362
▁vapor	-11363
▁globally	-11364
▁Treaty	-11365
▁inherited	-11366
▁costly	-11367
▁meets	-11368
isphere	-11369
▁wealthy	-11370
▁architectural	-11371
▁Fle	-11372
▁devastating	-11373
▁Therapy	-11374
anna	-11375
▁Louisiana	-11376
egu	-11377
▁28,	-11378
▁Nig	-11379
▁precipitation	-11380
ML	-11381
▁Pict	-11382
▁abdominal	-11383
▁mainstream	-11384
▁Pow	-11385
▁march	-11386
▁collaborative	-11387
▁UC	-11388
▁gaining	-11389
▁Relations	-11390
▁uter	-11391
▁Philippines	-11392
▁headaches	-11393
▁indicator	-11394
.5	-11395
▁lig	-11396
▁biomass	-11397
▁traveled	-11398
▁mud	-11399
▁groundwater	-11400
cm	-11401
▁viewing	-11402
▁Effects	-11403
▁electrom	-11404
▁graphic	-11405
EST	-11406
oxic	-11407
▁cooked	-11408
ochemical	-11409
▁bor	-11410
▁overse	-11411
▁2005,	-11412
▁Related	-11413
▁careg	-11414
▁Archived	-11415
eland	-11416
▁Cultural	-11417
onto	-11418
abetic	-11419
▁warmer	-11420
▁archaeological	-11421
▁flies	-11422
▁aquatic	-11423
So	-11424
▁Argent	-11425
▁degradation	-11426
aug	-11427
father	-11428
▁meanings	-11429
▁dign	-11430
▁afternoon	-11431
govern	-11432
wall	-11433
▁belt	-11434
▁Ball	-11435
▁crossing	-11436
imedia	-11437
▁angry	-11438
▁methodology	-11439
▁Observ	-11440
▁pulled	-11441
▁Defense	-11442
▁neighbors	-11443
▁vow	-11444
enya	-11445
▁automatic	-11446
Why	-11447
▁Mission	-11448
▁syll	-11449
▁hind	-11450
lessly	-11451
▁Pa	-11452
▁beta	-11453
Lear	-11454
▁181	-11455
▁compensation	-11456
▁2-	-11457
▁pec	-11458
▁flowing	-11459
▁quantitative	-11460
▁static	-11461
▁Analy	-11462
▁mutual	-11463
▁shortly	-11464
▁descriptions	-11465
imeter	-11466
bral	-11467
▁Bru	-11468
▁smallest	-11469
▁examining	-11470
ogl	-11471
▁nurses	-11472
LC	-11473
eld	-11474
▁mutation	-11475
▁interviews	-11476
▁shadow	-11477
▁powered	-11478
inton	-11479
▁decent	-11480
▁promoted	-11481
▁outdoors	-11482
63	-11483
lyn	-11484
keys	-11485
▁Freedom	-11486
▁coordin	-11487
▁dimension	-11488
natural	-11489
▁religions	-11490
▁Bob	-11491
aki	-11492
▁Ark	-11493
▁yeast	-11494
▁anniversary	-11495
▁documentation	-11496
▁assignments	-11497
opt	-11498
▁consp	-11499
▁pharmac	-11500
▁initiated	-11501
▁SO	-11502
▁designers	-11503
4),	-11504
▁grave	-11505
Ps	-11506
▁Saturday	-11507
▁analyzing	-11508
▁needle	-11509
▁plaque	-11510
etheless	-11511
▁interpreted	-11512
arse	-11513
▁hearts	-11514
▁football	-11515
ilton	-11516
▁discusses	-11517
essee	-11518
▁verbal	-11519
orie	-11520
▁tech	-11521
▁Foreign	-11522
▁unnecessary	-11523
▁cheaper	-11524
aret	-11525
▁Utah	-11526
▁guided	-11527
▁ceremony	-11528
rets	-11529
elson	-11530
bestos	-11531
▁dictionary	-11532
▁motivated	-11533
▁affil	-11534
▁campaigns	-11535
iser	-11536
▁lith	-11537
▁fleet	-11538
▁defeated	-11539
▁Had	-11540
▁farmer	-11541
▁brick	-11542
lastname	-11543
▁pipes	-11544
▁cavity	-11545
fn	-11546
ibli	-11547
10,	-11548
rage	-11549
▁obsc	-11550
▁Clark	-11551
▁Hunt	-11552
▁Publishing	-11553
▁pollen	-11554
▁residence	-11555
etry	-11556
▁Confederate	-11557
▁Gil	-11558
▁Ages	-11559
▁retire	-11560
▁conjunction	-11561
▁2,000	-11562
laration	-11563
▁Facts	-11564
▁historically	-11565
▁republic	-11566
▁considerations	-11567
▁immense	-11568
600	-11569
conf	-11570
attle	-11571
▁empir	-11572
▁bold	-11573
▁alphabet	-11574
▁Diagn	-11575
▁operators	-11576
▁announce	-11577
asting	-11578
▁propos	-11579
ushes	-11580
orb	-11581
▁coin	-11582
▁Hawaii	-11583
Im	-11584
▁united	-11585
▁Military	-11586
▁Hong	-11587
▁pollutants	-11588
▁que	-11589
▁Smart	-11590
▁singing	-11591
▁responded	-11592
acular	-11593
▁practitioners	-11594
▁yoga	-11595
▁oxide	-11596
▁reads	-11597
▁carcin	-11598
▁disin	-11599
▁ingredient	-11600
▁paths	-11601
▁sau	-11602
warf	-11603
▁2016,	-11604
▁adul	-11605
▁enterprise	-11606
arp	-11607
▁distress	-11608
▁fails	-11609
shore	-11610
dis	-11611
gress	-11612
uming	-11613
▁resilience	-11614
▁advised	-11615
▁fulfill	-11616
▁fled	-11617
sur	-11618
▁ren	-11619
▁chim	-11620
▁checked	-11621
▁Nich	-11622
▁Boy	-11623
▁structured	-11624
ESS	-11625
▁Dat	-11626
▁rescue	-11627
▁Nat	-11628
▁Site	-11629
inced	-11630
viously	-11631
▁voices	-11632
▁resur	-11633
▁absent	-11634
▁47	-11635
▁Dur	-11636
▁acquisition	-11637
sl	-11638
▁tremendous	-11639
▁speaks	-11640
opathy	-11641
▁clusters	-11642
oub	-11643
▁movies	-11644
keley	-11645
▁pushing	-11646
▁belongs	-11647
▁corruption	-11648
▁forty	-11649
▁Fisher	-11650
▁Jupiter	-11651
▁Maybe	-11652
▁LG	-11653
ographer	-11654
▁grants	-11655
sun	-11656
▁personally	-11657
Read	-11658
▁26,	-11659
▁traged	-11660
ilty	-11661
osaurs	-11662
▁rings	-11663
uana	-11664
▁Sche	-11665
▁Pas	-11666
▁Lady	-11667
▁possession	-11668
▁efficacy	-11669
▁Sustainable	-11670
▁endeav	-11671
▁consisted	-11672
▁cannab	-11673
▁Lie	-11674
risk	-11675
non	-11676
▁arrested	-11677
weed	-11678
izational	-11679
▁imbal	-11680
▁enters	-11681
good	-11682
▁episode	-11683
▁Armen	-11684
lades	-11685
vity	-11686
.-	-11687
▁terminal	-11688
▁node	-11689
▁Dub	-11690
monary	-11691
▁drawings	-11692
lation	-11693
▁odd	-11694
▁Philip	-11695
▁defect	-11696
▁Independence	-11697
▁kidneys	-11698
▁27,	-11699
▁satisfaction	-11700
▁cod	-11701
▁dual	-11702
▁checking	-11703
▁Market	-11704
▁fluctu	-11705
97	-11706
▁photography	-11707
▁digestion	-11708
mouth	-11709
▁regulated	-11710
Int	-11711
▁Tai	-11712
▁breathe	-11713
▁Corporation	-11714
▁Command	-11715
isa	-11716
▁Bird	-11717
▁receptor	-11718
▁Tips	-11719
▁Sound	-11720
ilateral	-11721
oen	-11722
activity	-11723
esy	-11724
▁counting	-11725
▁persec	-11726
illy	-11727
Can	-11728
▁Aqu	-11729
▁patch	-11730
▁chips	-11731
▁Team	-11732
▁substantially	-11733
▁Includ	-11734
▁Memorial	-11735
onge	-11736
weet	-11737
▁dishes	-11738
scill	-11739
▁Chen	-11740
▁bay	-11741
▁aspir	-11742
▁41	-11743
▁drag	-11744
▁Persian	-11745
▁beef	-11746
▁Golden	-11747
pur	-11748
▁Anti	-11749
ococc	-11750
▁poisoning	-11751
▁profits	-11752
▁overt	-11753
▁darkness	-11754
gic	-11755
▁Credit	-11756
iotics	-11757
▁tempt	-11758
▁projected	-11759
▁survivors	-11760
▁Prize	-11761
▁contracts	-11762
▁gross	-11763
ulative	-11764
▁entities	-11765
▁Afghanistan	-11766
away	-11767
▁Nort	-11768
white	-11769
eterm	-11770
▁Resource	-11771
▁colours	-11772
▁PMID	-11773
▁mines	-11774
▁neighbour	-11775
exts	-11776
agus	-11777
▁bases	-11778
▁ions	-11779
▁staying	-11780
▁pressures	-11781
▁CL	-11782
▁angles	-11783
▁heated	-11784
ilib	-11785
▁caffeine	-11786
apore	-11787
▁Lawrence	-11788
▁Clear	-11789
▁promised	-11790
▁Bon	-11791
▁counts	-11792
▁ignor	-11793
▁basics	-11794
▁slide	-11795
▁relates	-11796
spe	-11797
link	-11798
itored	-11799
▁SE	-11800
entucky	-11801
▁cher	-11802
▁strengths	-11803
▁conceptual	-11804
▁obese	-11805
urred	-11806
first	-11807
▁worksheet	-11808
▁Pil	-11809
▁imposed	-11810
▁interrupt	-11811
▁alb	-11812
▁convention	-11813
rasound	-11814
▁Chile	-11815
▁Tennessee	-11816
▁Impact	-11817
olith	-11818
▁Collection	-11819
angers	-11820
▁Build	-11821
▁Norway	-11822
▁Stress	-11823
▁astronaut	-11824
▁blame	-11825
▁Buddhism	-11826
▁Personal	-11827
arma	-11828
▁thrown	-11829
▁Exercise	-11830
▁evac	-11831
abama	-11832
▁magic	-11833
▁highlighted	-11834
appy	-11835
▁artery	-11836
▁Rap	-11837
▁Tele	-11838
▁glands	-11839
Com	-11840
look	-11841
▁defining	-11842
▁boats	-11843
May	-11844
▁gifts	-11845
▁convinced	-11846
▁accumulation	-11847
▁purple	-11848
▁lapt	-11849
▁murd	-11850
▁builds	-11851
▁denied	-11852
comp	-11853
they	-11854
▁accused	-11855
▁geography	-11856
▁pitch	-11857
▁Od	-11858
IO	-11859
▁governance	-11860
▁Adams	-11861
▁intervals	-11862
▁Hind	-11863
osex	-11864
rology	-11865
▁integrate	-11866
▁fee	-11867
▁Bot	-11868
▁cer	-11869
▁replacing	-11870
▁Cert	-11871
tics	-11872
lah	-11873
▁Issue	-11874
▁purchasing	-11875
▁Indiana	-11876
whe	-11877
icul	-11878
py	-11879
ulses	-11880
asis	-11881
▁butt	-11882
▁closest	-11883
▁Around	-11884
igs	-11885
▁tender	-11886
▁blockchain	-11887
▁pix	-11888
▁followers	-11889
▁Declaration	-11890
▁voters	-11891
▁contexts	-11892
▁Person	-11893
▁smok	-11894
fol	-11895
▁publicly	-11896
▁Fri	-11897
▁scheduled	-11898
▁Sri	-11899
▁fragments	-11900
▁fungi	-11901
▁offspring	-11902
▁operator	-11903
access	-11904
letter	-11905
▁hosts	-11906
▁geographical	-11907
▁mul	-11908
estion	-11909
▁epit	-11910
▁Summer	-11911
Pe	-11912
▁symmet	-11913
93	-11914
olas	-11915
otechnology	-11916
▁coding	-11917
▁bottles	-11918
▁corporations	-11919
aund	-11920
▁Tok	-11921
abs	-11922
▁rou	-11923
▁grey	-11924
▁explosion	-11925
ationally	-11926
olescent	-11927
odge	-11928
▁2000,	-11929
▁BBC	-11930
▁Bah	-11931
acre	-11932
▁abd	-11933
96	-11934
▁Raj	-11935
▁transparent	-11936
▁rows	-11937
▁castle	-11938
▁Whit	-11939
heres	-11940
▁unclear	-11941
▁polymer	-11942
▁Strateg	-11943
jamin	-11944
▁Pra	-11945
▁glory	-11946
▁carp	-11947
hot	-11948
aying	-11949
forward	-11950
▁circuits	-11951
▁inherit	-11952
▁alleged	-11953
▁Radio	-11954
▁margin	-11955
▁introducing	-11956
01	-11957
▁breakfast	-11958
▁emergence	-11959
▁Answer	-11960
▁Prophet	-11961
▁practiced	-11962
▁Benefits	-11963
▁commemor	-11964
estinal	-11965
▁actors	-11966
▁consultation	-11967
▁Commer	-11968
▁indication	-11969
▁crowd	-11970
▁Games	-11971
▁servers	-11972
annel	-11973
▁twentieth	-11974
▁wax	-11975
▁headed	-11976
▁bars	-11977
▁Staff	-11978
uese	-11979
olecular	-11980
▁volcanic	-11981
pton	-11982
▁demonstration	-11983
▁2006.	-11984
▁Lic	-11985
▁Diego	-11986
ART	-11987
▁caution	-11988
▁licensed	-11989
▁peaceful	-11990
▁raises	-11991
▁membership	-11992
bits	-11993
▁steep	-11994
▁basket	-11995
▁dreams	-11996
Eng	-11997
▁SD	-11998
ltry	-11999
▁dirt	-12000
▁insulation	-12001
roach	-12002
▁reliability	-12003
▁Gas	-12004
▁updates	-12005
▁certified	-12006
▁basin	-12007
▁monitored	-12008
graduate	-12009
aline	-12010
▁admit	-12011
▁searc	-12012
▁soldier	-12013
▁refriger	-12014
▁premature	-12015
▁asset	-12016
▁Character	-12017
iencies	-12018
▁talked	-12019
▁Planning	-12020
▁arteries	-12021
▁passengers	-12022
▁virtue	-12023
induced	-12024
▁sore	-12025
▁Joh	-12026
▁weren	-12027
▁throne	-12028
........	-12029
▁Affairs	-12030
▁Machine	-12031
▁cro	-12032
▁railroad	-12033
▁Everyone	-12034
▁predictions	-12035
▁Country	-12036
▁agenda	-12037
▁cyt	-12038
▁lunar	-12039
angular	-12040
▁seemingly	-12041
olis	-12042
▁challenged	-12043
▁Together	-12044
▁Tal	-12045
assment	-12046
▁Executive	-12047
▁compression	-12048
ewater	-12049
roleum	-12050
▁dozen	-12051
▁tear	-12052
▁illustrations	-12053
▁melan	-12054
▁15.	-12055
53	-12056
▁fraud	-12057
▁Banglades	-12058
▁constitu	-12059
▁geometry	-12060
▁Hell	-12061
Te	-12062
WS	-12063
▁Hub	-12064
▁radioactive	-12065
▁Brook	-12066
▁databases	-12067
▁volunteer	-12068
▁comprehension	-12069
▁wounded	-12070
vance	-12071
▁Almost	-12072
sets	-12073
▁vocal	-12074
▁tribal	-12075
▁Bapt	-12076
giving	-12077
▁observing	-12078
▁decreasing	-12079
held	-12080
▁cement	-12081
▁hypertension	-12082
▁drew	-12083
plus	-12084
▁Appl	-12085
screen	-12086
ARS	-12087
▁Cru	-12088
▁Hope	-12089
▁combining	-12090
▁ger	-12091
▁Maria	-12092
▁imagery	-12093
▁Coal	-12094
organisms	-12095
UD	-12096
fficiency	-12097
▁Block	-12098
▁deple	-12099
Col	-12100
▁enthusi	-12101
▁Democr	-12102
urally	-12103
▁Rena	-12104
▁Archives	-12105
▁Historic	-12106
▁practicing	-12107
▁conform	-12108
▁equity	-12109
▁foundations	-12110
▁locate	-12111
▁whites	-12112
itzerland	-12113
▁edited	-12114
▁bes	-12115
▁maternal	-12116
aments	-12117
▁panic	-12118
▁Alabama	-12119
ighters	-12120
▁rebell	-12121
▁Eating	-12122
▁Prevent	-12123
unciation	-12124
▁Fun	-12125
▁imported	-12126
▁Jordan	-12127
▁nucleus	-12128
▁biof	-12129
▁contra	-12130
ietal	-12131
▁exert	-12132
▁missed	-12133
▁Israeli	-12134
▁extending	-12135
▁affirm	-12136
▁sacrific	-12137
▁Chemistry	-12138
iciency	-12139
▁constraints	-12140
▁Syn	-12141
writing	-12142
▁prosec	-12143
▁Turkish	-12144
▁sho	-12145
▁trap	-12146
five	-12147
▁floating	-12148
▁editing	-12149
▁Evidence	-12150
▁Intelligence	-12151
▁founding	-12152
▁explores	-12153
▁sphere	-12154
▁sugars	-12155
▁mixing	-12156
po	-12157
▁Nobel	-12158
▁menstru	-12159
venue	-12160
▁pound	-12161
▁Broad	-12162
▁Total	-12163
▁Financial	-12164
▁occasions	-12165
▁Innov	-12166
▁combinations	-12167
arity	-12168
atherine	-12169
eu	-12170
iffs	-12171
▁mankind	-12172
▁intu	-12173
▁explanations	-12174
iens	-12175
▁Upper	-12176
▁investigations	-12177
arbon	-12178
▁inquiry	-12179
uant	-12180
cr	-12181
▁Rain	-12182
▁mosquito	-12183
▁forgotten	-12184
▁29,	-12185
hend	-12186
▁Typically	-12187
▁loads	-12188
eton	-12189
▁customs	-12190
▁saturated	-12191
▁tackle	-12192
▁labeled	-12193
▁slope	-12194
rosion	-12195
▁incidents	-12196
▁undertaken	-12197
▁lacking	-12198
▁completing	-12199
▁6:	-12200
▁melting	-12201
▁feat	-12202
▁constitute	-12203
▁brilliant	-12204
▁Cust	-12205
▁provinces	-12206
▁automated	-12207
▁lesser	-12208
cedented	-12209
▁winning	-12210
▁presidential	-12211
erenn	-12212
▁inadequate	-12213
▁attending	-12214
▁USDA	-12215
()	-12216
▁Castle	-12217
▁informal	-12218
▁Winter	-12219
▁suited	-12220
▁hate	-12221
▁altitude	-12222
▁surviving	-12223
▁interval	-12224
▁CM	-12225
erves	-12226
▁Sant	-12227
▁presenting	-12228
▁ED	-12229
▁Dak	-12230
▁pharmaceutical	-12231
▁wool	-12232
tein	-12233
▁Getting	-12234
▁pigs	-12235
jan	-12236
▁resident	-12237
ollo	-12238
▁breakdown	-12239
▁Alf	-12240
▁Diseases	-12241
▁releases	-12242
lav	-12243
▁Deb	-12244
▁Tour	-12245
▁Sci	-12246
▁Gro	-12247
▁compete	-12248
▁symbolic	-12249
▁bore	-12250
▁commander	-12251
▁controversy	-12252
▁warrant	-12253
▁HTML	-12254
▁declar	-12255
▁Ay	-12256
▁AB	-12257
▁briefly	-12258
▁Mechan	-12259
▁lean	-12260
▁Images	-12261
supp	-12262
▁Iowa	-12263
ikh	-12264
▁seats	-12265
▁inputs	-12266
▁Aboriginal	-12267
▁carrier	-12268
▁icon	-12269
▁Trib	-12270
iscal	-12271
edge	-12272
kh	-12273
▁norms	-12274
▁intermediate	-12275
▁(197	-12276
▁titles	-12277
▁Ross	-12278
▁Travel	-12279
▁bicy	-12280
▁readings	-12281
▁tries	-12282
▁ties	-12283
▁disciplines	-12284
▁177	-12285
oths	-12286
▁Stanford	-12287
▁assessing	-12288
▁advocate	-12289
velation	-12290
mill	-12291
▁Box	-12292
▁socially	-12293
appropriate	-12294
▁caring	-12295
▁worried	-12296
was	-12297
▁cows	-12298
▁trips	-12299
▁Eat	-12300
▁CF	-12301
▁stimulation	-12302
▁terrible	-12303
version	-12304
▁promotion	-12305
▁Literature	-12306
▁navigation	-12307
▁veterin	-12308
▁preference	-12309
▁Fat	-12310
▁quot	-12311
ni	-12312
▁reforms	-12313
ropolitan	-12314
▁desirable	-12315
▁preferences	-12316
▁Tell	-12317
lementary	-12318
▁triggers	-12319
▁bapt	-12320
▁dated	-12321
▁modes	-12322
▁Holocaust	-12323
▁Game	-12324
▁Singapore	-12325
pective	-12326
▁elevation	-12327
▁altogether	-12328
zens	-12329
▁fart	-12330
▁Torah	-12331
▁Orthodox	-12332
bet	-12333
▁182	-12334
▁Si	-12335
asia	-12336
▁landf	-12337
▁artifacts	-12338
▁Muhammad	-12339
▁compress	-12340
▁operates	-12341
uate	-12342
▁radar	-12343
▁omega	-12344
▁lesions	-12345
▁Stock	-12346
athic	-12347
▁eligible	-12348
fat	-12349
▁Population	-12350
ersion	-12351
▁lining	-12352
▁Anth	-12353
▁Pi	-12354
▁requests	-12355
irtual	-12356
▁Regional	-12357
▁1-	-12358
▁headache	-12359
▁2018.	-12360
amma	-12361
▁extracted	-12362
▁intestinal	-12363
▁lateral	-12364
▁surely	-12365
▁McG	-12366
▁Mong	-12367
▁Activity	-12368
▁champ	-12369
▁olive	-12370
▁implant	-12371
▁railway	-12372
arb	-12373
▁fees	-12374
▁shifts	-12375
▁unpre	-12376
▁bitter	-12377
▁workshops	-12378
▁marker	-12379
▁firstname	-12380
▁microbes	-12381
▁voluntary	-12382
▁testim	-12383
▁grat	-12384
▁similarly	-12385
▁unders	-12386
▁58	-12387
asted	-12388
▁Hal	-12389
▁ink	-12390
▁Cass	-12391
▁Renaissance	-12392
▁legislative	-12393
▁Wolf	-12394
incial	-12395
▁slower	-12396
▁entertainment	-12397
▁Brad	-12398
▁lact	-12399
▁lenses	-12400
▁cups	-12401
▁Austria	-12402
ilibrium	-12403
▁systemic	-12404
▁bike	-12405
▁tomb	-12406
▁nausea	-12407
▁Les	-12408
▁modest	-12409
▁Words	-12410
▁Beyond	-12411
▁environmentally	-12412
▁wells	-12413
▁confined	-12414
▁melt	-12415
iously	-12416
▁pronounced	-12417
osures	-12418
▁Past	-12419
▁advocates	-12420
▁variability	-12421
ova	-12422
ovenant	-12423
▁segments	-12424
▁recru	-12425
▁Benjamin	-12426
▁Switzerland	-12427
▁’	-12428
▁notably	-12429
PL	-12430
backs	-12431
illery	-12432
adays	-12433
matic	-12434
rained	-12435
▁noble	-12436
rea	-12437
▁proclaim	-12438
▁delight	-12439
▁thumb	-12440
aughters	-12441
▁Immun	-12442
▁spite	-12443
▁deemed	-12444
ulent	-12445
▁fool	-12446
▁2017,	-12447
orship	-12448
▁sor	-12449
▁Fortunately	-12450
▁unhealthy	-12451
▁Consequently	-12452
istence	-12453
▁crystal	-12454
▁agreements	-12455
▁gang	-12456
▁antioxidants	-12457
enus	-12458
▁Greeks	-12459
▁scattered	-12460
▁hepatitis	-12461
▁rating	-12462
61	-12463
names	-12464
▁fundament	-12465
▁insufficient	-12466
▁Agricultural	-12467
▁ecology	-12468
mus	-12469
▁pulse	-12470
parent	-12471
▁retreat	-12472
▁Lesson	-12473
▁newborn	-12474
▁Cab	-12475
▁careers	-12476
▁Wy	-12477
▁discrimin	-12478
▁travels	-12479
▁todd	-12480
icut	-12481
▁Ara	-12482
▁evaluating	-12483
▁legitimate	-12484
▁realm	-12485
ellar	-12486
▁negatively	-12487
eman	-12488
▁graphics	-12489
▁Imperial	-12490
▁Territ	-12491
▁Pediatric	-12492
iasis	-12493
▁monetary	-12494
▁closing	-12495
▁exams	-12496
▁remembered	-12497
▁(0.	-12498
▁eliminated	-12499
rosis	-12500
▁Hans	-12501
ingham	-12502
▁emperor	-12503
arms	-12504
▁delayed	-12505
▁naval	-12506
dam	-12507
rubs	-12508
erto	-12509
▁Allen	-12510
▁Simon	-12511
olit	-12512
▁modify	-12513
bled	-12514
wind	-12515
▁Tu	-12516
▁certification	-12517
▁ruler	-12518
dig	-12519
▁banking	-12520
▁dysfunction	-12521
▁Nurs	-12522
▁retrie	-12523
▁neurological	-12524
▁sword	-12525
▁Syndrome	-12526
oT	-12527
57	-12528
▁intact	-12529
▁Berkeley	-12530
▁1994	-12531
:10.10	-12532
▁Prob	-12533
▁admin	-12534
▁probe	-12535
▁currents	-12536
▁certificate	-12537
▁chat	-12538
▁Hou	-12539
▁subur	-12540
▁bridges	-12541
▁Looking	-12542
cription	-12543
▁separately	-12544
▁strictly	-12545
ierce	-12546
▁ok	-12547
▁Workshe	-12548
▁reinforce	-12549
▁concentrate	-12550
▁Capital	-12551
▁depicted	-12552
▁priests	-12553
▁unprecedented	-12554
62	-12555
▁Maine	-12556
▁tuber	-12557
▁spont	-12558
immune	-12559
▁pneumonia	-12560
▁wast	-12561
▁truck	-12562
ijuana	-12563
▁interference	-12564
▁screw	-12565
▁Parkinson	-12566
▁continually	-12567
tically	-12568
▁median	-12569
▁SA	-12570
forestation	-12571
▁tale	-12572
▁calculation	-12573
▁permits	-12574
▁secular	-12575
resistant	-12576
▁Eventually	-12577
▁Portuguese	-12578
▁2004,	-12579
▁Astronom	-12580
▁Genesis	-12581
heum	-12582
▁selecting	-12583
▁dwell	-12584
▁inability	-12585
▁Loc	-12586
From	-12587
▁fusion	-12588
▁obstacles	-12589
▁Malays	-12590
▁scrap	-12591
olutions	-12592
▁similarities	-12593
▁MIT	-12594
zech	-12595
▁sensation	-12596
▁coronavirus	-12597
lux	-12598
▁Skin	-12599
▁scarce	-12600
▁freshwater	-12601
post	-12602
energy	-12603
▁safegu	-12604
▁lets	-12605
▁Gi	-12606
▁impaired	-12607
▁jet	-12608
▁relies	-12609
▁mast	-12610
▁navigate	-12611
▁creature	-12612
▁worlds	-12613
▁dependence	-12614
▁workforce	-12615
▁Hun	-12616
▁juven	-12617
▁banned	-12618
▁registration	-12619
oping	-12620
▁impacted	-12621
▁Frequ	-12622
ector	-12623
▁divisions	-12624
▁Editor	-12625
▁stir	-12626
▁fired	-12627
▁wounds	-12628
imity	-12629
ods	-12630
▁Protocol	-12631
▁synthes	-12632
▁exclusive	-12633
▁ly	-12634
▁pole	-12635
▁extinct	-12636
PM	-12637
▁interfere	-12638
▁(2010	-12639
▁perceive	-12640
▁combustion	-12641
▁Leaders	-12642
regn	-12643
▁silent	-12644
▁10.10	-12645
owed	-12646
▁Bangladesh	-12647
HT	-12648
▁wires	-12649
▁Methods	-12650
▁teachings	-12651
▁Toronto	-12652
▁journals	-12653
▁99	-12654
▁unst	-12655
▁prejud	-12656
itives	-12657
▁tet	-12658
▁proc	-12659
▁sake	-12660
▁individ	-12661
▁Link	-12662
▁recur	-12663
▁plastics	-12664
▁divor	-12665
▁dispute	-12666
▁stayed	-12667
▁coating	-12668
▁modules	-12669
uma	-12670
▁descendants	-12671
▁Reference	-12672
lies	-12673
▁Dental	-12674
▁Upon	-12675
▁Patrick	-12676
rade	-12677
▁races	-12678
▁strip	-12679
▁retained	-12680
▁lighter	-12681
▁generator	-12682
cat	-12683
▁ozone	-12684
▁indo	-12685
▁crossed	-12686
two	-12687
▁AF	-12688
km	-12689
▁revised	-12690
▁lawn	-12691
▁statue	-12692
▁EC	-12693
▁Anderson	-12694
lict	-12695
▁Ros	-12696
▁Luke	-12697
▁longest	-12698
▁Soil	-12699
▁Would	-12700
▁Bed	-12701
olia	-12702
letal	-12703
05	-12704
▁loaded	-12705
▁700	-12706
▁inclusive	-12707
▁triggered	-12708
▁parasites	-12709
intestinal	-12710
▁Ground	-12711
▁placement	-12712
aran	-12713
▁citizenship	-12714
PC	-12715
▁erad	-12716
rish	-12717
▁bowl	-12718
▁explicitly	-12719
▁Accessed	-12720
▁freed	-12721
▁artic	-12722
▁cultivation	-12723
opter	-12724
alin	-12725
▁snakes	-12726
ocytes	-12727
▁Swedish	-12728
▁uncons	-12729
ochem	-12730
▁grocer	-12731
okes	-12732
▁glasses	-12733
▁pointing	-12734
▁inspection	-12735
ryption	-12736
▁strikes	-12737
four	-12738
arency	-12739
▁accommodate	-12740
▁activated	-12741
▁positively	-12742
roups	-12743
▁consolid	-12744
▁mitochond	-12745
▁Compan	-12746
▁Ps	-12747
▁Success	-12748
ambo	-12749
▁warned	-12750
▁toll	-12751
adi	-12752
▁standardized	-12753
▁inspire	-12754
amel	-12755
▁2003,	-12756
▁Anton	-12757
▁footprint	-12758
▁offset	-12759
▁10-	-12760
▁Sin	-12761
▁warfare	-12762
▁employer	-12763
▁Function	-12764
▁worms	-12765
▁neurot	-12766
▁activists	-12767
ashing	-12768
▁lasted	-12769
▁Douglas	-12770
▁mush	-12771
kg	-12772
ths	-12773
▁autonomous	-12774
▁gel	-12775
▁brut	-12776
▁ty	-12777
▁Focus	-12778
oard	-12779
▁screens	-12780
bird	-12781
▁Nigeria	-12782
▁Philosophy	-12783
▁upset	-12784
▁peas	-12785
▁coupled	-12786
▁fits	-12787
reas	-12788
▁Domin	-12789
▁titled	-12790
▁withdrawal	-12791
▁luck	-12792
▁Regular	-12793
▁Testing	-12794
▁behave	-12795
▁charts	-12796
▁4-	-12797
ethyl	-12798
▁fungus	-12799
▁acknowledged	-12800
▁bulbs	-12801
eded	-12802
▁transcript	-12803
▁Mas	-12804
▁harmony	-12805
▁functionality	-12806
uated	-12807
▁billions	-12808
▁rehabilitation	-12809
▁eliminating	-12810
▁checks	-12811
▁chemotherapy	-12812
▁pyram	-12813
▁54	-12814
▁gallons	-12815
▁Tech	-12816
▁intens	-12817
▁Easter	-12818
▁critics	-12819
MD	-12820
▁Sel	-12821
▁Authority	-12822
▁Southeast	-12823
▁destructive	-12824
▁(9	-12825
▁Cuba	-12826
▁phon	-12827
▁cock	-12828
▁sends	-12829
▁activation	-12830
▁Hart	-12831
▁Mosc	-12832
▁votes	-12833
▁disabled	-12834
wealth	-12835
▁outstanding	-12836
itational	-12837
ixed	-12838
▁achievements	-12839
▁Bud	-12840
▁outbreaks	-12841
▁praise	-12842
▁Newton	-12843
▁Beach	-12844
▁PS	-12845
800	-12846
▁Technical	-12847
▁transported	-12848
▁inval	-12849
itar	-12850
▁rash	-12851
▁identifies	-12852
▁Ow	-12853
▁0.5	-12854
▁strat	-12855
▁mosquitoes	-12856
▁underm	-12857
▁microbi	-12858
▁5-	-12859
▁airpl	-12860
oz	-12861
▁TB	-12862
imb	-12863
▁edit	-12864
▁Term	-12865
▁collaps	-12866
▁antioxidant	-12867
▁surroundings	-12868
yers	-12869
▁Sarah	-12870
▁landscapes	-12871
▁Roc	-12872
▁joining	-12873
▁regards	-12874
▁oct	-12875
rock	-12876
▁template	-12877
ometric	-12878
▁Mathematics	-12879
esthes	-12880
▁toilet	-12881
▁Nuclear	-12882
▁extensively	-12883
▁settlements	-12884
▁Share	-12885
▁binary	-12886
▁flowering	-12887
pers	-12888
▁impairment	-12889
▁examines	-12890
▁considers	-12891
▁trains	-12892
▁knock	-12893
▁comprised	-12894
▁blocked	-12895
▁tablets	-12896
mates	-12897
eps	-12898
onduct	-12899
▁planes	-12900
▁Conserv	-12901
▁isot	-12902
▁inserted	-12903
▁Aristot	-12904
▁Excel	-12905
▁generates	-12906
raul	-12907
dy	-12908
▁layout	-12909
▁ore	-12910
▁cous	-12911
▁Palestine	-12912
lahoma	-12913
▁trapped	-12914
▁Better	-12915
▁Syd	-12916
▁Wright	-12917
.3	-12918
▁Causes	-12919
▁surgeon	-12920
▁GPS	-12921
▁info	-12922
▁crafts	-12923
▁2020.	-12924
▁Esp	-12925
rones	-12926
third	-12927
▁Publ	-12928
▁damp	-12929
esteem	-12930
▁burial	-12931
▁ate	-12932
▁vic	-12933
▁Einstein	-12934
▁seas	-12935
▁Aer	-12936
Table	-12937
▁eternal	-12938
▁bod	-12939
unes	-12940
▁directory	-12941
▁factories	-12942
▁130	-12943
▁inevitable	-12944
fortable	-12945
▁weeds	-12946
aza	-12947
▁silicon	-12948
▁autumn	-12949
▁sixth	-12950
▁Lanc	-12951
person	-12952
-11	-12953
▁lux	-12954
▁sink	-12955
▁Police	-12956
chi	-12957
▁(7	-12958
▁competing	-12959
▁mechanics	-12960
▁Fif	-12961
▁millenn	-12962
▁downt	-12963
▁Camb	-12964
▁legally	-12965
ugar	-12966
▁Burn	-12967
▁judges	-12968
▁MRI	-12969
▁refined	-12970
▁jurisdiction	-12971
▁traces	-12972
▁passages	-12973
note	-12974
stan	-12975
ucks	-12976
▁stretching	-12977
▁alleg	-12978
▁Improve	-12979
▁desper	-12980
▁remedy	-12981
cult	-12982
▁bats	-12983
▁prosperity	-12984
▁innovations	-12985
▁Denmark	-12986
▁Skills	-12987
▁guilty	-12988
▁opio	-12989
▁Dog	-12990
DC	-12991
▁conception	-12992
▁fossils	-12993
▁thou	-12994
▁56	-12995
oriented	-12996
▁Initiative	-12997
obacter	-12998
▁ranks	-12999
▁besides	-13000
▁52	-13001
▁deployed	-13002
▁Song	-13003
▁pumps	-13004
▁uncommon	-13005
▁2005.	-13006
▁shells	-13007
vo	-13008
▁intrig	-13009
▁critically	-13010
▁dissolved	-13011
▁oak	-13012
Or	-13013
proof	-13014
▁therapist	-13015
marks	-13016
otional	-13017
nty	-13018
▁coh	-13019
bin	-13020
▁threatening	-13021
▁Ms	-13022
▁grab	-13023
▁paste	-13024
uction	-13025
▁economically	-13026
▁Walter	-13027
▁packed	-13028
▁subjected	-13029
54	-13030
imination	-13031
▁afterwards	-13032
▁veins	-13033
▁diesel	-13034
▁witnessed	-13035
▁hoped	-13036
52	-13037
▁frames	-13038
▁Protestant	-13039
▁Fried	-13040
▁damages	-13041
eech	-13042
▁Beng	-13043
▁sufficiently	-13044
amous	-13045
▁disappeared	-13046
▁rival	-13047
emen	-13048
▁Loss	-13049
▁hungry	-13050
itime	-13051
▁jack	-13052
▁exploitation	-13053
▁sanct	-13054
▁Course	-13055
tr	-13056
▁ank	-13057
▁Problems	-13058
▁cultivated	-13059
nee	-13060
▁transaction	-13061
educ	-13062
▁Ukraine	-13063
▁Alcohol	-13064
aga	-13065
ORD	-13066
▁dump	-13067
▁Dick	-13068
▁Bishop	-13069
▁toxicity	-13070
▁traff	-13071
SE	-13072
onut	-13073
▁tomatoes	-13074
▁recognised	-13075
▁cater	-13076
▁Cand	-13077
otive	-13078
▁myths	-13079
John	-13080
bone	-13081
▁invisible	-13082
phen	-13083
▁wetlands	-13084
▁oscill	-13085
▁watched	-13086
▁Hyp	-13087
▁soda	-13088
▁whale	-13089
▁plural	-13090
▁microbial	-13091
▁q	-13092
aus	-13093
only	-13094
▁appreciation	-13095
▁outlined	-13096
▁Return	-13097
▁somehow	-13098
▁individually	-13099
▁ports	-13100
▁prediction	-13101
▁Connecticut	-13102
▁transit	-13103
▁aug	-13104
▁gay	-13105
▁Gand	-13106
▁Poor	-13107
▁cram	-13108
vas	-13109
imore	-13110
▁breeds	-13111
▁ram	-13112
▁sequencing	-13113
▁bench	-13114
▁bip	-13115
plicit	-13116
▁patches	-13117
▁Heat	-13118
▁Bitcoin	-13119
▁Universe	-13120
▁Oak	-13121
▁displace	-13122
▁electromagnetic	-13123
▁Explain	-13124
▁cel	-13125
▁Industry	-13126
▁Der	-13127
▁gardening	-13128
▁Mun	-13129
▁72	-13130
▁1).	-13131
▁True	-13132
▁baseline	-13133
▁shooting	-13134
▁retention	-13135
opor	-13136
▁temples	-13137
rophy	-13138
▁cervical	-13139
▁Fox	-13140
▁adjusted	-13141
▁Proceed	-13142
▁Haz	-13143
idel	-13144
▁quoted	-13145
▁grasp	-13146
▁Pack	-13147
▁cruel	-13148
hematic	-13149
▁stain	-13150
inar	-13151
vol	-13152
▁poultry	-13153
▁drilling	-13154
PubMed	-13155
▁temporal	-13156
▁monaster	-13157
▁evolve	-13158
FA	-13159
▁disse	-13160
irk	-13161
▁orth	-13162
▁Alliance	-13163
▁Determ	-13164
▁centres	-13165
idth	-13166
▁cortex	-13167
▁linguistic	-13168
ennis	-13169
▁tutorial	-13170
▁CON	-13171
▁pour	-13172
atics	-13173
▁Night	-13174
rehend	-13175
ilies	-13176
▁mant	-13177
▁solved	-13178
▁Annual	-13179
alia	-13180
87	-13181
bound	-13182
pin	-13183
ignty	-13184
cerpt	-13185
▁odds	-13186
▁municipal	-13187
▁primitive	-13188
▁attribute	-13189
▁failing	-13190
▁compromise	-13191
▁hasn	-13192
pher	-13193
▁Basin	-13194
▁Moscow	-13195
aron	-13196
▁variants	-13197
▁weed	-13198
▁Economics	-13199
▁18.	-13200
▁prototype	-13201
▁Hamilton	-13202
▁prelim	-13203
50,	-13204
0000	-13205
▁accordingly	-13206
▁maintains	-13207
▁harvesting	-13208
▁cum	-13209
aman	-13210
▁Saturn	-13211
▁Higher	-13212
usions	-13213
▁piano	-13214
▁Czech	-13215
len	-13216
▁yog	-13217
▁Pos	-13218
uin	-13219
ensing	-13220
▁asbestos	-13221
▁negotiations	-13222
▁purely	-13223
lihood	-13224
▁vulnerability	-13225
▁diamond	-13226
▁Ltd	-13227
▁mobil	-13228
ben	-13229
▁requested	-13230
▁strings	-13231
▁struggles	-13232
htm	-13233
▁promises	-13234
▁Ts	-13235
▁Oklahoma	-13236
▁potato	-13237
▁suppress	-13238
▁IL	-13239
powered	-13240
▁watershed	-13241
▁dozens	-13242
itches	-13243
▁forcing	-13244
▁Award	-13245
▁unconscious	-13246
▁excluded	-13247
▁Magazine	-13248
avy	-13249
▁embrace	-13250
▁gently	-13251
▁terrain	-13252
▁problematic	-13253
▁seaf	-13254
▁nasal	-13255
▁ventilation	-13256
Tube	-13257
▁preliminary	-13258
▁schemes	-13259
▁succ	-13260
▁publishing	-13261
▁parish	-13262
▁recipe	-13263
▁abdomen	-13264
▁Nev	-13265
▁earthquakes	-13266
▁plug	-13267
uncture	-13268
▁Emergency	-13269
▁Plus	-13270
▁restaurants	-13271
▁passenger	-13272
ailand	-13273
▁Biological	-13274
uliar	-13275
▁formerly	-13276
▁recommendation	-13277
▁unsu	-13278
don	-13279
pler	-13280
▁dos	-13281
ogenesis	-13282
▁TR	-13283
▁rum	-13284
▁Weight	-13285
▁stamp	-13286
▁Hait	-13287
▁Members	-13288
▁delivering	-13289
▁voy	-13290
▁Title	-13291
▁tears	-13292
driven	-13293
▁floods	-13294
▁draws	-13295
▁priorit	-13296
uz	-13297
adian	-13298
▁gasoline	-13299
▁attachment	-13300
▁Notes	-13301
▁Moore	-13302
▁orch	-13303
▁traumatic	-13304
▁consec	-13305
▁sour	-13306
ulatory	-13307
▁PRO	-13308
▁walked	-13309
▁delicate	-13310
▁ket	-13311
alling	-13312
▁Too	-13313
▁Multiple	-13314
▁investigating	-13315
-17	-13316
▁resolved	-13317
▁drill	-13318
▁rolling	-13319
▁instructor	-13320
▁nurt	-13321
▁energ	-13322
▁intestine	-13323
▁riding	-13324
▁goddess	-13325
▁handful	-13326
pose	-13327
▁queen	-13328
▁instructional	-13329
▁permanently	-13330
▁valued	-13331
▁liber	-13332
▁spirits	-13333
▁Weather	-13334
▁Could	-13335
▁EL	-13336
▁inventory	-13337
▁adhes	-13338
▁illustrates	-13339
path	-13340
▁16.	-13341
ictorian	-13342
-30	-13343
adows	-13344
▁rhet	-13345
▁Lakes	-13346
▁anxious	-13347
insic	-13348
▁Citiz	-13349
▁Apart	-13350
▁empathy	-13351
▁monarch	-13352
▁clinic	-13353
▁Eu	-13354
▁emphasize	-13355
erk	-13356
lan	-13357
▁biblical	-13358
▁questionna	-13359
ynthesis	-13360
▁publish	-13361
92	-13362
pres	-13363
▁Sydney	-13364
▁stocks	-13365
▁enrich	-13366
▁satisfied	-13367
▁investing	-13368
▁matching	-13369
▁Fest	-13370
▁compiled	-13371
▁posture	-13372
▁jun	-13373
▁Nan	-13374
ili	-13375
▁Bron	-13376
▁connects	-13377
▁astronomers	-13378
▁untreated	-13379
▁Brig	-13380
▁Traditional	-13381
▁oun	-13382
acerb	-13383
▁peripheral	-13384
▁Salt	-13385
ioned	-13386
▁triangle	-13387
▁arrangements	-13388
▁51	-13389
▁tragedy	-13390
▁Activities	-13391
▁burns	-13392
▁folks	-13393
▁Gospel	-13394
izoph	-13395
acity	-13396
▁balls	-13397
▁elite	-13398
▁Professional	-13399
mind	-13400
▁stopping	-13401
▁Simple	-13402
▁rigid	-13403
▁Software	-13404
▁dwarf	-13405
▁Dry	-13406
▁allev	-13407
sels	-13408
ierra	-13409
aux	-13410
▁Region	-13411
GA	-13412
oglob	-13413
▁landed	-13414
▁wheels	-13415
▁organizational	-13416
perature	-13417
▁infrared	-13418
▁designer	-13419
▁supportive	-13420
▁Pharm	-13421
▁episodes	-13422
▁Hug	-13423
▁Dal	-13424
▁Stage	-13425
▁microscope	-13426
.(	-13427
▁NI	-13428
▁amph	-13429
threat	-13430
▁seizures	-13431
MM	-13432
▁Apollo	-13433
▁crystals	-13434
▁enroll	-13435
▁Communist	-13436
▁apples	-13437
▁deficit	-13438
▁2001,	-13439
hol	-13440
▁lin	-13441
▁Juda	-13442
▁Growth	-13443
▁Frederick	-13444
▁teenagers	-13445
▁drum	-13446
▁Ord	-13447
test	-13448
▁wellbeing	-13449
▁urgent	-13450
▁reconstruct	-13451
wich	-13452
▁Dark	-13453
ository	-13454
▁Joint	-13455
▁asym	-13456
ania	-13457
▁frost	-13458
ancies	-13459
▁Live	-13460
▁uncomfortable	-13461
4:	-13462
reach	-13463
imental	-13464
▁perenn	-13465
▁secured	-13466
▁drying	-13467
ige	-13468
some	-13469
▁failures	-13470
month	-13471
▁intim	-13472
rost	-13473
▁Recently	-13474
▁bloom	-13475
izophren	-13476
▁tourists	-13477
▁utilizing	-13478
▁hes	-13479
▁sits	-13480
▁obtaining	-13481
▁translate	-13482
Sm	-13483
ocide	-13484
▁Alexand	-13485
▁underwater	-13486
AND	-13487
ouTube	-13488
▁bureau	-13489
rots	-13490
▁demanding	-13491
cils	-13492
▁dignity	-13493
▁2000.	-13494
▁Legisl	-13495
▁substrate	-13496
ysics	-13497
▁likes	-13498
▁perceptions	-13499
▁Margaret	-13500
▁strengthening	-13501
arming	-13502
ppers	-13503
articles	-13504
home	-13505
artz	-13506
▁palace	-13507
▁friction	-13508
▁Prep	-13509
▁Chronic	-13510
▁Foot	-13511
▁approaching	-13512
tech	-13513
▁instinct	-13514
▁stro	-13515
▁Graph	-13516
▁remedies	-13517
retion	-13518
▁Gib	-13519
roscience	-13520
▁incentives	-13521
▁trunk	-13522
▁moder	-13523
▁suspended	-13524
▁heading	-13525
▁dot	-13526
▁countless	-13527
▁metall	-13528
▁reproduce	-13529
ante	-13530
▁rept	-13531
▁editors	-13532
▁submar	-13533
axis	-13534
autions	-13535
▁parameter	-13536
▁Extension	-13537
leans	-13538
▁mad	-13539
▁presentations	-13540
TO	-13541
▁elaborate	-13542
▁ana	-13543
▁Snow	-13544
▁Anglo	-13545
▁birthday	-13546
▁variant	-13547
PE	-13548
▁mas	-13549
▁aggression	-13550
▁hob	-13551
▁lectures	-13552
▁respondents	-13553
▁chromosome	-13554
▁110	-13555
▁Complete	-13556
tha	-13557
▁troubles	-13558
esar	-13559
▁indoors	-13560
▁modification	-13561
▁priorities	-13562
ui	-13563
▁assass	-13564
▁everybody	-13565
▁retired	-13566
▁Proceedings	-13567
▁proposals	-13568
▁Lev	-13569
▁deriv	-13570
▁clot	-13571
▁Protect	-13572
▁unions	-13573
▁4)	-13574
▁URL	-13575
▁masks	-13576
▁rip	-13577
▁DE	-13578
▁Europeans	-13579
▁Wang	-13580
▁trillion	-13581
▁turtles	-13582
dem	-13583
▁Cos	-13584
▁harvested	-13585
ilingual	-13586
▁metaphor	-13587
pack	-13588
▁Lank	-13589
redict	-13590
ricular	-13591
irie	-13592
estab	-13593
▁civilian	-13594
▁Run	-13595
amation	-13596
lip	-13597
▁31,	-13598
week	-13599
▁keyboard	-13600
depth	-13601
▁ambit	-13602
▁da	-13603
othel	-13604
▁Bos	-13605
▁sins	-13606
▁97	-13607
▁Sports	-13608
▁alignment	-13609
log	-13610
▁macro	-13611
▁Recomm	-13612
▁hub	-13613
▁wishes	-13614
▁Brand	-13615
ifiers	-13616
▁Gram	-13617
▁Partners	-13618
endix	-13619
▁lowering	-13620
▁defence	-13621
herence	-13622
▁berries	-13623
▁hoping	-13624
▁Definition	-13625
erce	-13626
urities	-13627
stud	-13628
▁counterparts	-13629
elta	-13630
▁incons	-13631
▁LGBT	-13632
▁Christopher	-13633
▁companion	-13634
▁Problem	-13635
▁Bull	-13636
pit	-13637
▁learner	-13638
▁infest	-13639
illes	-13640
▁Harry	-13641
▁Jenn	-13642
▁exacerb	-13643
▁Marshall	-13644
vasive	-13645
ipt	-13646
▁Howard	-13647
▁eager	-13648
▁mysterious	-13649
▁RA	-13650
▁DS	-13651
▁1992	-13652
▁charging	-13653
▁obligations	-13654
▁specify	-13655
▁silk	-13656
▁Thailand	-13657
▁homeless	-13658
▁USS	-13659
▁descent	-13660
▁pressing	-13661
▁electroly	-13662
▁Ens	-13663
▁potent	-13664
▁drama	-13665
▁Price	-13666
▁57	-13667
▁acidic	-13668
fin	-13669
4-	-13670
▁Consult	-13671
▁7:	-13672
▁wastewater	-13673
▁appropriately	-13674
▁Late	-13675
source	-13676
▁gluten	-13677
▁assembled	-13678
▁Dra	-13679
▁unwanted	-13680
▁appliances	-13681
▁apost	-13682
▁signature	-13683
roximately	-13684
▁allies	-13685
Ds	-13686
▁pm	-13687
ulse	-13688
▁pursuit	-13689
alue	-13690
▁stimulus	-13691
agrams	-13692
▁Nelson	-13693
▁Imagine	-13694
▁induce	-13695
▁formally	-13696
isan	-13697
culosis	-13698
▁analytical	-13699
▁ants	-13700
▁Dakota	-13701
ensions	-13702
▁smile	-13703
doc	-13704
▁Dh	-13705
▁Thom	-13706
rator	-13707
▁acet	-13708
▁washed	-13709
eft	-13710
▁flux	-13711
aunt	-13712
▁Napole	-13713
▁breakthrough	-13714
▁desires	-13715
▁Joe	-13716
▁touching	-13717
▁bulb	-13718
▁RF	-13719
▁2002,	-13720
rative	-13721
▁peculiar	-13722
▁53	-13723
▁Disorder	-13724
▁arom	-13725
▁arsen	-13726
utenant	-13727
▁lion	-13728
▁disappoint	-13729
ardo	-13730
ueens	-13731
▁utter	-13732
sight	-13733
▁formats	-13734
▁File	-13735
vised	-13736
count	-13737
▁strongest	-13738
▁shark	-13739
▁comprises	-13740
BL	-13741
▁arises	-13742
▁printer	-13743
▁Ta	-13744
▁Alber	-13745
▁membranes	-13746
▁pipeline	-13747
▁livelihood	-13748
▁ultrasound	-13749
▁exceptional	-13750
aceous	-13751
▁Saud	-13752
▁fracture	-13753
▁modifications	-13754
abase	-13755
expensive	-13756
pha	-13757
▁8:	-13758
▁recruit	-13759
▁obligation	-13760
overs	-13761
▁upt	-13762
▁combines	-13763
oporosis	-13764
▁appar	-13765
Every	-13766
bling	-13767
ridge	-13768
iw	-13769
second	-13770
▁sulfur	-13771
▁illustration	-13772
▁ammon	-13773
▁Agreement	-13774
▁fans	-13775
▁stimuli	-13776
ATE	-13777
building	-13778
▁Federation	-13779
▁nationwide	-13780
▁likewise	-13781
▁adject	-13782
▁Orleans	-13783
dependent	-13784
▁cookies	-13785
▁shops	-13786
▁conditioning	-13787
ophers	-13788
▁Animals	-13789
▁sexually	-13790
▁reflecting	-13791
▁wherever	-13792
▁portable	-13793
via	-13794
iolence	-13795
▁Planet	-13796
▁Eye	-13797
▁blade	-13798
▁Chair	-13799
▁Measure	-13800
▁Delhi	-13801
ocene	-13802
▁wre	-13803
▁bug	-13804
▁Sad	-13805
▁Base	-13806
▁shame	-13807
▁offensive	-13808
stock	-13809
▁sharks	-13810
▁supporters	-13811
▁Record	-13812
▁cargo	-13813
▁crude	-13814
▁Content	-13815
▁140	-13816
▁sanitation	-13817
▁Babylon	-13818
piece	-13819
▁righteous	-13820
▁Wel	-13821
alry	-13822
▁fluoride	-13823
▁Foods	-13824
▁Academic	-13825
▁consistency	-13826
inging	-13827
▁horizon	-13828
▁tourist	-13829
▁networking	-13830
▁silence	-13831
▁Tel	-13832
site	-13833
▁empirical	-13834
▁noting	-13835
▁equilibrium	-13836
▁Cart	-13837
▁freezing	-13838
▁petition	-13839
odus	-13840
▁Brother	-13841
▁interven	-13842
▁dermat	-13843
▁qualitative	-13844
▁68	-13845
▁watering	-13846
▁feathers	-13847
opsy	-13848
-16	-13849
zes	-13850
ouch	-13851
edic	-13852
IE	-13853
▁straightforward	-13854
▁vascular	-13855
▁abnormalities	-13856
anny	-13857
▁rulers	-13858
▁singular	-13859
otine	-13860
▁stool	-13861
▁spill	-13862
▁excite	-13863
▁daughters	-13864
plicity	-13865
▁Cov	-13866
▁inferior	-13867
▁Manufact	-13868
▁puzzle	-13869
▁Guidelines	-13870
▁66	-13871
▁litter	-13872
▁charity	-13873
hew	-13874
▁disagree	-13875
▁Spect	-13876
food	-13877
▁resting	-13878
▁temporarily	-13879
ivic	-13880
▁beverages	-13881
▁curiosity	-13882
▁bush	-13883
▁enhancing	-13884
cellular	-13885
▁lasts	-13886
▁rif	-13887
▁acre	-13888
▁trusted	-13889
▁fathers	-13890
OG	-13891
▁nearest	-13892
▁Alt	-13893
▁tire	-13894
oni	-13895
▁letting	-13896
▁tonnes	-13897
▁carved	-13898
▁10:	-13899
▁adventure	-13900
▁infinite	-13901
▁pean	-13902
pub	-13903
▁recipes	-13904
▁responding	-13905
▁composite	-13906
▁Silver	-13907
▁flee	-13908
ativity	-13909
▁dolph	-13910
esty	-13911
▁prohibited	-13912
▁microorganisms	-13913
▁Concept	-13914
▁philosopher	-13915
▁compelling	-13916
▁interconn	-13917
▁Sudan	-13918
▁Summary	-13919
▁coordinate	-13920
astically	-13921
▁gravitational	-13922
cha	-13923
▁clarity	-13924
▁alternate	-13925
prot	-13926
▁bol	-13927
▁CC	-13928
▁entries	-13929
inters	-13930
▁tent	-13931
▁Changes	-13932
▁handled	-13933
▁Northwest	-13934
esterday	-13935
OU	-13936
▁fifteen	-13937
▁cruc	-13938
▁communicating	-13939
▁rust	-13940
▁algebra	-13941
(1	-13942
▁Peru	-13943
etric	-13944
▁burst	-13945
bes	-13946
▁Stra	-13947
itated	-13948
▁Records	-13949
▁Amb	-13950
▁salvation	-13951
▁Colomb	-13952
▁Isaac	-13953
Some	-13954
▁commissioned	-13955
emics	-13956
vic	-13957
▁parental	-13958
▁radius	-13959
achelor	-13960
▁1993	-13961
▁respected	-13962
odd	-13963
mi	-13964
ulph	-13965
▁resort	-13966
▁limbs	-13967
hou	-13968
news	-13969
houses	-13970
rians	-13971
gly	-13972
▁pseud	-13973
neath	-13974
▁congest	-13975
▁exports	-13976
▁farther	-13977
▁2018,	-13978
ilage	-13979
▁occasional	-13980
uto	-13981
eget	-13982
▁dynasty	-13983
▁Soon	-13984
igo	-13985
▁producer	-13986
▁switching	-13987
▁Creating	-13988
▁Gab	-13989
obia	-13990
ifiable	-13991
inge	-13992
▁judicial	-13993
▁Ever	-13994
▁jar	-13995
▁Hold	-13996
▁ambitious	-13997
▁contacts	-13998
▁yards	-13999
orrh	-14000
▁Rot	-14001
▁emphasized	-14002
▁Eve	-14003
orse	-14004
▁medicinal	-14005
▁hanging	-14006
Ne	-14007
▁..	-14008
▁pist	-14009
▁iv	-14010
▁Critical	-14011
▁3,000	-14012
▁glue	-14013
▁elephant	-14014
fram	-14015
▁harness	-14016
▁worthy	-14017
ardless	-14018
▁Taiwan	-14019
▁periodic	-14020
▁Wi	-14021
▁anyway	-14022
▁Abs	-14023
▁corrupt	-14024
som	-14025
atis	-14026
raulic	-14027
▁quotes	-14028
▁adulthood	-14029
▁surprisingly	-14030
▁neighboring	-14031
▁deny	-14032
▁climb	-14033
ograms	-14034
▁cooler	-14035
▁snack	-14036
▁cylinder	-14037
▁portrait	-14038
51	-14039
▁jewel	-14040
▁metric	-14041
▁specimen	-14042
▁Ethiopia	-14043
▁bon	-14044
▁shelf	-14045
▁exceptions	-14046
▁satisfy	-14047
▁hay	-14048
▁memorial	-14049
▁Cas	-14050
▁grazing	-14051
▁Chi	-14052
▁Houston	-14053
▁documentary	-14054
hn	-14055
▁easiest	-14056
▁59	-14057
▁fitted	-14058
▁filed	-14059
▁antibody	-14060
charge	-14061
▁reass	-14062
aden	-14063
▁capitalism	-14064
ocur	-14065
▁sie	-14066
▁Document	-14067
Comm	-14068
▁Lam	-14069
▁mitigate	-14070
-14	-14071
▁propri	-14072
▁deaf	-14073
style	-14074
▁170	-14075
▁intoler	-14076
▁wilderness	-14077
TSD	-14078
math	-14079
▁microw	-14080
▁Organic	-14081
rod	-14082
▁fright	-14083
▁urinary	-14084
oubted	-14085
▁differs	-14086
▁erected	-14087
▁1991	-14088
▁shoulders	-14089
▁authorized	-14090
conscious	-14091
alg	-14092
3-	-14093
▁2004.	-14094
mother	-14095
laim	-14096
▁Programme	-14097
App	-14098
▁specially	-14099
bus	-14100
▁Swiss	-14101
▁Allow	-14102
uter	-14103
group	-14104
welling	-14105
▁Occup	-14106
▁Seattle	-14107
▁batt	-14108
▁ministry	-14109
▁cubic	-14110
▁Batt	-14111
▁disciples	-14112
▁Tob	-14113
uce	-14114
▁validity	-14115
▁reactor	-14116
▁pedest	-14117
acial	-14118
▁thir	-14119
▁pad	-14120
fting	-14121
▁Ped	-14122
▁semic	-14123
▁Parks	-14124
▁spotted	-14125
▁Subject	-14126
▁Pun	-14127
▁supervision	-14128
▁Individuals	-14129
▁practically	-14130
▁shortage	-14131
▁mandatory	-14132
▁shower	-14133
▁domains	-14134
▁Curriculum	-14135
▁trash	-14136
▁Baltimore	-14137
▁preserving	-14138
▁Mort	-14139
ulas	-14140
▁verify	-14141
hang	-14142
▁Join	-14143
▁reluct	-14144
▁stew	-14145
▁dye	-14146
pen	-14147
▁depressed	-14148
flower	-14149
▁Used	-14150
imated	-14151
▁acted	-14152
nowned	-14153
▁rituals	-14154
▁determin	-14155
▁gover	-14156
▁firmly	-14157
▁Nile	-14158
▁barely	-14159
▁americ	-14160
▁aesthetic	-14161
▁poses	-14162
▁Ga	-14163
birds	-14164
▁Gord	-14165
▁(2000	-14166
▁Olympic	-14167
▁hect	-14168
lighten	-14169
▁Rule	-14170
▁colorful	-14171
▁expressing	-14172
▁revision	-14173
▁relevance	-14174
iatry	-14175
▁pear	-14176
PT	-14177
▁sovereignty	-14178
▁abortion	-14179
▁Safe	-14180
▁laugh	-14181
▁friendship	-14182
▁highway	-14183
▁synchron	-14184
▁simulations	-14185
▁MO	-14186
▁differential	-14187
coma	-14188
brates	-14189
▁maturity	-14190
▁Tun	-14191
▁fost	-14192
▁phosphorus	-14193
▁Hi	-14194
WA	-14195
▁NA	-14196
▁numerical	-14197
▁counseling	-14198
▁bullet	-14199
▁Likewise	-14200
▁advertise	-14201
▁maximize	-14202
▁eco	-14203
ocate	-14204
▁treats	-14205
▁protests	-14206
▁Michel	-14207
▁museums	-14208
▁declining	-14209
ryst	-14210
▁Solomon	-14211
▁predominantly	-14212
▁woods	-14213
▁dinosaurs	-14214
▁incorporating	-14215
▁Production	-14216
▁Tox	-14217
▁Birth	-14218
▁pulling	-14219
▁Roberts	-14220
▁tactics	-14221
▁Flore	-14222
iguous	-14223
▁proximity	-14224
when	-14225
breaking	-14226
▁discount	-14227
▁armies	-14228
▁Ottoman	-14229
▁blend	-14230
▁Ori	-14231
▁exit	-14232
▁Puerto	-14233
antry	-14234
▁hotel	-14235
▁elastic	-14236
ansk	-14237
▁fantastic	-14238
▁Bart	-14239
▁Description	-14240
alent	-14241
▁timely	-14242
▁discourse	-14243
▁processor	-14244
prises	-14245
▁Construction	-14246
▁Shel	-14247
▁Truth	-14248
▁adaptive	-14249
▁hell	-14250
▁stresses	-14251
▁anemia	-14252
▁(196	-14253
▁gig	-14254
▁holidays	-14255
▁Finland	-14256
▁fractures	-14257
▁claiming	-14258
▁buffer	-14259
▁citation	-14260
▁garlic	-14261
▁Aristotle	-14262
▁Signs	-14263
▁tomorrow	-14264
▁demanded	-14265
▁Square	-14266
keeping	-14267
▁profiles	-14268
▁shifting	-14269
pop	-14270
iage	-14271
▁Cloud	-14272
▁Ig	-14273
▁glow	-14274
▁dorm	-14275
▁recreational	-14276
▁asleep	-14277
▁Columbus	-14278
onder	-14279
▁lawyer	-14280
▁Antarctic	-14281
▁carn	-14282
▁Iceland	-14283
▁ib	-14284
esthesia	-14285
▁organizing	-14286
▁Religion	-14287
▁cigarettes	-14288
▁headquarters	-14289
▁Friends	-14290
atern	-14291
▁Calcul	-14292
▁participant	-14293
▁sap	-14294
▁gradual	-14295
ti	-14296
▁reductions	-14297
▁Hud	-14298
▁sprou	-14299
ESCO	-14300
▁textbook	-14301
▁pile	-14302
▁treasure	-14303
▁Range	-14304
▁Photos	-14305
▁dop	-14306
elle	-14307
▁Manual	-14308
▁Interestingly	-14309
odia	-14310
▁targeting	-14311
▁IBM	-14312
▁Say	-14313
Me	-14314
▁Stay	-14315
General	-14316
▁imped	-14317
▁entrepreneurs	-14318
▁mol	-14319
▁Recon	-14320
TE	-14321
▁Arabia	-14322
ragon	-14323
▁dealt	-14324
interest	-14325
▁Hyper	-14326
▁Galile	-14327
▁definitive	-14328
weg	-14329
olen	-14330
obi	-14331
▁aligned	-14332
▁nutrit	-14333
▁spider	-14334
▁tie	-14335
▁epic	-14336
riages	-14337
▁preventive	-14338
▁humanitarian	-14339
▁imperative	-14340
▁Americas	-14341
▁patron	-14342
▁reefs	-14343
▁NAT	-14344
▁dens	-14345
▁signaling	-14346
▁Lang	-14347
▁leather	-14348
isite	-14349
▁beaches	-14350
▁trim	-14351
chy	-14352
▁seam	-14353
▁vein	-14354
▁neighborhoods	-14355
ressions	-14356
▁voted	-14357
▁marijuana	-14358
▁monop	-14359
▁2020,	-14360
▁hollow	-14361
lie	-14362
▁backgrounds	-14363
uru	-14364
lessness	-14365
▁Estab	-14366
▁Articles	-14367
▁approached	-14368
ringe	-14369
▁limb	-14370
▁attorney	-14371
▁flags	-14372
izophrenia	-14373
mir	-14374
▁simpler	-14375
▁sweat	-14376
▁Explore	-14377
700	-14378
▁lady	-14379
width	-14380
control	-14381
▁Eric	-14382
▁Pent	-14383
Fi	-14384
▁intric	-14385
▁iod	-14386
Mar	-14387
versely	-14388
▁Nag	-14389
▁punct	-14390
process	-14391
▁introduces	-14392
▁stays	-14393
▁trucks	-14394
11.	-14395
▁Peninsula	-14396
▁clues	-14397
analysis	-14398
▁correction	-14399
▁compatible	-14400
Hist	-14401
▁hierarchy	-14402
urate	-14403
▁comply	-14404
cost	-14405
▁lamp	-14406
▁arose	-14407
▁pocket	-14408
▁kern	-14409
▁HE	-14410
▁cosmic	-14411
▁Liver	-14412
▁scans	-14413
▁transparency	-14414
lem	-14415
▁keen	-14416
disciplinary	-14417
limited	-14418
▁contaminants	-14419
▁exercising	-14420
▁subjective	-14421
▁fisheries	-14422
▁(15	-14423
▁inexpensive	-14424
due	-14425
nowing	-14426
▁kindergarten	-14427
▁Chris	-14428
▁traced	-14429
▁termed	-14430
▁abst	-14431
▁restaurant	-14432
▁serum	-14433
02	-14434
▁None	-14435
▁evolving	-14436
▁Clinic	-14437
▁weekend	-14438
▁McD	-14439
▁meg	-14440
▁Simply	-14441
▁spectacular	-14442
▁gauge	-14443
market	-14444
orical	-14445
▁wolf	-14446
▁meta	-14447
▁relaxation	-14448
▁abandon	-14449
istle	-14450
aders	-14451
▁veterans	-14452
▁foliage	-14453
▁Oral	-14454
▁Everything	-14455
▁justify	-14456
▁administrators	-14457
ctica	-14458
▁978-0	-14459
isol	-14460
▁na	-14461
▁storing	-14462
▁Dead	-14463
speed	-14464
▁terrestrial	-14465
▁favorable	-14466
▁animation	-14467
▁linking	-14468
nutrition	-14469
▁1989	-14470
▁Universal	-14471
▁Alb	-14472
▁glyc	-14473
▁fiscal	-14474
▁Mercury	-14475
▁ceiling	-14476
▁Athens	-14477
▁commerce	-14478
ERE	-14479
oubtedly	-14480
ymn	-14481
▁Respons	-14482
▁momentum	-14483
▁Anthony	-14484
ME	-14485
▁corrosion	-14486
▁pulmonary	-14487
uf	-14488
▁Band	-14489
ilepsy	-14490
▁Argentina	-14491
forming	-14492
▁trait	-14493
▁bloodstream	-14494
esthet	-14495
▁Sources	-14496
▁Len	-14497
▁Clinton	-14498
ho	-14499
▁20.	-14500
▁Tow	-14501
▁penalty	-14502
▁congress	-14503
▁tide	-14504
▁Member	-14505
▁Forum	-14506
▁parking	-14507
▁Judaism	-14508
▁petroleum	-14509
▁Few	-14510
▁veterinarian	-14511
yst	-14512
eer	-14513
▁theor	-14514
mel	-14515
▁Plat	-14516
imeters	-14517
▁retirement	-14518
▁reconstruction	-14519
Cs	-14520
12.	-14521
▁2003.	-14522
▁Chron	-14523
▁selective	-14524
▁comparative	-14525
izable	-14526
▁confusing	-14527
acterial	-14528
▁societal	-14529
▁rewards	-14530
ousing	-14531
▁runoff	-14532
▁concert	-14533
▁17.	-14534
▁Comment	-14535
▁autonomy	-14536
▁verses	-14537
▁toy	-14538
▁crimin	-14539
Christ	-14540
▁guaranteed	-14541
▁asteroid	-14542
yg	-14543
▁Task	-14544
▁testimony	-14545
ificant	-14546
ophil	-14547
▁odor	-14548
▁crystall	-14549
▁astronomy	-14550
▁matches	-14551
▁boom	-14552
▁irritation	-14553
Cont	-14554
▁Cover	-14555
walk	-14556
▁exhibits	-14557
▁enforce	-14558
▁sticks	-14559
▁dirty	-14560
▁Brun	-14561
▁Adapt	-14562
▁Scripture	-14563
▁5,000	-14564
▁Donald	-14565
ivated	-14566
▁concludes	-14567
leys	-14568
▁Nevada	-14569
ixty	-14570
▁laying	-14571
▁occupational	-14572
▁fibre	-14573
▁nights	-14574
▁Stop	-14575
▁Thor	-14576
comput	-14577
▁courtesy	-14578
▁incub	-14579
▁Ple	-14580
▁recognizing	-14581
headed	-14582
holder	-14583
▁alpha	-14584
▁Titan	-14585
▁upcoming	-14586
▁tutor	-14587
▁fox	-14588
sim	-14589
gree	-14590
▁clicking	-14591
▁thrust	-14592
▁Lith	-14593
▁Acts	-14594
pa	-14595
▁wolves	-14596
▁Memory	-14597
▁refuse	-14598
▁Pick	-14599
▁seism	-14600
▁Advis	-14601
▁couples	-14602
Art	-14603
minute	-14604
▁envelop	-14605
will	-14606
oys	-14607
▁administer	-14608
▁athe	-14609
▁picking	-14610
▁Nearly	-14611
Pr	-14612
▁novels	-14613
▁vend	-14614
▁9:	-14615
▁elephants	-14616
▁curt	-14617
sea	-14618
▁Bry	-14619
▁Whatever	-14620
▁hits	-14621
edience	-14622
▁Avenue	-14623
84	-14624
bot	-14625
mans	-14626
▁declaration	-14627
enc	-14628
▁2019.	-14629
ulus	-14630
▁Guinea	-14631
amily	-14632
▁morality	-14633
94	-14634
expl	-14635
▁Seven	-14636
▁fungal	-14637
▁underneath	-14638
direct	-14639
▁precautions	-14640
rades	-14641
▁DA	-14642
▁Rat	-14643
▁Application	-14644
ondition	-14645
▁Sierra	-14646
roit	-14647
elong	-14648
opard	-14649
▁appearing	-14650
▁lips	-14651
7:	-14652
▁Morgan	-14653
▁iP	-14654
▁exempl	-14655
points	-14656
▁commercially	-14657
▁diabetic	-14658
▁talent	-14659
▁salary	-14660
▁11:	-14661
▁Byz	-14662
▁rendered	-14663
▁suggestion	-14664
eat	-14665
▁seventh	-14666
▁coping	-14667
▁craw	-14668
▁genre	-14669
▁neurop	-14670
▁marry	-14671
▁BCE	-14672
▁grocery	-14673
ijing	-14674
▁shots	-14675
olics	-14676
▁Nepal	-14677
threatening	-14678
▁tales	-14679
▁upward	-14680
▁lightning	-14681
unks	-14682
▁rebellion	-14683
▁theology	-14684
▁trium	-14685
[...]
